#version: 0.2
Ġ Ð
i n
e r
Ġ t
Ġ a
Ð ¾
o n
Ð °
Ð ¸
e s
Ð µ
o r
h e
e n
a t
Ġ S
Ñ Ĥ
a n
a r
Ð ½
Ñ ģ
i t
a l
Ñ Ģ
Ġ s
Ġ C
Ð¾ Ð
e d
in g
Ġ T
i c
i s
Ġ A
Ġt he
o u
r e
Ġ P
Ġ c
Ġ w
n d
Ġ f
i on
a s
Ġ N
Ġ M
l e
Ġ p
o m
Ġ o
Ð »
Ġ B
Ġ in
Ġ b
Ġt o
Ġ F
en t
â Ģ
Ġ R
i l
Ġ I
Ð º
Ġ W
Ġa nd
Ġo f
Ġ m
Ġ D
e w
e t
Ñ ĥ
Ġ L
o l
Ġ d
Ñ ı
Ġ h
Ġ E
Ġ 2
a m
Ġ H
e l
a c
i d
a d
Ð° Ð
u s
a y
Ñ Į
o w
i g
i v
t s
Ñ ĭ
Ðµ Ð
e c
ew s
Ġt h
er s
Ġ G
o s
u r
o t
at ion
Ġ2 0
Ġ O
i r
t er
Ġ n
ĠN ews
Ñģ ÑĤ
Ġ l
Ġ U
Ġ20 2
r o
Ð¾Ð ²
Ġ on
Ġ J
Ðµ Ð½
Ġf or
t h
Ġ re
es t
Ġ e
i m
c h
Ð ´
Ġ 1
Ġ g
ĠÐ ¿
ĠS t
Ñ ĩ
es s
Ð ²
ĠT he
m ent
Ġ Ñģ
v er
âĢ Ļ
l y
it h
ou r
Ġ âĢ
Ġ r
o p
ĠI n
u t
p or
Ð ¼
o c
a g
c e
u l
ĠÐ ²
u b
Ġ202 5
Ġs t
u n
o d
i a
Ð° ÑĤ
Ġ K
i es
ig h
ĠÐ ¸
Ġ is
Ġ V
u m
Ðµ ÑĢ
at e
iv e
v e
Ð ¿
Ġw ith
i f
Ð¾ ÑĢ
a in
Ð° Ð½
a k
Ġ y
an d
it y
is t
s t
on t
ar y
e ar
ou t
Ñ ħ
Ð ·
ĠÐ ½
c t
Ġb e
e m
Ġ (
à ´
il l
r i
Ġ 3
u p
Ġth at
Ð ±
or e
ĠR e
en d
Ñ Ĩ
ĠÐ º
a p
Ð¸ ÑĤ
h ar
Ð¾Ð »
u d
' s
ĠÐ Ł
al l
l d
a b
o k
Ġw h
e b
r om
Ġa t
ĠT r
Ð° Ð»
as t
Ð¾Ð ¼
Ġa n
Ñ İ
ĠÐ ¾
Ġa s
ic e
i al
Ð¸ Ð¸
l l
Ñ Ħ
Ġ &
. .
i p
Ġ it
e e
f f
Ð¸ Ðº
Ġ he
Ðµ Ð»
Ðµ ÑĤ
ĠT h
por t
Ġp r
er e
Ð¾Ð ³
us t
ar d
Ġc om
ĠP r
Ġ v
Ð° ÑĢ
Ð¾Ð ´
Ġ Y
i o
ion s
o g
Ñ Ī
a il
ec t
igh t
Ġb y
om e
ar t
Ð½ Ñĭ
Ñģ Ðº
Ġ -
u ary
Ð¸ Ñı
id e
ac t
ac k
o ok
0 0
l ic
Ð¾Ð ¹
Ġe x
ĠC h
ĠÐ¿ ÑĢ
ĠJ an
ĠÐ ´
Ġf rom
ou n
Ð ¹
Ð°Ð ²
a v
d u
ÐµÐ ´
an t
ĠS c
h er
Ð¾ Ð½
Ġ 0
k s
Ð¸ Ð½
Ð°Ð ¼
p p
Ð°ÑĤ ÑĮ
Ġp ro
Ġa re
Ñģ Ñı
Ġ Â
e at
Ġ or
in e
q u
ĠÐ ¡
har e
as h
ĠÐ ľ
Ġ ÑĢ
b out
Ð ³
c c
ĠÐ Ĵ
os t
ĠC om
por ts
g e
an s
Ġt r
u re
Ð¸ Ð»
Ġw as
a ve
i re
el l
Ð¾ ÑģÑĤ
Ð¾ ÑĤ
ĠC ont
in d
p l
ĠÐ ł
ĠÐ ŀ
ĠU s
ag e
k et
ĠS h
Ð¾ Ñģ
as s
Ġp l
Ġth is
ÐµÐ ¼
Ġc on
ol l
Ðµ Ðº
Ġa l
ĠâĢ ľ
er v
i k
ĠÐ ļ
ĠÐ½ Ð°
ĠA d
ĠE n
ig n
r a
Ġ ÑĤ
ay s
âĢ Ŀ
Ð¸ Ðµ
r am
Ġy ou
ĠÐ ·
ĠA r
ation s
Ġ Ñĥ
ĠP l
Ġr es
le t
Ġ3 1
ĠI nd
or s
Ñ ī
Ġs a
e x
Ġ k
or m
ing s
ĠC l
Ġc r
Ġd e
ĠH e
at ed
Ð° Ñı
Ð ¶
en s
i e
ĠC r
Ð° Ðº
Ġ "
âĢ ĭ
r ou
ĠO n
ĠJan uary
Ġc ont
Ġn ot
g et
ic al
ĠÐ ĵ
or d
ub lic
ĠW h
an ce
ĠP ro
Ð°Ð ·
ĠÐ Ŀ
en ce
Ġ j
Ġ le
o b
p t
or y
ĠS p
Ġs h
à µ
Ġh as
Ġa g
Ġ 4
ou s
Ġ |
ĠP ol
i le
ow n
u nd
ĠÐ ¼
o od
p er
Ġa d
Ð¸ Ñģ
ĠC on
ent s
ic s
Ġh ave
Ġ us
e y
ĠA ll
Ġ 5
ÐµÐ ²
it e
o ver
ou ld
ĠA n
Ð¸ Ð¹
o v
Ġsa id
ĠS ports
.. .
or ld
m er
at ch
ri b
or k
i an
ĠS ub
ÐµÐ ¹
ĠE x
Ð° ÑĨ
in ess
oun t
Ðµ Ñģ
r y
am il
g h
um p
ear ch
us iness
ĠP h
u e
Ġs p
ĠL ive
im e
Ġ up
ĠÐ Ķ
a w
Ð¸ ÑĢ
oc k
i z
s c
Ð¸ÑĤ ÑĮ
ĠÐ ³
ic h
on g
f orm
Ð½ Ð¸Ðº
Ġw ill
at es
Ġm ore
b er
al th
ul t
is e
re e
c l
f ter
Ġc h
Ð¾ Ñĩ
ĠM ar
ĠÐ ±
os e
d ay
ĠF eb
ĠD e
Ġof f
as e
a z
ĠâĢ Ķ
ec h
he n
Ð° Ñģ
ak e
v i
a h
ĠF or
ation al
P R
en c
ĠSc he
h ip
th er
am e
ab le
Ġc an
ar e
Ð¾Ð º
ĠU n
ud get
Ġ ,
Ð½ Ð¾
Ġ 8
Ġ 6
ic es
ee k
Ġa ll
d it
Ð¾Ð ±
ĠT o
m un
du le
ĠTr ump
Ġ Ñĩ
Ġ im
Ġs hare
Ġ ÑģÑĤ
i b
et t
on s
Ġy our
Ġh is
ÐµÐ½ ÑĤ
le ct
ĠSche dule
Ġc l
ĠÐ »
ĠTh is
ĠA l
ĠA bout
ol d
ac h
oc al
eat her
or t
ĠA s
p h
Ġcom p
Ġin t
Ġ out
ĠN ew
ĠR ad
Ġwh o
ĠCont act
er m
ĠU S
Ñİ Ð´
ĠB usiness
o y
Ġ202 4
ĠÐ Ľ
in k
Ġpr ice
o in
t ain
Ġw e
Ġ Q
an e
Ġ un
id ent
an k
ĠP ublic
Ġa cc
Ðµ ÑģÑĤ
Ð°Ð ¹
al s
Ð» Ñı
Ġs e
ac y
ĠÂ «
Ġthe ir
ĠL e
on d
Ð½Ñĭ Ðµ
ĠÐ ĺ
ĠÐ Ĺ
r u
Ð¾ÑĢ Ð¼
ĠD on
à ¤
ac e
ĠB udget
ic k
ic t
Â »
ĠÐ ¢
Ġa bout
v est
Ð°Ð ´
c om
ik e
ĠV ide
ic y
ĠS hare
e ed
ĠRad io
ĠE v
ĠÐ Ĳ
Ð¸ Ñĩ
ĠE m
ÑĦ Ð¾ÑĢÐ¼
ment s
od c
p r
a ff
ÑĢ Ð°Ð½
p s
Ñ į
it ies
an c
ĠÐ ¤
he d
Ġn ews
ĠM ed
Ð¸ Ð¼
ĠW orld
2 0
ĠF r
ĠB y
up port
b all
e am
Ġa r
f t
ĠÐ ĳ
is h
e op
an g
is s
or n
ĠPl ay
ĠR es
ÐµÐ½ Ð¸Ñı
g ram
ĠInd ia
Ġ .
Ð¸ Ð·
Ġa fter
ĠC ol
o ve
Ġ '
mun ity
c k
ĠH ome
os s
Ġ ì
ĠU p
r uary
Ġ our
an y
Ð¾Ð ¿
ĠB l
Ġ en
ir st
eop le
ĠC al
ĠNews let
Ð°Ð ¿
Ð° ÑģÑĤ
ĠFeb ruary
s o
Ð¾Ð» ÑĮ
on e
or ies
ĠP odc
Ġ 7
Ġthe y
eb ook
ol og
Ð½ Ð°Ñı
ĠM in
at est
igh ts
ĠâĢ ĵ
Ð¾Ð³ Ð¾
ac ebook
p en
ou nd
Ñĥ ÑĢ
or g
l es
v el
ver t
Ġit s
Ġ +
ĠÐ¾ ÑĤ
ĠM us
Ġ /
ĠW eather
ĠB r
ĠI s
ĠA pp
ĠÐŀ Ð±
Ġb ut
ĠHe alth
ĠÐ² Ñĭ
ĠL ocal
Ð¿ ÑĢ
ĠS earch
ĠM ore
Ġd o
Ġy ear
o ol
Ġa pp
ÐµÐ» ÑĮ
Ġ Ñį
sc rib
al ly
amil io
ĠA ir
m it
ĠI t
ÑĤ Ð¾
ter n
Ð¾ÑģÑĤ Ð¸
n ow
ÑĢ Ñĥ
Ġbe en
Ġs c
Ð¾Ð ¶
ĠC an
Ð» Ð¸
re at
S T
in es
Ġ1 0
ÐµÐ½ Ð¸Ðµ
Ġo ver
Ð°ÑĨ Ð¸Ð¸
ĠÐ¸ Ð½
Ġal so
il d
am p
2 5
Ð Ĳ
el y
ad e
a x
Ġ 9
ĠA nd
Ð°Ð» ÑĮ
mer ic
àµ į
Ġn ew
ĠâĢ ĺ
du c
over n
ĠPol icy
o ot
oll ow
as ts
r ow
iv acy
ver y
Ġd is
ÑĢ Ð°
ĠY our
ĠÐ °
ĠÐ¸ Ð·
Ġ1 9
ĠA meric
Ð ļ
Ġw ere
Ġwh ich
Ð¸ ÑĨ
it al
ĠS ign
Ġre c
ĠÂ ©
ĠÑģ Ð²
a i
Ġm e
Ġ $
w it
ĠAd vert
at er
Ġs erv
an n
Ġe v
ĠF acebook
ĠPr ivacy
ĠÐ¾ Ð±
i ence
ak ing
Ð¾Ñĩ Ð½Ð¸Ðº
et s
Ġp art
ĠEn ter
tain ment
Ġe m
Ġs u
Ð¸ Ð¾Ð½
ĠH ow
ĠQ u
ÐµÐ ³
ĠG u
t on
ur n
Ġh er
ĠB e
ar k
if f
r ess
iv ers
scrib e
ĠÐ £
ers on
ĠPh il
c on
ÑĤ Ð¸
Ð¸ Ð´
f amilio
ĠT V
Ð ¢
Ġp er
ĠS e
er al
t ic
rou nd
p ect
ĠCom munity
ĠY ou
ĠN ow
ÑĤ Ð°
Ð¸ Ñħ
wit ter
C C
il ity
ĠN PR
olog y
Ġp eople
ow er
u es
ct ion
ĠL ist
ĠSh ow
Ð ĺ
us s
I N
ĠL atest
Ð¾Ñģ Ñģ
ĠT op
op y
r it
ĠN ational
cl ud
w ard
od ay
Ġ à´
c er
Ġw ork
Ð¾Ð² Ð°ÑĤÑĮ
Ġint o
ag es
id ay
Ñĥ ÑĤ
Ð ŀ
ĠEnter tainment
ĠI m
Ñĥ Ð´
en g
l and
ĠÐº Ð¾Ð¼
re am
Ġg o
Ð¸Ðº Ð°
Ġf irst
o ard
ex t
B S
ĠPodc asts
Ġon e
ĠW ith
Ġl ike
E R
ĠA cc
B C
es e
E D
ĠN ot
ĠMus ic
Ġ qu
ĠT ech
end ing
form ation
ĠT oday
Ð¾Ð ·
Ñĥ Ñİ
overn ment
Ð Ŀ
t ers
it ed
Ġ0 1
ar n
ĠâĢ ¢
r ight
ĠSub scribe
Ġcr ash
Ð¼ ÐµÐ½ÑĤ
r ic
Ñĥ Ð±
ar s
a us
Ñĥ Ð¶
ĠM on
ion al
w o
Ġp ol
o x
ad el
Ġa b
if ic
as on
r ation
Ð°Ð ³
O R
Ðµ Ñħ
i ew
ĠCl ass
Ġp re
erm s
ĠÐ¿ÑĢ ÐµÐ´
ch ool
ÐµÐ ·
Ġ3 0
Ġh ad
Ġan y
ur es
am es
a u
ĠAdvert ise
d er
ph ia
, âĢĿ
Ġ und
ĠP re
t t
adel phia
Ġj ust
ÑİÐ´ Ð¸
Ġ ÑĦ
ĠW atch
Ð°Ð ±
Ġin d
ĠRe ad
ent er
ÑģÑĤ Ð²
en e
ur ing
ĠE dit
Ġs o
ĠPhil adelphia
ĠWh at
ĠW e
ĠPro gram
l ine
i ed
Ġin clud
ĠC opy
a ir
ire ct
Ð¿ Ð¸Ñģ
Ð ¡
e le
ee p
ĠL if
em ber
ĠMed ia
es ident
ĠÐĽ ÑİÐ´Ð¸
it ics
um b
ĠVide o
1 9
ĠÐĿ Ð¾Ð²
ĠCan ad
Ġo ther
em b
w e
in s
Ġa m
at ing
er ies
it s
ĠFr iday
ul l
ĠC ar
Ġt ime
iv es
ett ing
ail y
ĠR ec
Ð° ÑĪ
ial s
ĠM an
ĠMar ket
ĠIn c
Ġs ec
ĠEm ail
Ġf l
Ġb l
Ġin c
ĠD ay
Ġw ould
Ġwh at
ĠS upport
ers hip
ĠEv ents
at a
Ð¼ÐµÐ½ÑĤ Ð°ÑĢ
B A
vi ew
Ġs ome
ic ket
Ġ Z
Ñı Ð·
enc y
Ð½Ñĭ Ð¹
ĠSt ories
y s
. âĢĿ
Ðº Ð¸
h i
ĠO ur
Ġs ub
ĠSt ate
u al
an ge
ra ft
' t
ĠF l
Ġs he
ĠNewslet ter
Ð¸Ñģ ÑĮ
ĠÐł Ð¾ÑģÑģ
F L
Ñģ Ðµ
Ñĭ Ðµ
m in
a j
Ð¾Ð»ÑĮ Ð·
en n
ĠÐĵ Ð»
ĠO ff
o ad
ĠT erms
Ġt wo
ist ory
Ñı Ð½
Ñĥ Ñĩ
Ð¾ÑĤ Ð¾ÑĢ
Ð¸ Ð²
ou gh
Ð¼ÐµÐ½ÑĤÐ°ÑĢ Ð¸Ð¸
ĠD el
Ġ X
Ġre g
ĠA g
A T
ĠList en
ĠÐ· Ð°Ð¿
ÐµÑĢ Ð½
at ive
Ġw hen
c es
Ġa ct
ĠM y
I V
Ġn ow
i x
Ġ â
ĠC he
ĠÐŁ ÑĢ
ĠPol itics
Ġc ould
Ġim p
i el
m an
Ġin vest
ĠT witter
Ġh igh
rou gh
Ġ ro
oc ks
Ðº Ð°
ĠÐ ķ
Ġm in
Ġre m
our n
r al
Ð°Ð ¶
Ñĭ Ñħ
Ġth ere
Ð°Ð» Ð¸
ĠS k
Ġth an
Ð°ÑĤ ÐµÐ»ÑĮ
u c
Ġm on
ĠA m
ir m
ĠÑģ Ð¾
ĠIn st
ĠÐ¸Ð½ ÑĦÐ¾ÑĢÐ¼
ĠD is
ult ure
ĠO p
ĠÐ¿ Ð¾Ð´
Ġhe l
Ġpro v
oot ball
Ġm ed
ĠÐº Ð¾ÑĤÐ¾ÑĢ
Ð¾Ð» Ð¸ÑĤ
O N
Ġle ad
ĠPh ot
ĠF ollow
ĠÐ½ Ðµ
Ð´ Ð°
u g
Ġpl ay
ĠUp d
Ġm ar
im es
ĠV iew
f ul
n ect
iv ing
ec ial
Ġb r
Ġm ay
A R
ur r
ap p
Ġat t
op e
Ġv s
ĠN o
Ġk now
Ð½ Ð¾Ð³Ð¾
l is
iv er
ĠF in
Ġd ec
ĠE duc
1 8
ĠT eam
ĠS oc
end s
ĠS erv
Ġcont ent
à´ ¿
ĠIn vest
ĠA I
ĠN H
e p
i er
Ġpl ane
ĠS ou
Ġag ain
or th
E S
at or
ĠG et
Ġag o
ap er
Ġcon s
le ase
ĠÑģÐ² ÑıÐ·
ĠE con
Ġn o
is m
Ġthe m
, "
i um
ÐµÐ½ Ð´
u th
g y
ĠAmeric an
Ġb ack
ĠEcon om
in n
ÑģÑĤ Ð¾ÑĩÐ½Ð¸Ðº
Ġst r
Ñĩ Ð°ÑģÑĤ
ic ks
Ġb ec
ĠÐ §
ĠE lect
Ġtr ans
f er
Ġa ir
y le
Ġh ow
Ñı ÑĤ
ĠRe g
ĠEduc ation
ĠCom p
as ed
ĠÐ» ÑİÐ´
Ð¾Ð» Ð¾Ð³
ÑĢÐ°Ð½ Ð¸ÑĨ
od e
Ġre port
Ġe ff
O M
ĠD r
ous e
Ð¸ ÑģÑĤ
it ion
ĠSub mit
ag ram
ĠW eek
is ion
n oun
Ġw eek
Ġad d
Ñĥ Ð»
vel op
Ġyear s
et y
f ore
our s
ĠM e
ĠÑĤ ÐµÑħ
ĠIn s
al e
o h
as y
Ġa c
Ġserv ices
in a
Ġf in
n ess
A N
Ġt eam
Ð°Ð· Ð°ÑĤÑĮ
ĠB ut
. "
Ñİ ÑĤ
in t
Ð¾Ð»Ð¸ÑĤ Ð¸ÐºÐ°
e ver
ĠP M
Ġsh ow
om en
erv ed
ĠÐ·Ð°Ð¿ Ð¸ÑģÑĮ
ĠVide os
aus e
rib ut
j ect
ĠÐ¿ Ð¾
ĠCopy right
Ġs ign
ed eral
Ġas s
0 4
ĠÐ´ Ð»Ñı
av el
w n
) ,
Ġn eed
Ġg et
ĠB est
Ð¾ Ðµ
5 0
Ñģ Ð¿
Ġund er
ĠN FL
pl oy
Ġm an
ot her
os ts
Ġre l
ĠÐŁ Ð¾Ð»Ð¸ÑĤÐ¸ÐºÐ°
ĠEn g
Ġhel p
Ð½ Ð¾Ð»Ð¾Ð³
ĠC BS
Ġg r
Ð² Ð°ÑĢ
ĠS he
Ġon ly
ash ing
ĠC o
at ur
ĠCanad a
Ġre ad
Ġst ate
Ġb et
Ġres p
Ñģ Ð»
E N
w ay
re ad
le y
Ð¸ÑĤ Ðµ
Ġs ays
ĠRe port
e g
ĠÑĤÐµÑħ Ð½Ð¾Ð»Ð¾Ð³
Ġ if
Ð½Ð¾ Ðµ
ĠS m
Ġh ere
I C
Ġ2 4
an ts
Ġc all
ĠA t
Ġex per
Ġre t
b r
ĠD aily
ĠPr ess
ÑĢ Ð°ÑĤ
ÑģÐº Ð¾Ð¹
ĠNewslet ters
ÐµÑģ Ñģ
Ġm y
h ic
Ġto p
ĠF rom
ĠO f
3 0
ec ut
Ð ľ
Ð¾Ð² Ð°Ð½
Ġin ter
ĠPr esident
el s
U T
ĠD own
ĠO r
ot h
n ology
Ġl aw
es ts
ÐµÐ ¿
er t
ul ar
ĠS chool
ĠC ount
at t
as es
aff ic
al d
r on
ĠL ink
ak es
ĠH ol
ivers ity
Ñģ ÑĥÐ¶
ĠÐ¿ÑĢ Ð¾
ĠH igh
ot t
ĠF ootball
end ar
00 0
an a
ĠC are
le ge
oin t
ĠÑĤÐµÑħÐ½Ð¾Ð»Ð¾Ð³ Ð¸Ð¸
al k
ĠM en
Ġe very
Ġwh ere
Ð¿ÑĢ Ð°Ð²
ĠO pen
ub e
Ġcont in
Ġc o
ĠSou th
ĠF CC
IV E
E W
ĠBl ack
p art
Ġl ook
ill ion
C A
Ġth rough
Ġwh ile
ĠS ec
Ġde f
ist ration
ĠP ar
Ġt ar
l ob
erson al
es p
er y
iel d
ir on
ir es
1 0
Ġp ass
ĠSc ience
Ġ ÑıÐ½
Ġ1 2
ĠÑģÑĤ Ð°ÑĤÑĮ
Ġg overnment
Ġs upport
Ġth ese
ord ing
y st
rou p
ĠÐŀÐ± ÑģÑĥÐ¶
ĠG o
ant asy
re en
Ġd own
il it
Ġm ost
Ġd ay
t y
ĠÐº Ð¾Ð½
ĠG r
Ġ :
ĠR el
ĠAs s
at h
is ter
Ð½Ñĭ Ñħ
n es
ens e
Ġin st
ĠH istory
v ers
ĠÐ· Ð°
Ġs m
Ġ ...
ĠÐ² Ð¾Ð¹
ed it
end er
Ġst art
ÑģÐº Ð°Ñı
Ġcon f
Ġoff ic
ĠDel hi
g o
ĠÑģ Ð°Ð¹
ĠSt aff
and s
ĠIn tern
Ġis s
Ġ1 1
ĠD o
20 25
is ing
ĠL IVE
l ed
v iron
ar m
ÐµÐ ¶
it t
et h
I T
ĠCal endar
ÐµÐ» Ð¾Ð²
ĠÐļ Ð¾Ð¼
Ġinclud ing
ĠCon nect
iss ion
ĠN BA
id er
ig ital
ĠEdit or
ĠRe p
ĠF ile
Ġw ell
le g
ĠS ur
ur ity
Ð¸ ÑĦ
ĠÐŁ Ð¾Ð´
ÑģÐº Ð¸Ð¹
ro ad
ĠC ap
T he
ĠD ec
ÑĢÑĥ Ð·
Ð¸ Ð³
Ġb u
Ð¸Ð» ÑĮ
ĠJ az
ĠI N
in ce
Ġagain st
ĠÑıÐ½ Ð²Ð°ÑĢ
Ġin s
ĠB as
est yle
l ing
Ġc ount
ĠM L
am s
Ġg u
a f
Ġ1 5
ĠSp ons
at s
ĠL og
ĠÐĿÐ¾Ð² Ð¾ÑģÑĤÐ¸
ĠÑıÐ½Ð²Ð°ÑĢ Ñı
im s
ĠÑĩ ÐµÐ»Ð¾Ð²
Ġh ome
in ion
Ġc ap
ĠCr ash
viron ment
os p
ĠTr ans
ĠA fter
Ðº Ñĥ
eb s
ĠF antasy
Ġr ights
Ð Ķ
ĠÐ¡ ÑĤ
ĠÐ± ÑĥÐ´
ĠC har
ĠÑĩÐµÐ»Ð¾Ð² ÐµÐº
Ð¾Ð² Ð¸Ñĩ
Ð¼ Ð¸
ĠNH L
ð Ł
ul es
ur s
ĠÐº Ð°Ðº
ashing ton
if e
Ġbe fore
pt ion
ĠW ashington
` `
v en
Ġf ree
I n
ĠB u
is ts
ĠW est
Ġmar ket
min istration
il m
vi ews
l ines
ĠSt ud
ĠÑĩ ÑĤÐ¾
ĠÑį ÑĤ
ist an
ĠC ity
Ð½ Ð¾ÑģÑĤÐ¸
Ð ł
Ġth ose
ain ing
ĠTr ending
ĠY ork
Ð¸Ð» Ð¸
Ð°ÑĤ ÐµÐ»
ĠClass ical
ĠO ut
ĠU nd
Ġb el
ĠLif estyle
ÑĥÑĩ ÑĪ
Ġs ur
Ġ1 8
lis hed
i ous
ĠÐ ¶
iv id
Ð°Ð² Ð¸ÑĤÑĮ
ÐµÐº ÑĤ
uth or
Ð¾Ð³ Ð»
ĠR uss
Ð°ÑĨ Ð¸Ð¾Ð½
ĠS up
Ġus e
he l
ot e
ĠJaz z
1 4
Ð Ĵ
Ġw orld
ĠÐł ÐµÐº
ĠG old
v ail
y l
ĠCol lege
ul ts
m ed
ĠB etting
Ġin formation
ĠF ire
Ġn ear
Ġex pl
Ġl ast
ket ball
ĠS o
Ġc re
id a
ĠÐľ Ð¸ÑĢ
S S
Ġa round
ĠR o
Ðº ÑĢÐ°
C OM
ard s
ust ry
Ð½ Ð¾Ð¼
Ġhe alth
ib le
ĠInst agram
Ġ8 9
Ġs ee
I A
ec ast
ie f
T V
er gy
Ġd et
ĠO b
0 1
u ch
ĠÐ µ
ent ial
ĠServ ice
Ġbe ing
ĠB ank
ĠÐ¡ Ð¿
ĠA re
Ġin f
Ġ1 4
ĠC ulture
ĠA P
ĠCr icket
Ġ ë
Ð¾Ð´ Ð°
ĠAr tic
Ġd uring
ĠJ ust
Ġres earch
Ġm ake
ĠTh at
ĠÐ»ÑİÐ´ ÐµÐ¹
ÐµÑģÑĤ Ð²
Ġev en
lob al
ĠB oard
yst em
u ck
Ġd r
ĠÐ²Ð¾Ð¹ Ð½Ñĭ
Ð½ Ð°
Ġp ost
ĠSh op
ilit ary
ĠÑĩÐµÐ»Ð¾Ð²ÐµÐº Ð°
t en
Ð¾Ð± Ð°Ð²Ð¸ÑĤÑĮ
es h
Ġcont r
o ts
Ġs ay
ĠÑģÐ°Ð¹ ÑĤÐ°
c uss
Ġd el
Ġ #
oc us
ĠS eries
Ġd id
Ð½ Ð¾Ð²
orn ing
Ġc he
ĠPl ane
à´¿ âĢĭ
/ /
if ied
ourn al
ĠSt ream
Ġd irect
oc i
amil y
ĠDon ate
r oss
it es
ub lished
ĠÐĶ ÐĿ
ĠÐĹ Ð´
ĠÐ¸Ð½ÑĦÐ¾ÑĢÐ¼ Ð°ÑĨÐ¸Ð¸
Ð ķ
Ð¾Ð»ÑĮÐ· Ð¾Ð²
ĠOp inion
ĠW ill
Ġth ree
ĠÑģ Ð¿
g an
E O
om es
ÑĢ Ñĭ
ĠN et
ur ed
ĠÐŁ Ð¾Ðº
ĠÑģÑĤ ÑĢÐ°Ð½Ð¸ÑĨ
Ġp h
Ġ202 3
ib ility
Ġh im
Ġar tic
ec ts
os ed
ĠÐºÐ¾ÑĤÐ¾ÑĢ ÑĭÑħ
ĠN orth
ĠÑģ Ð¿ÑĢÐ°Ð²
Ġt ake
ĠÐ¸ ÑģÑĤÐ¾ÑĩÐ½Ð¸Ðº
Ġd es
ur y
ĠH T
ut e
Ñĥ Ð»Ñı
ĠTr avel
Ġde velop
Ġsh ould
Ġem ail
Ġg row
Ġp ublic
cl us
ĠE l
Ġ à¤
Ð°Ð± Ð¾ÑĤ
i ent
b ack
Ð¾ÑģÑĤ Ð°Ð²
c ul
n a
Ġm any
ĠÐ Ń
Ð° ÐµÑĤ
ĠS w
ĠIn ter
Ġor der
n s
Ġt ech
ĠC enter
ĠA ust
Ġf ollow
ir ed
enc es
ĠOn e
Ð°ÑĤÑĮ ÑģÑı
ĠH er
es ent
ĠÐŀÐ± ÑĢÐ°ÑĤ
Ġ1 6
ĠÐĿ Ð°
Ġmon th
ĠÑģÐ²ÑıÐ· ÑĮ
ĠMen u
ĠT ax
Ð Ł
ain s
ĠÐŀÐ±ÑĢÐ°ÑĤ Ð½Ð°Ñı
ÑĢÑĥÐ· Ð¸ÑĤÑĮ
Ġst ud
Ġf ire
ĠF ood
Ġd on
ĠÐĶÐĿ Ðļ
ĠI f
ĠG ED
Ð¾ÑĩÐ½Ð¸Ðº Ð°
ĠÑģÐ¿ÑĢÐ°Ð² Ð¾ÑĩÐ½Ð¸ÐºÐ°
ĠGED COM
Ñħ Ð¾Ð´
Ð¾Ð²Ð°ÑĤÑĮ ÑģÑı
F S
Ð¾Ð³Ð» Ð°ÑĪ
ar r
ĠP un
our t
Ñī Ð¸Ñħ
Ġad v
ĠC or
is ed
Ġw ant
ĠM ay
we en
Ð½ Ð¾Ð¹
ul s
Ġo wn
ĠP icks
Ġd ays
ele br
hic le
Ġs k
Ġb usiness
ĠPre m
Ġl ong
ĠC ent
: //
ĠÐ¿ ÐµÑĢ
al a
ĠTech nology
urr ent
ĠÐļÐ¾Ð¼ Ð¼ÐµÐ½ÑĤÐ°ÑĢÐ¸Ð¸
Ġe lect
ĠML B
Ġc ol
Ġf ederal
Ð° Ñħ
ĠP et
Ñĥ Ñģ
ĠUs e
ru ct
ĠÐŁÐ¾Ðº Ð°Ð·Ð°ÑĤÑĮ
o or
Ġ ÑĨ
Ġto day
i or
if t
Ð¾Ñģ Ð»
à ¥
Ġ [
ĠF eat
Ð² ÐµÑĤ
ĠÐĵÐ» Ð°Ð²
ĠV al
Ð¿ Ð»
ÑĩÐ°ÑģÑĤ Ð½Ð¸Ðº
ĠRep ublic
ĠIn formation
iff s
v ed
it ical
re t
b le
ĠAn g
m y
ĠH ere
ĠWh y
ĠLink ed
2 4
ĠInd ian
our ces
g est
Ġc har
T S
ĠAd v
ĠPodc ast
el f
ĠRe al
´ ì
ĠG ames
ĠEx pl
l oad
Ġex p
tt ps
u el
ĠS atur
ÐµÐº Ñģ
Ġw ebs
F C
en er
ĠV e
Ġacc ess
Ð¾Ð³Ð»Ð°ÑĪ ÐµÐ½Ð¸Ðµ
ĠP art
Ġb ig
E L
Ġf e
e f
ĠN BC
U S
ĠThe y
Ġd ata
ĠProgram s
Ġ2 3
anc ial
ĠUnd er
ĠV ir
ĠT imes
Ġc ar
ÐµÑĤ Ð¸
id es
ĠSatur day
ĠB re
T h
Ġre ce
ĠÐ±ÑĥÐ´ ÐµÑĤ
ĠEn vironment
vail able
c ed
ĠD irect
ĠAr ts
d s
Ġ20 1
ĠCal if
Ġâ Ĥ
Ġm ade
ĠSt ock
ĠDon ation
Ġ1 7
Ġ2 5
UT C
ĠP ower
c ast
ĠSt ocks
ĠInvest ig
Ð´ Ñĥ
ĠAr t
ĠR ed
ĠH ouse
ĠCount y
iz ed
ward s
ĠA M
Ġ2 2
ĠO ver
Ñ ĳ
ĠF A
Ġh ttps
Ġsec ond
ar am
Ð Ľ
Ð¾ÑĢ Ð¾Ð²
r ain
Ġf und
ĠUn iversity
ĠÐŁÐ¾Ð´ Ð¿Ð¸Ñģ
I S
Ġ end
Ġc oll
er ts
ĠP at
Ðº Ð°Ð·
Ð¾Ð¼ ÐµÐ½Ð´
Ð¾ÑĢ ÑĤ
ĠE st
ÑĨ Ð¸
ÑĥÐ»Ñı ÑĢ
ĠN ext
Ġr ed
ĠMon th
n er
Ġr un
Ġbet ween
Ð» Ð°Ð¼
Ġsu ch
Ġst ory
ĠF irst
ĠAdvertise ment
at ors
om a
id d
he ast
3 1
i am
w ood
ĠM emb
Ġan noun
C H
orn ia
Ð°ÑĤÐµÐ»ÑĮ Ð½ÑĭÐµ
. ,
r est
us h
pr ess
Ð¸Ð½ Ð°
ĠIn f
Ð ĵ
l ish
ĠÐľ Ð¾
Ð¸Ð· Ð½
Ġcomp any
Ġre qu
om in
Ġin v
Ð¾ÑģÑĤ ÑĮ
oin ts
part ment
or ed
ĠM c
ĠW eb
ak istan
ĠÐ½ Ð¾Ð²
ĠB ar
Ġs har
y ing
ĠÐŁÐ¾Ð´Ð¿Ð¸Ñģ Ð°ÑĤÑĮÑģÑı
Ġ1 3
ĠG overnment
er ing
ĠF eed
Ġl ist
ĠSt art
Ġp rom
ĠE T
Ġmed ia
Ġb as
an ies
ĠF M
I D
le ar
Ġb est
ĠTr affic
Ð¾Ð¼ÐµÐ½Ð´ Ð°ÑĤÐµÐ»ÑĮÐ½ÑĭÐµ
Ð¾Ð¿ ÑĥÐ»ÑıÑĢ
Ð´Ð° ÐµÐ¼
dit ions
ĠP ost
Ġc are
Ġk ill
Ġle g
ĠSoc ial
ecut ive
ĠCalif ornia
2 2
à´ ķ
ÑīÐ¸Ñħ ÑģÑı
ĠÐŀÐ±ÑģÑĥÐ¶ Ð´Ð°ÐµÐ¼
A S
um an
ĠS an
w ar
is it
ĠChe ck
ĠA ct
lic k
ĠB ook
hip s
ĠShow s
Ġgo ing
Ðµ Ñĩ
Ġo p
ĠUn ion
ĠFl or
Ġpro f
ĠÐ¸ ÑģÐ¿
ĠP akistan
ĠP R
à´ ¾
per t
l a
Ġ ec
ĠC O
amp a
aj or
ĠÐ ¨
r ed
ĠCl ose
b ook
o es
ÑĨ Ð¸Ð¸
Ġres erved
) .
im ate
ĠG ive
ĠÐ¿ Ð¾Ð»
Ġad ministration
ĠUn ited
Ð°ÑĢ ÑĤ
ĠSp ecial
am er
ĠM ich
Ġret urn
f or
ĠÐłÐ¾ÑģÑģ Ð¸Ð¸
ĠCon s
Ġg ood
ig ation
ĠA f
ĠD et
ĠÑģ Ð°Ð¼
r ap
ĠB ow
ip s
Ġse ason
Ġpro gram
Ðº Ð¾
Ġm ain
Ġst ill
ĠÐ´ ÐµÐ»
ĠM ag
Ġm od
Ġpr ot
Ġex t
ic o
ĠÐŁ ÐµÑĢ
T A
Ġs et
ĠÐºÐ¾Ð¼ Ð¼ÐµÐ½ÑĤÐ°ÑĢÐ¸Ð¸
Ġhe ad
Ġbec ause
Ġo pen
amp ions
od y
ĠD es
ĠO ther
ail s
ÐµÑģ ÑĮ
ĠHe ad
Ġg ame
ĠEv ent
in ks
id s
ĠÐŁ Ð¾Ð¿ÑĥÐ»ÑıÑĢ
ĠFlor ida
Ġa ff
Ġs up
Ġw rit
Ġinc re
h ind
t o
ĠS ee
ĠW hen
Ġdo es
y pt
ic on
ĠPr ice
ol f
Ġr ight
Ð°Ð½ Ð°
Ġex pect
ob s
h a
on om
pt ions
Ġcom munity
U N
p ar
ĠN EW
Ð³ ÑĢ
am a
uls a
Ġm ov
à´ ¨
Ġd iff
ĠK ar
ĠDown load
Ġw ay
c ess
Ð¸ Ñİ
ĠD igital
Ð¸Ðº Ð¸
A L
m e
ur u
ĠD FS
Ð¾Ð² Ð¾Ð¹
ĠR ights
ĠO k
s p
Ġt ax
ĠT H
ÐµÐ³ Ð¾
osp ital
A P
a un
ĠP er
ĠW ed
ate g
y p
Ġ ed
ĠR s
ut ure
Ġwith out
sc ri
Ġk ey
ol ut
Ġst ories
ÑĢÐ° ÑĦ
e es
ĠAr ch
ĠÐĺ Ð·
y n
le x
Ġs ite
Ġs ystem
g in
iz e
ĠGu ide
ĠPhot o
ĠM ov
âĢ Ķ
il es
Ġm uch
as hed
ĠMemb ership
ĠÑģÑĤÐ°ÑĤÑĮ Ð¸
ĠJ oh
ĠP ersonal
ĠD em
ĠB ay
Ġ2 1
ĠPhot os
o an
àµ ģ
Ġs oc
ĠCom m
ort heast
ear s
ene f
ĠL os
ÑĢ Ð°Ð¼
Ġb oth
Ġl ocal
ut es
ĠÑĢ Ð°Ð·
ĠLe ad
p le
u ed
Ġp ower
ĠSk ip
W E
ĠP eople
ĠW omen
Ġb re
age ment
Ġ5 0
ĠWh ite
or ts
ĠLif e
c o
ĠM et
Ð¾Ð² Ð°
ĠH el
ĠÑĢ Ð°Ð±Ð¾ÑĤ
ĠLe g
ers t
ĠAcc ess
ĠSt and
cc ess
Ġac ross
a id
ĠT ar
ĠD av
Ġf ac
th ing
ĠLinked In
' re
ĠAmeric a
ÐµÐ½ Ð¸Ð¹
ĠCal cul
ÑĢ Ð¾
ĠÐ£ ÐºÑĢÐ°
Ġup d
Ġs ince
Ġ2 7
Ġth ink
ĠÐ± Ñĭ
Ġresp ons
Ġh ours
w ork
Ġapp ro
ĠÐºÐ¾Ð½ ÑĦ
ĠÐĵÐ»Ð°Ð² Ð½Ð°Ñı
Ġw eather
ĠM ex
Ð¾Ð²Ð°Ð½ Ð¸Ñı
ĠA b
ĠR ules
ĠPrem ium
a im
Ġp ar
ÐµÐ ±
ĠB ack
ĠÑĢ ÐµÐº
e a
r ict
Ð¸ ÑģÐº
Ġv i
ĠAust ral
ĠW N
ob ile
Ġl ink
he ad
v es
it u
ĠEst ate
ÑĤ Ðµ
L E
Ġ202 2
end ed
ĠVe hicle
er n
ĠF ree
ĠEconom y
il y
S t
un t
ĠAng el
on y
ĠRes ults
Ð± Ð¾ÑĢ
ĠPlay ing
Ð¾ Ñī
aram an
b e
Ġacc ording
ĠS und
Ġl atest
Ġacc ount
ĠÐ¸ÑģÐ¿ Ð¾Ð»ÑĮÐ·
o ices
Ġ ðŁ
Ġf ound
ant a
ĠFin ance
g ed
ect ion
al ys
in o
ot a
Ġ icon
ĠP rom
iv al
ĠInc ome
ĠElect ion
ust om
ĠM orning
du ct
ÑıÑĤ ÑĮ
ĠI d
ith araman
ĠDon ald
or es
2 3
op ter
ĠSpons ors
ĠSt r
ĠR SS
ap pen
Ð» ÐµÐ½Ð¸Ñı
o ff
ĠJ oin
ĠIntern ational
Ġre al
b or
w ays
Ð» Ð°ÑģÑĤ
ĠCont est
ĠS itharaman
ab ad
port un
ĠW WE
ĠÐ¿ Ð¾ÑģÑĤ
ĠÐ¾ Ñģ
Ġsm all
Ġ ide
Ġthe n
Ġn ext
Ġr est
u ally
Ġe ar
ĠM ap
ĠI P
ĠR et
Ġsoc ial
W e
at ter
ĠWh o
id ed
Ġsp e
ĠB ec
and ing
ag ue
ĠUS D
B I
Ġl ar
ĠTh ere
ĠBow l
Ġf our
Ġec onom
w rit
ÑĢ ÐµÐ¼
ĠS en
Ġtr ad
Ġì Ŀ
Ġf ilm
ĠCh ampions
ĠB ig
Ġo b
ĠB eng
A I
ĠÐ¸ Ð»Ð¸
Ġf r
Ġm om
ain ed
Ġcount ry
ĠArtic les
É Ļ
as ter
m ig
it ing
Ð¼ ÐµÐ½
Ġ very
Ġs l
Ġhe lic
Ð°Ð½ Ð¸Ð¸
M A
Ð¸ÑĤ ÑģÑı
Ð½ ÑĤ
om an
ack s
ĠCr ypt
Ð¸ÑĤÑĮ ÑģÑı
h ood
Ð°Ð» Ð¸Ð·
i at
Ġa uthor
Ġto ld
ÐµÐ´ Ð°Ðº
Ð¸ Ð±
ot ential
ĠÐ² ÑģÐµ
ĠP ort
ĠSt e
ÐµÑĢ Ð¾
ÐµÐ² Ð¸Ñĩ
e igh
Ðµ Ðµ
ĠN ortheast
Ñĥ Ð¼
ash ion
ĠW ays
let ter
R I
ĠEm ploy
ĠCol um
Ġo per
Ġper form
ed ict
Ġl ife
ar a
ĠT ele
Ġf ind
Ġv ide
ĠUpd ates
âĢ ĵ
ÑĮ Ðµ
k rain
in c
is on
ĠR ank
ol s
ÑĮ Ñı
ĠDe f
ĠNEW S
Ð´ ÑĢ
ĠSt ory
Ð²ÐµÑĤ ÑģÑĤÐ²
ĠCh r
ĠS ust
ent ion
ly wood
y ear
Ñģ Ð»Ð¸
Ġs om
Ġs chool
ĠF est
ĠÐĴ Ð¾Ð¹
Ġme et
ĠIm ages
Ð°ÑĨ Ð¸Ñı
2 6
ar ies
av ing
ĠBas ketball
Ġ20 0
ÑĨÐ¸ Ð°Ð»ÑĮ
ĠG en
ĠSup er
à ª
er r
ĠCalcul ator
k e
ĠÐ¼ Ð¸ÑĢ
c le
s h
ÑĢ Ð¸ÑĤ
og le
w w
Ġp os
ĠD raft
Ðµ ÑĪ
Ð³ Ð¸
i ans
à´ ¤
au gh
ĠE ast
at her
ĠG roup
ÐµÑĢ Ñĭ
ir l
ĠCare ers
ĠC ook
Ġartic le
r en
Ġf eat
vi ous
ot o
ĠAngel es
ì Ŀ
iv ely
ĠMon ey
Ðº Ð¾Ð²
Ġtar iffs
ĠA ut
oc u
ĠÐłÐµÐº Ð»Ð°Ð¼
ÐµÑĢ ÑĤ
ru g
Ð ¨
ĠT ex
ill s
Ġsa f
Ġc ent
Ġd em
ĠAn noun
Ġ19 9
ĠMe et
Ġ1 00
ra el
ÑĥÐ» ÑĮ
R A
n ing
ĠL ear
ĠW ork
Ġgrow th
ĠOn line
ĠM atch
ĠD C
Ġg reat
à´ ¯
Ġcom ment
ĠAir port
L L
IN G
ĠSt ay
j ab
ĠP ublished
Ġ2 8
1 5
O T
ĠP al
Ġw omen
ĠÐ´ Ð°Ð½
umb ai
ĠEconom ic
W orld
I ON
R E
ĠG lobal
ir d
ag s
Ġm emb
Ġfor m
enc ies
Ġcomp let
o on
th ers
mit t
scri ption
Ġre f
ĠF ound
Ñħ ÑĢÐ°Ð½
Ñı Ñħ
Ġv ia
ĠF ind
Ġm illion
ĠSt ates
Ð¾Ð¼ Ð¾Ñī
ĠApp s
Ð°Ð»ÑĮ Ð½Ð¾Ð³Ð¾
Ġserv ice
Ġexper ience
road cast
im ited
Ġ enter
ess ion
ĠH or
ĠBeng al
ĠS ong
ĠP op
ab ility
ĠCont ests
ĠFor ecast
Ġ8 8
Ġcl ass
at ure
ÐµÐ½ÑĤ Ð°
Ð¸Ð´ ÐµÐ½
Ġh appen
lic ations
Ġare a
ĠWh ile
Ġall ow
Ð» Ð°ÑĤ
ie ve
e er
our ce
ĠK h
Ð¿ÑĢ Ð¾
e v
an i
Ð°Ð» Ð°
ord s
r ing
is k
Ġb udget
ĠDe partment
Ġan other
ĠÐ¤ ÐµÐ´
i ety
ĠM umbai
ĠÑĢ Ð°Ñģ
Ġpol icy
ĠÐ ¥
Ñĭ Ð¹
ĠK V
Ġde ad
Ġqu est
ou d
ĠCr edit
ĠMex ico
p aper
Ġ ÑĪ
Ġhelic opter
ĠU krain
g er
ÑĢ ÐµÐ²
is c
and a
i qu
Ð² Ð°Ð½
ord er
ĠC ities
is es
ĠÑĤ ÐµÑĢ
Ġs im
ĠCh ina
Ġc ook
g ress
Ð¸Ð·Ð½ ÐµÑģ
Ġdiff er
ĠR ock
Ġ2 9
ad es
ĠV ol
h am
Ġse ver
ĠElect ions
Ã ©
Ġ ÑĦÐ¾ÑĢÐ¼
Ġf amily
ch es
ĠR ob
Ġst ar
Ð £
Ġ ent
ĠOff ice
r up
Ð¸ÑĤ ÐµÐ»ÑĮ
o o
os c
ÐµÐ½ ÑĮ
Ġw ind
ĠÐ· Ð½
ÐµÐ´ Ð¸
ĠÐ° Ð½
u ts
ĠD ist
ĠD eep
ÐµÐ½ Ñı
ag o
og n
ÑİÑĤ ÑģÑı
Ġinv ol
n e
on es
Ġe qu
Ġreport ed
Ġre le
Ġw in
ĠF orm
Ġm iss
ÐµÐ½ Ñĭ
ult ip
Ġresp ond
ĠWed nes
Ð½ Ñı
ĠPr int
Ð¸Ñĩ Ðµ
ĠL aw
Ġcomp anies
ĠIs rael
Ð» Ð¾Ð³
à´¾ âĢĭ
ĠÐĴÐ¾Ð¹ ÑĤÐ¸
Ð¾Ð³ ÑĢÐ°ÑĦ
Ġus ed
Ġwebs ite
Ġm us
ip p
ĠReg ional
Ñı Ð¼
ĠRe views
ab or
ĠÑĥ Ð»
ÑģÐ» ÐµÐ´
ĠAss oci
Ð¿ÑĢÐ¾ ÐµÐºÑĤ
r ies
Ġp ick
ĠE ur
ĠWednes day
al t
ĠTh urs
Ġpr esident
ĠÐ ¦
Ġc over
ent ly
Ġd ist
Ð°Ð¼ Ð¸
ĠÐĴ ÐµÐ»
1 1
m a
ĠM od
Ð¾Ð² Ð¾ÑĢ
ĠH is
ĠG reen
eat h
ĠÑĥ ÑģÐ»
ĠT enn
w a
Ġp at
Ġcon cer
D A
Ð ĳ
ĠJ obs
ĠÑģ Ð¾Ð·
un e
Ġconf irm
ĠStud io
Ð¸Ð´ÐµÐ½ ÑĨÐ¸Ð°Ð»ÑĮ
ĠT ulsa
Ġp ur
ĠH aw
Ġ202 1
ĠCent ral
ĠÐºÐ¾Ð½ÑĦ Ð¸Ð´ÐµÐ½ÑĨÐ¸Ð°Ð»ÑĮ
ĠC elebr
ÐµÐ½ Ð½Ð¾
read y
" ,
ÑĤ Ð¾ÑĢ
Ġp op
ĠÐºÐ¾Ð½ÑĦÐ¸Ð´ÐµÐ½ÑĨÐ¸Ð°Ð»ÑĮ Ð½Ð¾ÑģÑĤÐ¸
Ð°Ð» Ð¾Ð³
ĠMin nes
ĠÐ¸ÑģÐ¿Ð¾Ð»ÑĮÐ· Ñĥ
Ġw atch
ĠW ild
Ġm ust
im in
Ġt ri
ÑģÐº Ð¾Ðµ
Ġadd ress
ĠMinnes ota
7 7
ĠB io
Ġ202 0
l er
ĠS U
Ġc lear
ĠRel ated
ĠG as
Ġpr ess
ĠÐ´ Ð¸
ical ly
m on
ĠÐ²Ñĭ Ð±
Ġ Ã
ro p
ĠÐł Ð°Ñģ
Ġp erson
a ur
ĠS C
ÐµÐ½ Ðµ
mer g
Ð¾Ð¼Ð¾Ñī ÑĮ
Ġf act
Ðº Ðµ
ĠH y
Ġn ight
ĠÐĹ Ð°Ðº
ĠÐ¾Ð± Ð»Ð°ÑģÑĤ
í ķ
Ġp ay
ad o
ĠÐ¿ Ð¾ÑģÐ»
at ic
ĠT ri
Ġth ough
ĠÐĹ Ð°Ð³
ĠF ashion
Ġk n
Ġch ild
Ġev ent
it ness
Ġm ove
ĠPro ject
Ð°Ð· Ð°
m ar
ĠC ode
iv en
Ġiss ues
alys is
m p
r ast
Ġs ent
Ġm em
ĠG iving
ĠEx p
Ġc or
ĠÑĤ ÑĢ
Ġcr ashed
3 6
`` ``
ĠA BC
ĠG ood
ĠJ ournal
E C
Ġp otential
iv ate
ĠC ourt
Ġm ilitary
irm ala
ĠSund ay
et er
ĠS har
ĠÐĴÐµÐ» Ð¸Ðº
it ive
ĠC over
Ġm aking
à´ °
ÐµÑĤ Ð°
ĠThurs day
ĠMag az
l ah
ĠAd d
ÐµÑģÑĤ Ð°
ĠS I
Ġm ajor
oc r
ĠÐ² Ð¾
ĠQu ick
ĠAcc ount
Ð½ ÐµÑĢ
Ġsu ccess
ĠComp any
ĠÑģÐ¾Ð· Ð´
p ro
ve y
ultip le
ĠS T
le ment
ĠK L
1 7
Ġtr ade
ĠCr ime
ĠÐĺ ÑģÑĤÐ¾ÑĩÐ½Ð¸Ðº
Ġf ull
ĠMin t
ĠOk lah
Ġp oints
og s
Ð¨ ÐĲ
ĠN irmala
ĠOklah oma
ĠS anta
Ġ0 3
ÑĥÑİ Ñī
Ġmemb ers
b y
ic ago
Ġf ocus
ĠÐ½ Ð°ÑĢ
y a
en ing
ĠAf ric
ĠP lease
ÐµÐ½ Ð°
ĠÐ¡ Ð¨ÐĲ
ĠCl ub
ĠJoh n
Ðµ ÑĨ
ĠM ost
Ġh ost
ĠSt ar
Ġpart ic
ĠÑįÑĤ Ð¾Ð¹
Ġc urrent
Ð² Ð¾Ð¹
Ð°Ð½ Ð¸Ð¹
ĠCh icago
Ġpro duc
0 2
ac es
ĠK now
Ġpl ace
ĠÑĤ Ð°Ðº
n ov
all s
Ġpro cess
ĠÐº Ñĥ
Ġas k
ĠP ass
Ġst ock
à´ Ł
ĠEng land
ĠRank ings
l ight
Ġ Ñħ
ĠA wards
Ġf uture
ĠÐĳ Ð»Ð¾Ð³
Ġw r
ĠÐĵ Ðµ
ÑĥÑĢ ÑģÐµ
am b
ĠInd ustry
n ame
Ġcom ments
Ġfin ancial
ĠHel p
ĠKL CC
eigh bor
Ġt urn
ĠA tt
Ġh istory
ĠT ake
Ġp m
Ġv al
ÑĦ ÐµÑģÑģ
ĠÐ¸Ð½ Ð´
Ġdel iver
Ġkill ed
ĠÐĲ Ð½
in ed
ĠE very
Ġa vailable
ÑĢ Ð°Ð»
Ġre ally
ÐĲ Ð¢
ep end
ent al
us ed
ĠÐ¿ Ð°Ð¼
ĠÑĢ ÐµÐ´Ð°Ðº
ĠÑį ÑĤÐ°
ĠTex as
ĠR oad
ÑĥÑĤ ÑĮ
ĠS y
ĠÐľ Ñĭ
ĠCom ment
ĠÐķ ÑģÐ»Ð¸
ĠDec ember
S eek
b ox
Ġp oss
ĠRe view
Ð¸ÑĢ Ð¾Ð²Ð°ÑĤÑĮÑģÑı
ĠSec urity
ĠÑĢÐ°Ð±Ð¾ÑĤ Ñĭ
ĠIn t
ĠEn ergy
Ñī ÐµÑģÑĤÐ²
ĠBengal uru
ĠS a
Ġc ase
Ġl ot
ĠÐ½Ð° ÑħÐ¾Ð´
ĠÐĶ Ð¾Ð±Ð°Ð²Ð¸ÑĤÑĮ
Ġì ł
ê °
ar ter
ĠÑĥ ÑĩÐ°ÑģÑĤÐ½Ð¸Ðº
ÑĥÐ»ÑĮ ÑĤ
ĠÐ½ Ð°Ð¶
ĠÐ¼ Ð°ÑĤ
Ġim port
iv ed
Ð¼ Ð¸ÑĤÐµ
if y
ĠM ad
Ð¾ÑĢÐ¾Ð² ÑĮÐµ
w are
op s
ak ers
Ġpl an
ÐµÐ¼ Ð¿
Ġal ong
c raft
ĠA c
ĠM obile
il le
Ġn ational
ĠÐº Ð½
Ð°Ð¹ ÑĤÐ¸
Ġar t
E M
Ñı ÑĤÐ¸
ĠÐ¸ Ñģ
ud e
ens ive
ĠSm all
ĠÑĥÐ» ÑĥÑĩÑĪ
Ġe ach
ĠEur ope
Ġ est
Ġf acebook
Ð¾ÑĤ Ð²ÐµÑĤÑģÑĤÐ²
Ġag ree
re w
ĠJust ice
ĠEmploy ment
Ġs ect
eth ing
Ġp ut
Ġsh ort
ĠEdit ion
Ð½ Ð¾Ñģ
ĠÐ² Ð¾Ð·
ÑģÐº Ð¾Ð³Ð¾
ĠÐ²Ñĭ Ð³
ĠÐºÐ¾Ð¼ Ð¿
ĠS il
ect ed
Ġ0 4
ĠÑĥ ÐºÐ°Ð·
a el
Ð°Ð² ÐµÑĢ
I t
ĠL oan
Ġfor mer
ĠMar ch
d ds
ĠS ing
ĠM ot
Ġ2 6
ce pt
Ð°Ð½ Ð½ÑĭÐµ
ĠÑģÐ¾ Ð¾ÑĤÐ²ÐµÑĤÑģÑĤÐ²
Ġf ive
ĠÐ¢ Ð°ÑĢ
CA A
m il
Ð¾ÑĢ Ð¸Ð¸
ĠAm az
ĠHead lines
ÑĦÐµÑģÑģ Ð¸Ð¾Ð½
Ġle ast
ĠÐ³ ÐµÑĢÐ¾
3 9
Ð¾ Ñĥ
ĠÑģÐ¾ ÑħÑĢÐ°Ð½
Ġoffic ials
Ð¸ÑĦ ÑĢ
ĠRuss ian
ĠExpl ore
ĠÐ½Ð°Ð¶ Ð¼Ð¸ÑĤÐµ
Ð¸Ð» Ð°
Ġpol ice
ĠUpd ate
ĠS al
ag ed
ĠCont ent
ĠPro f
it a
Ġle vel
Ð¿Ð» Ð¾Ð¼
l ast
ĠL ine
ĠCon cer
ĠServ ices
t il
Ġn um
Ġcl os
t a
ĠS ch
ud ge
ĠDeep Seek
Ġind ustry
g es
ĠN CAA
ĠÐĹÐ´ Ð¾ÑĢÐ¾Ð²ÑĮÐµ
Ð¸ÑģÐº Ð¸
Ð»Ð°ÑĤ ÑĦÐ¾ÑĢÐ¼
ic i
l i
ĠÐ´Ð¸ Ð¿Ð»Ð¾Ð¼
ĠÑĥÑĩÐ°ÑģÑĤÐ½Ð¸Ðº Ð¾Ð²
Ġ ident
Ġs eries
ĠJ u
Ð¸Ð½ Ð³
ĠÐ¤ Ðĺ
ÑģÐ»ÐµÐ´ Ð¾Ð²Ð°Ð½Ð¸Ñı
ĠS u
ÑĥÐ± ÐµÑĢÐ½
idd le
Ð°ÑĤÐµÐ» ÐµÐ¹
2 9
E T
ĠW ar
ĠDe v
Ð¾Ð»ÑĮÐ·Ð¾Ð² Ð°ÑĤÐµÐ»ÑĮ
Ġc er
ĠM er
ell ig
vel t
o ice
Ñĭ Ð½
ĠÑģ Ð¾Ð³Ð»Ð°ÑĪÐµÐ½Ð¸Ðµ
ĠApp lications
Ġem ploy
ĠÐ¸Ð½ÑĦÐ¾ÑĢÐ¼ Ð°ÑĨÐ¸Ð¾Ð½
ĠÐĴÐµÐ»Ð¸Ðº Ð¾Ð¹
v ron
Ġa ction
Ð½ ÑĥÑİ
Ġm akes
ĠG olf
Ð± Ð¾Ð»
ĠRes erved
ĠÐłÐ¾ÑģÑģ Ð¸Ð¹
ĠÐ¿Ð°Ð¼ ÑıÑĤÑĮ
w ord
Ġs ame
ĠI con
Ñĥ Ð³Ð¸
Ġk eep
Ð¿Ð¸Ñģ Ð¾Ðº
ĠÐ¿ÑĢÐ¾ ÑĦÐµÑģÑģÐ¸Ð¾Ð½
er ve
re et
ĠÑĢ ÐµÑģ
Ġcontin ue
ĠPun jab
ruct ure
ĠÑģ ÐµÐ¼
ind ex
Ġle ft
ÑĩÐ°ÑģÑĤ Ð²
ĠEng lish
ĠÑģ Ð¿Ð¸ÑģÐ¾Ðº
or ks
ĠC lick
Ġth reat
Ġe arn
ĠÐŁ Ð¾Ð»ÑĮÐ·Ð¾Ð²Ð°ÑĤÐµÐ»ÑĮ
Ġcom ing
Ġv isit
Ġimp act
ÐµÐ· Ð´
t he
est in
ĠÑģ Ð»
Ð¾Ñģ Ñĭ
ann ed
ĠÐºÐ¾Ð¼ Ñĥ
Ð¸Ð»ÑĮ Ð½ÑĭÐ¹
ĠÐ·Ð½ Ð°Ð½Ð¸Ð¹
f ind
z z
Ð ¤
Ġl ess
ĠÐŁ Ð°Ð¼
port ation
Ð¸ÑĦ Ñĭ
ĠBio World
ĠM al
Ð» Ð°
ĠG e
ĠÐĳ Ð°Ð·Ð°
ĠCol or
Ð¸ÑģÑĤ ÐµÐ¼
ĠÐ¤ÐµÐ´ ÐµÑĢ
5 5
ĠM ic
ĠM ake
Ġp ersonal
ĠÐĺ Ð²Ð°Ð½
Ġl ive
anc es
Ġeff ect
itt le
en ch
Ġw on
ĠCanad ian
ose velt
ĠRuss ia
Ð¸Ð» Ð¸Ð¸
ĠÐĲ Ð»
ĠÑģÐ²ÑıÐ· Ð°Ð½Ð½ÑĭÐµ
Ð¾Ð³ÑĢÐ°ÑĦ Ð¸Ñı
ĠAmaz on
Ġc ity
Ñĭ Ð²
Ġ3 6
ĠÑģÑĤÑĢÐ°Ð½Ð¸ÑĨ Ñĥ
ers ion
Ġl ove
Ġch all
ann el
ĠRo osevelt
ĠI ST
ÐµÑĢ Ð¸ÑĤÐµ
Ġvide o
ĠÐ³ÐµÑĢÐ¾ ÐµÐ²
ĠO ct
Ġn on
Ġprov ide
ĠÐ ¯
ĠMed ic
ĠÐĹÐ°Ðº Ð°Ð·Ð°ÑĤÑĮ
ĠÐŁÐ¾Ð»ÑĮÐ·Ð¾Ð²Ð°ÑĤÐµÐ»ÑĮ ÑģÐºÐ¾Ðµ
A M
ĠÐ¾ÑĤ Ð½Ð¾Ñģ
ater ials
ĠQu ery
ĠÑĥÑģÐ» ÑĥÐ³Ð¸
Ð°Ð»Ð¾Ð³ Ð°
st r
ĠÐĿ Ð°Ð¹ÑĤÐ¸
ÐµÐºÑģ Ð°ÑĨÐ¸Ð¸
ĠÐ¸ÑģÐ¿Ð¾Ð»ÑĮÐ·Ñĥ ÐµÐ¼
ĠÑģÐ¾Ð·Ð´ Ð°Ð»Ð¸
O W
c hel
ĠC N
ĠÑģ Ð¸ÑģÑĤÐµÐ¼
ÐµÑĢ Ð¶
Ġv ict
ÑĢÐ°Ð½Ð¸ÑĨ Ñĭ
Ġeff orts
ĠÐĹÐ´ ÐµÑģÑĮ
ĠÐºÐ½ Ð¾Ð¿
ÑĩÐ°ÑģÑĤÐ² Ð¾Ð²Ð°ÑĤÑĮ
Ġc ost
cuss ion
ĠÐ¿Ð¾ÑģÑĤ ÐµÐ¿
ĠÐ¢Ð°ÑĢ Ð¸ÑĦÑĭ
ĠS af
ĠÐŁ Ð¾Ð¼Ð¾ÑīÑĮ
Ġrec ord
Ġsec urity
ĠâĤ ¹
ĠT im
ĠD an
id ents
Ġch ange
Ġsever al
ĠÐ¸Ñģ ÑģÐ»ÐµÐ´Ð¾Ð²Ð°Ð½Ð¸Ñı
ĠÐºÐ½Ð¾Ð¿ ÐºÑĥ
P aper
s w
ÑģÑĤ Ð°Ð½
ro ph
Ġg round
ĠÐ¿ Ð¾Ð»ÑĮÐ·Ð¾Ð²
Ġfollow ing
ĠÑģÐ¾ÑħÑĢÐ°Ð½ Ð¸ÑĤÑĮ
ÑĤ ÐµÑģÑĤ
ĠC oll
ĠG ame
Ġg roup
ĠSe ason
ĠÐĵÐµ Ð¾Ð³ÑĢÐ°ÑĦÐ¸Ñı
ĠÐ¸Ð½Ð´ ÐµÐºÑģÐ°ÑĨÐ¸Ð¸
or ing
ĠM iss
om ing
ĠE d
Ġst and
Ġ6 0
Ġ19 14
ĠÐ¸ÑģÑĤÐ¾ÑĩÐ½Ð¸Ðº Ð¾Ð²
ĠÑĤÐµÑĢ ÑĢÐ¸ÑĤ
ĠÐ¿Ð¾ÑģÑĤÐµÐ¿ ÐµÐ½Ð½Ð¾
e al
up s
ÑĪ Ð¸ÑĦÑĢ
her oes
Ġor gan
ra w
ĠDe velop
Ð¾Ð¶ Ð°Ð»
ĠÐŁÐµÑĢ Ð²Ð¾Ð¹
ĠÑĥÐ»ÑĥÑĩÑĪ ÐµÐ½Ð¸Ñı
ĠÑģÐ¾Ð¾ÑĤÐ²ÐµÑĤÑģÑĤÐ² ÑĥÑİÑī
ĠÐ¿ÑĢÐ¾ÑĦÐµÑģÑģÐ¸Ð¾Ð½ Ð°Ð»ÑĮÐ½Ð¾Ð³Ð¾
ĠÐ¾ÑĤÐ½Ð¾Ñģ Ð¸ÑĤÑģÑı
ÑĪÐ¸ÑĦÑĢ Ð¾Ð²Ð°ÑĤÑĮ
O P
ĠP a
Ġcom e
ĠÐ¤ Ð°Ð¼
Ġnews letter
ĠÑĦ Ð°Ð¼
ĠÐ´Ð°Ð½ Ð½Ð°Ñı
ĠR ate
Ġg ed
ĠRe ports
ĠÐľ ÐµÑģÑĤÐ°
ĠÐł ÑĥÐ±
ĠÐŀ Ðļ
ex pert
ĠÐ£ ÑĩÐ°ÑģÑĤÐ²Ð¾Ð²Ð°ÑĤÑĮ
ĠÐ»ÑİÐ´ ÑıÑħ
ĠÐ¡ÑĤ ÑĢÐ°Ð½Ð¸ÑĨÑĭ
ĠÐľÐ¸ÑĢ Ð¾Ð²Ð¾Ð¹
ÑĢÐµÐ² Ð¾
ĠÐĹÐ°Ð³ ÑĢÑĥÐ·Ð¸ÑĤÑĮ
g war
g ospital
ĠF amilio
Ġd na
Ġl and
Ġj et
ĠÐĶ ÑĢÐµÐ²Ð¾
ock ey
ĠÐ³ ÐµÐ½Ðµ
ove k
19 18
ÐµÑĢÐ½ ÐµÑĤ
ĠÐ·Ð°Ð¿Ð¸ÑģÑĮ Ñİ
ÐĶ Ð¾Ð±Ð°Ð²Ð¸ÑĤÑĮ
ĠÐ¡Ð¿ Ð¸ÑģÐºÐ¸
ĠÑģÑĤÑĢÐ°Ð½Ð¸ÑĨ Ñĭ
ĠÐ´ÐµÐ» Ð¸ÑĤÑĮÑģÑı
ĠÑĦÐ¾ÑĢÐ¼ Ð¸ÑĢÐ¾Ð²Ð°ÑĤÑĮÑģÑı
ĠÐ²ÑĭÐ± ÐµÑĢÐ¸ÑĤÐµ
ĠÐłÐ°Ñģ ÑĪÐ¸ÑĦÑĢÐ¾Ð²Ð°ÑĤÑĮ
ĠÐºÑĥ ÐºÐ¸
ĠÐ²ÑĭÐ³ ÑĢÑĥÐ·Ð¸ÑĤÑĮ
ĠÑĥÐºÐ°Ð· Ð°Ð½Ð°
last name
ĠÐ¤Ðĺ Ðŀ
index ing
ĠÐŁÐ°Ð¼ ÑıÑĤÐ¸
chel ovek
ĠÐ¸ÑģÑģÐ»ÐµÐ´Ð¾Ð²Ð°Ð½Ð¸Ñı Ð¼Ð¸
ĠÑģÐ¾Ð¾ÑĤÐ²ÐµÑĤÑģÑĤÐ²ÑĥÑİÑī ÑĥÑİ
ĠÐ¤Ð°Ð¼ Ð¸Ð»Ð¸Ð¸
ĠÑĦÐ°Ð¼ Ð¸Ð»ÑĮÐ½ÑĭÐ¹
Ġged com
ĠÐ³ÐµÐ½Ðµ Ð°Ð»Ð¾Ð³Ð°
t ion
Ġst ocks
ĠÐĵ Ð¾Ð³
ĠÐ¿Ð¾Ð´ Ð¿Ð¸Ñģ
Ġr a
ĠPlay er
ĠC hen
Ñī Ð¸Ðµ
al ity
ou ts
Ġh old
Ġch ang
ĠLe ague
Ġen ergy
p ly
Ð¾Ð± Ñī
ines e
Ð¶ ÐµÑĢ
en a
ĠS n
ow s
Ġth ings
Ġmon ey
1 2
ĠM all
ĠG all
Ġg ames
out ube
ĠCon ditions
Ð Ĺ
ĠÐ¾ÑĤ Ð½Ð¾
Ġsu g
ĠWeek ly
ÑĥÑĩÑĪ Ð¸Ðµ
ĠDav id
ellig ence
z e
il ities
c ent
Ġw ater
qu ir
ĠB el
ĠÑģ Ð±Ð¾ÑĢ
if ts
ĠÐ¿ÑĢ Ð¸Ð¼
Ġtr affic
ĠÑĦ ÐµÐ²
ÐĲÐ¢ Ð
Ġex ecutive
Ġmed ical
o e
o f
ĠS un
ĠC y
Ġto ok
Ð°ÑĢÑĤ Ð½ÐµÑĢ
enef its
Ġf ri
Ġin j
ĠF ederal
ur ther
Ġoff er
ĠÐŃ Ðº
ĠU N
Ġed uc
d ers
ĠD ata
Ð¶ Ðµ
ĠÐ³ ÑĥÐ±ÐµÑĢÐ½
ĠAustral ia
ÑģÑĤ Ð°Ð²
Ð°ÑĢ Ð¸Ñı
Ðľ Ð¾Ð´
V ID
ĠO N
ell ing
fer ence
ĠÑĢÐµÐ´Ð°Ðº ÑĨÐ¸Ð¸
ĠRe le
ÐµÑĢÐ½ ÑĥÑĤÑĮ
mig ration
n ai
ĠS l
Ġp oint
Ġd ate
Ġh uman
Ġro ad
ĠHor osc
l ess
ĠH ar
ĠÐ°Ð½ Ð°Ð»Ð¸Ð·
ÑĢ Ð¸ÐºÐ¸
Ġin tern
ĠR E
Ġus ing
Ġev ents
ĠColum ns
ĠUpd ated
ĠGo ogle
Ġt witter
ĠT ime
Ġl og
Ð´ ÐµÐ½Ð¸Ðµ
ĠHow ever
ĠÐ¾Ñģ Ð½Ð¾Ð²
Ġ *
dit ion
ĠMagaz ine
ĠÐ° Ð²
Ġadd ed
Ġst ream
Ġoff ice
1 3
L D
Ġs us
Ġm atch
ĠPro p
Ġind ivid
Ġbet ter
Ġco ach
Ġbu ild
for ce
Ġh on
av or
clus ive
ĠÐºÐ¾Ð¼Ð¿ Ð°Ð½Ð¸Ð¸
Ñģ Ñĭ
ĠÐ¿ÑĢÐµÐ´ Ð¾ÑģÑĤÐ°Ð²
Ġact iv
Ġa head
Ġg ot
ĠÐ¿Ð¾Ð»ÑĮÐ·Ð¾Ð² Ð°ÑĤÐµÐ»ÐµÐ¹
b oard
ĠR em
Ġpr esent
ÐµÐ¼Ð¿ Ð¸Ð¾Ð½
ÐµÑĢÐ½ÑĥÑĤÑĮ ÑģÑı
g ender
h y
Ġp ast
ĠÐ½Ð°ÑĢ Ð¾Ð´Ð°
ĠÐłÑĥÐ± ÑĢÐ¸ÐºÐ¸
Ġre view
ak en
Ð¾Ñĩ ÑĤ
Â» .
Ġstate ment
ĠR oy
ĠAs ia
l ock
Ġp osts
ĠÑģ Ð¾ÑģÑĤÐ°Ð²
Ð¸Ð· Ð°ÑĨÐ¸Ð¸
Ġsom ething
2 7
Ġt em
ig in
ĠAr my
mer c
I P
Ġf ew
Ġh omes
ak h
ett y
ĠBre aking
p ing
u ff
ĠÂ °
Ġsign ific
ĠÐ¨ Ð¾Ñĥ
Ġh and
Ð± Ð¸Ð·Ð½ÐµÑģ
ĠEx per
ĠTenn is
2 8
O S
U R
ĠTh ings
Ð¾Ð½ Ð¾Ð¼
ĠÐ¡ Ð²
A D
Ñ Ĭ
ĠR an
ĠTh ese
ĠChen nai
T ube
ut y
Ġde p
ĠÐ³ÑĥÐ±ÐµÑĢÐ½ Ð¸Ñı
Ġ ve
Ġcom mun
f l
ĠA pr
ĠM ilitary
Ġapp ear
Ġc ame
ĠB h
Ġm en
ob er
ĠAnnoun ce
ĠÑĤÐµÑĢÑĢÐ¸ÑĤ Ð¾ÑĢÐ¸Ð¸
ĠChr ist
L C
ĸ ¼
Ġt aking
ĠT ampa
ĠP ark
ĠÐ´ Ð¾
Ġcons ider
ĠNet work
ÐµÑģ ÐµÐ½
Ġsp ecial
ĠIN D
ret ary
in em
Ġ4 0
ĠÐķ Ð²
portun ities
ap e
Ġal ways
ĠÐĿÐ¾Ð² ÑĭÐµ
Ġmus ic
eighbor hood
1 6
Ġf ar
ĠM ah
S U
ĠCh inese
ov t
row s
ivid end
f ield
ve al
og rap
ÑģÐº Ð¸Ðµ
ĠÑģÑĤÐ°ÑĤÑĮ Ðµ
ag an
ĠCh ief
Ð¸Ð½ ÑĦÐ¾ÑĢÐ¼
Ġfund ing
Ġ ens
ĠM ain
Ġre ports
ĠYou Tube
ĠVal ley
3 4
ther n
ĠÐĲ ÑĢ
Ð°ÑĤÐµÐ» ÑıÐ¼
ÑĢÐ°Ð¼ Ð¿
ĠBec ome
ĠC M
ĠB o
Ġd eb
Ġpr edict
àµ Ĩ
ĠT ik
ur al
ĠAl erts
ĠBook s
ĠAccess ibility
O G
ok e
Ġinst agram
Ð½ÑĤ ÐµÑĢÐ½ÐµÑĤ
Ð»Ð°ÑĤÑĦÐ¾ÑĢÐ¼ Ð°
Ġ i
Ġf ield
Ġre pr
ĠÐº ÑĢ
ĠY ear
lis ts
j i
Ġl ater
ĠSp e
3 5
as k
ĠF und
Ġn ever
ĠÑģ ÐµÑĤÐ¸
lect ion
ĠÐ¿ÑĢÐµÐ´ Ð¿
Ġimp ro
ĠColor ado
ĠÐ°Ð½Ð°Ð»Ð¸Ð· Ð°
merc ial
d own
m ing
ĠM ember
Ð» ÐµÐ½
Ġex c
Ġa ut
Ġs ix
ĠD E
ĠMed ical
ĠAdv is
Ġf ight
à´ Ĥ
ĠSub scription
ĠAdvert ising
Ġs ports
Ġm et
un g
ĠÐ» ÐµÐ½ÑĤÐ°
ĠS im
ĠSt ats
à´ ±
ĠÐľ ÐµÐ´Ð¸
ĠÐŁÐ¾Ð¿ÑĥÐ»ÑıÑĢ Ð½Ð¾Ðµ
ĠÐ¿ÑĢÐ¸Ð¼ ÐµÐ½Ñı
3 7
iz ation
Ġcrash es
ĠUnder writ
T ok
c hed
ĠL ight
Ð² ÐµÑģÑĤ
oy s
Ġdis c
Ġnum ber
ĠÐ¸Ð½ÑĦÐ¾ÑĢÐ¼Ð°ÑĨÐ¸Ð¾Ð½ Ð½Ð¾Ð¼
ĠÐ¿ÑĢÐ¸Ð¼ÐµÐ½Ñı ÑİÑĤÑģÑı
m ber
Ġ @
Ġto o
Ġg ener
ĠSp ot
ĠÑĢÐµÐº Ð¾Ð¼ÐµÐ½Ð´Ð°ÑĤÐµÐ»ÑĮÐ½ÑĭÐµ
ĠÑĢÐµÑģ ÑĥÑĢÑģÐµ
ĠN ear
ĠL inks
Ġl ik
ĠÐŁ Ð°ÑĢÑĤÐ½ÐµÑĢ
Ġv ar
EN T
Ġbel ow
t ing
ĠÐŁ Ð¾Ð¶Ð°Ð»
Ġrec ogn
ĠSoc cer
Ġdiffer ent
ĠÐ¾Ð±Ð»Ð°ÑģÑĤ Ð¸
Ð°Ð³ Ð¾
ĠUkrain e
Ġc aus
Ð» Ð°Ð´
ĠF O
ro om
ri or
ĠÐĽ ÑĥÑĩÑĪÐ¸Ðµ
ĠAir lines
Ġmonth s
0 6
a it
s on
Ġf ood
ĠW X
Ġb oard
ĠF ri
ĠCh ange
ĠPlay lists
ĠÑģÐµÐ¼ ÑĮÑı
ĠA uthor
Ġw he
ĠM ill
ĠSt ations
ĠAn n
ÐµÐ½Ð¸Ñı Ð¼
ĠMich ael
e um
i ance
ĠH ockey
ĠU K
ĠÐĶ ÐµÑĤÐ¸
ĠÐ¢ ÑĢÐ°Ð¼Ð¿
ÑĥÐ» Ð¸Ð½
ĠFeat ures
ĠTik Tok
ĠAcc ording
ĠH am
Ġg en
eb all
Ġrece ive
Ġmom ent
ĠD en
ig er
ĠÐĴ ÐµÑĢÐ½ÑĥÑĤÑĮÑģÑı
Ð¾ÑĤ Ð¾
ĠCon f
ĠBr and
Ġam ong
Ġh it
Ð½Ñĭ Ð¼
ĠÐŀ Ð¿ÑĢ
Ġcl ose
ove mber
ĠÐŀÐ±ÑģÑĥÐ¶Ð´Ð°ÐµÐ¼ ÑĭÐµ
ocu ment
r es
w h
ĠK n
Ġoffic ial
Ð°ÑĨÐ¸Ð¾Ð½ Ð½ÑĭÐµ
' :
4 1
e ad
n ey
ĠE th
Ġì Ĩ
icket s
ĠÐ½Ð°ÑħÐ¾Ð´ Ñı
ĠF BI
ĠQu est
uc ks
Ġvi ews
O L
ĠÐļ ÑĥÐ»Ð¸Ð½
E X
id el
Ġtar get
ĠÐłÐ¾ÑģÑģÐ¸Ð¹ ÑģÐºÐ¾Ð¹
ĠOct ober
ĠÐ¾ÑģÐ½Ð¾Ð² Ðµ
Ġcont ribut
Ġbr ing
ĠÐľÐ¾ Ñı
Ġexpect ed
ĠÐ¤ÐµÐ´ÐµÑĢ Ð°ÑĨÐ¸Ð¸
ĠÐ½Ð°ÑħÐ¾Ð´Ñı ÑīÐ¸ÑħÑģÑı
ĠW in
ĠH om
Ġpro p
ĠÐľ ÐµÑģÑģ
ĠÑį ÑĤÐ¾
ĠDirect ory
Ġt yp
ĠT om
Ñĭ Ð´Ñĥ
Ġhe ar
ĠRele ases
g ers
Ġc al
Ġst op
Ġsc ene
ĠSk y
ĠÐ¾ÑĤÐ½Ð¾ ÑģÑı
ĠìĨ Į
ĠÐļÑĥÐ»Ð¸Ð½ Ð°ÑĢÐ¸Ñı
l ist
ĠT ips
Ð¾Ð´ Ð°ÑĤÐµÐ»ÑıÐ¼
ĠÑģÐ² ÐµÐ´
ĠÐ¿ÑĢÐµÐ´Ð¿ Ð¾ÑĩÑĤ
Ġl ine
Ġon line
oc ation
ri ef
Ġinter est
ĠÑģÐ¿ Ð°Ð¼
ĠÐłÐµÐºÐ»Ð°Ð¼ Ð¾Ð´Ð°ÑĤÐµÐ»ÑıÐ¼
ĠW ell
ĠJ os
ĠÐ½ Ð°Ð²ÐµÑĢ
ĠÐ¿ÑĢ Ð°Ð²
ĠÑģÐ±Ð¾ÑĢ Ð°
ĠÐľÐµÐ´Ð¸ Ð°Ð¿
th let
ĠPol ice
ĠIm p
ĠÐĳÐ»Ð¾Ð³ ÐµÑĢÑĭ
Ġsignific ant
g r
ĠA ug
ĠÐľ Ð¢
ĠDe p
ÐµÐ½Ð´ Ð¶ÐµÑĢ
ĠÐŀÐ±ÑģÑĥÐ¶Ð´Ð°ÐµÐ¼ Ð¾Ðµ
i ate
Ġal ready
Ðĺ Ð½ÑĤÐµÑĢÐ½ÐµÑĤ
ĠÐĵÐ» Ð°Ñģ
ĠÐŀÐ±ÑģÑĥÐ¶ Ð´ÐµÐ½Ð¸Ðµ
ê° ľ
ĠÐ¿ÑĢÐµÐ´Ð¾ÑģÑĤÐ°Ð² Ð»ÐµÐ½Ð¸Ñı
ĠÐŁÐ°ÑĢÑĤÐ½ÐµÑĢ Ð°Ð¼
¤ ë
ĠE EO
Ð°ÑĤ Ð¸Ð·Ð°ÑĨÐ¸Ð¸
ĠV i
ĠIs s
ĠÐłÐµÐº Ð¾Ð¼ÐµÐ½Ð´Ð°ÑĤÐµÐ»ÑĮÐ½ÑĭÐµ
ĠÐ¿Ð¾Ð´Ð¿Ð¸Ñģ Ñĩ
ĠÐľÐµÑģÑģ ÐµÐ½Ð´Ð¶ÐµÑĢ
ĠÐ¿ÑĢÐµÐ´Ð¿Ð¾ÑĩÑĤ ÐµÐ½Ð¸ÑıÐ¼
r ol
ĠN ation
à´ ®
ĠÐ¡ Ð¾Ð³Ð»Ð°ÑĪÐµÐ½Ð¸Ðµ
Ð¢ ÐµÑģÐµÐ½
ĠÐĵÐ» Ð°Ð³Ð¾
ĠÐ§ ÐĲÐ¢Ð
esp ite
ĠÐľÐ¸ÑĢ Ð¢ÐµÑģÐµÐ½
àµģ âĢĭ
ĠÑģÐ¸ÑģÑĤÐµÐ¼ Ð°ÑĤÐ¸Ð·Ð°ÑĨÐ¸Ð¸
Ð¸Ð½ÑĦÐ¾ÑĢÐ¼ Ð°ÑĨÐ¸Ð¾Ð½Ð½ÑĭÐµ
ĠÐŁÐ¾Ð¶Ð°Ð» Ð¾Ð²Ð°ÑĤÑĮÑģÑı
ĠÐŀÐ¿ÑĢ Ð¾ÑģÑĭ
ĠÐ¾ÑĤÐ½Ð¾ÑģÑı ÑīÐ¸ÑħÑģÑı
ĠÑģÐ²ÐµÐ´ ÐµÐ½Ð¸Ð¹
ĠÐľÐµÐ´Ð¸Ð°Ð¿ Ð»Ð°ÑĤÑĦÐ¾ÑĢÐ¼Ð°
ĠÐĵÐ»Ð°Ð³Ð¾ L
ĠÐ§ÐĲÐ¢Ð «
f ire
Ġo ld
ĠÐ¿ÑĢÐµÐ´ ÑĭÐ´Ñĥ
0 5
at ory
ĠNews w
Ġen g
ĠHorosc ope
Ð¸ÑĤ ÐµÐ»
Ġwork ing
Ġs w
ĠM att
Ġm ight
Ġn av
Ġl oss
pl ace
ĠMin ister
ĠTeam s
ĠCor por
Ġfe el
ÑīÐµÑģÑĤÐ² Ð¾
ĠÐ½Ð°Ð²ÐµÑĢ Ñħ
Ð¸ ÑĪ
ĠL I
ur t
an ia
ĠF ocus
ous ing
m ission
Ġb ased
app y
ĠÐ¿ÑĢÐµÐ´ÑĭÐ´Ñĥ ÑīÐ¸Ðµ
ĠC amer
ÑĩÐ°ÑģÑĤÐ½Ð¸Ðº Ð¸
Ð½ Ð¾ÑģÑĤÑĮ
Ñĥ Ð¿
ain t
ĠÐ£ ÑĩÐ°ÑģÑĤÐ½Ð¸ÐºÐ¸
Ġë §
Ġimport ant
ī ´ì
Ġf un
Ġb o
ĠI r
id ing
ak er
ĠClass ified
ĠWhat s
ĠSong book
¤ë ī´ì
Ġë§ ¤ëī´ì
Ġë§¤ëī´ì ĸ¼
Ġ )
at form
du ction
vi ation
ic ies
ĠN ovember
Ġin it
ak s
Ġrespons e
ĠApr il
um er
ĠÑĦÐµÐ² ÑĢÐ°Ð»
s u
Ð¾ ÑĪ
it ut
Ġs earch
ĠM ess
ĠR est
Ã ³
ĠCover age
Ġb ook
id ence
ĠÐ² Ñģ
Ġj ournal
ble m
ĠJ e
Ġfor ecast
à¤ ¾
epend ent
4 4
Ġd igital
Ġle arn
Ġdid n
Ġm ultiple
ac ed
ot es
Ġcon st
Ġbas ketball
Ġinf l
Ġdevelop ment
ĠMedic ine
roph y
Ġpol itical
Ġatt ack
ĠFA Q
ĠAut o
' ve
es tern
ac ts
az a
n ers
ĠB roadcast
ĠF ilm
Ġst aff
ÐµÑĢ Ð¸
ĠIs land
ĠÐŀÐ± ÑīÐµÑģÑĤÐ²Ð¾
c are
ĠP ay
ĠJ im
Ġv iew
Ġsp ec
Ġun til
Ð¾Ð»ÑĮ ÑĪ
ĠDem ocr
ud io
Ġl aun
Ġb ank
Ġwh y
ĠÐ¾ Ð¿
ĠTh om
Ġse en
ĠAre a
I M
ĠH ind
ĠVol unt
at ely
ĠR ight
ĠE ar
ir th
pt im
Ġstr ong
Ġ el
Ġm id
oun c
Ġinvest ig
ĠEditor ial
ĠB ill
Ġm ember
Ġ- -
ĠRes ources
ound s
ÐµÐ¶ Ð¸Ðµ
ĠGen eral
ĠA D
ĠF amily
ĠTr ust
Ð¸ÑĢ Ð¾Ð²
ĠStream ing
ĠL ou
ĠH all
pl ay
Ġj oin
Ġlar ge
ĠSust aining
t r
ĠS ab
ÑĢ Ð¾Ð¿
ĠC ard
ic ated
ĠK el
Ġk ind
Ġcont act
com ing
ĠBe hind
Ġannoun ced
3 8
ĠS it
Ġeconom ic
ĠR ana
Ġwith in
Ġab ove
Ġb us
ĠL ove
Ġa way
ĠT alk
ĠP ac
Ð´ ÐµÐ»
Ġcon nect
Ġs ol
ĠC re
Ġc ases
ĠE ag
Ġg lobal
ĠV ersion
ĠStream s
ĠFA A
Ð° ÑİÑĤ
ĠA lex
ĠIn quir
Ð½ ÐµÐ¹
ĠA ff
ĠMus eum
Ġche ck
Ġw inn
ĠSe pt
ĠÐľÐ¾ ÑģÐº
merg ency
al f
ĠB ro
ĠF ox
ĠL LC
Ġag encies
Ð¸Ð´ Ðµ
Ġund erst
Ġcall ed
t ime
ĠT rophy
Ġo thers
Ġm ess
ĠÑį Ðº
ĠÐ¡Ð² ÐµÐ¶Ð¸Ðµ
ĠG ard
Ġal leg
Ð»Ñı ÐµÑĤ
ĠBar b
ĠKh an
i ers
at us
Ġde al
ĠUS A
ven ue
5 9
ĠS P
ir cle
ĠÑĢ Ð¾ÑģÑģ
ident ial
ĠMan agement
ĠÑģÐ¾ Ð¾Ð±Ñī
rast ructure
ĠT ags
Ġf urther
om b
ĠO h
ĠThe ir
ist ry
Ġinclud e
ul f
ost on
Ġo pp
ĠB et
Ġre lease
em ap
Ġpr ices
Ġcom es
ĠCook ie
Ġinvol ved
U L
it le
ĠC ON
ĠB oston
Ġme an
ĠLog in
ĠSit emap
4 0
Ġ esp
ĠT able
ĠB ox
Ġth ird
ÐµÑĢ Ð±
ene z
ĠL A
Ð°Ð½ Ð¸Ðµ
ĠÐĴ ÑģÐµ
iam i
idel ines
t ra
ĠF re
Ġpr act
ĠÃ Ĺ
g round
v ille
ĥ ģ
Ġp age
ĠÐ¾ Ð½
oun g
av es
Th is
c ri
Ġc ustom
ĠM aterials
ĠM iami
Ġp lease
dit ional
umb le
Ġfl ight
itu aries
u f
ÑĢ Ð¾Ñģ
ĠC urrent
Ġd ue
Ġd aily
Ġlook ing
ĠTrans portation
Ġdes ign
ĠCrypt o
P T
b ur
ÑĢ Ð¾Ð²
ĠL et
ĠOb ituaries
Ġleg al
y e
Ġc elebr
ĠM ur
ĠD ig
os ter
Ġst ress
Ġcom pl
Ġtr avel
B E
Ġde v
az e
Ġsaf ety
9 9
ĠM il
ĠN av
Ġm ark
j ects
l in
al es
Ġ20 19
ĠDe ad
ann ing
Ġfin al
Ġb rows
Ġn ame
à´ ¸
Ġstud ents
Ġf amil
Ð» Ñİ
ĠSur vey
ĠH ear
ĠInvestig ations
ĠÐ½ Ð°Ð´
Ġag ency
l am
Ñĥ Ð½
Ġbe hind
Ġpr os
ĠÐĵ Ð¾Ð´
ĠÐ¼ Ð¾Ð¶
ampa ign
' m
ĠT e
ĠA vailable
Ġc ourt
oun ts
Ġacc used
ĠÐŁÐ¾Ð¿ÑĥÐ»ÑıÑĢ Ð½ÑĭÐµ
ĠS ome
ĠP ages
ĠD uring
ĠÐŀ ÑĤ
yl ind
Ġcare er
ĠPr ime
Ġro le
ĠÑĦÐµÐ²ÑĢÐ°Ð» Ñı
v ing
z er
Ġn et
Ġpr es
atur al
ĠArtic le
ĠStand ings
Ð° Ñĩ
ÑĤ Ñĭ
re g
ĠD ie
ac c
por ter
ĠÐĴ Ð¡
ra z
der abad
Ġshow s
Ġdet ails
ĠÐ£ÐºÑĢÐ° Ð¸Ð½
ounc il
v ent
il ar
Ñĥ Ñī
Ġg irl
act ion
ĠÂ »
Ġs en
Ð³ Ð¾
ÐµÐ¼ Ñĥ
pect ion
P M
ic a
Ġp ublished
Ð» Ð°Ð²
Ġrec over
ÑĥÐ± Ð»
ĠFin ancial
ĠTH E
ĠHy derabad
W F
it ute
ĠC EO
ĠM a
ĠIn j
ĠÐļ ÑĥÑĢ
ĠHol lywood
Ġquest ion
Ġwind ow
ĠM ary
Ð» Ð¾
Ġr isk
ĠCom ments
ĠMar k
Ġim med
ĠClassified s
id ays
os es
ri pp
Ð¾Ð± Ñĭ
Ġupd ates
Ġposs ible
2 1
ĠG l
ru ction
ĠÐ½Ð¾Ð² Ð¾ÑģÑĤÐ¸
ĠÐ¾ Ð´
ĠCh ild
Ġear ly
t i
ĠB ang
Ġg ender
ars h
enez uel
it ions
Ġf ootball
ĠN ight
ac ing
ĠG TA
ro id
ul ation
ĠÂ ·
ĠFor t
inem a
ed y
ĠW ater
ĠCh annel
ĠBu y
Ġwhe ther
5 4
el t
Ġre b
ount ain
ĠOff ic
N A
Ġt erm
ar ed
ĠÐ¿ Ð¾ÑĢ
ĠEx ams
Ð¸ Ð¿
ĠG ifts
Ġt est
ĠT our
ĠP an
ĠB ol
ĠSp ok
Ġrec ent
ĠJu ly
b ed
ĠD ate
Ġor ders
ĠBr own
Ġinvest igation
V ER
ol k
um e
ap s
Ġcre w
ĠNewsw ires
8 0
ĠS H
ĠH ub
ĠSept ember
ĠÐľÐ¾ÑģÐº Ð²
C E
Ñ ĸ
ĠW rit
ĠÐ¿ Ð¾Ðº
em s
ĠAn alysis
Ġmin utes
Ġë °
ĠAug ust
ĠM A
ro vers
ett ers
ang u
clus ion
ad a
ĠK ap
Ð°Ñģ ÑĮ
ecial ly
Ġcontin ues
Ġkn own
it er
ĠNot ice
Ġqu arter
ĠFeat ured
is is
Ġto get
am ed
am ing
ĠO l
Ġl ittle
ĠAl ert
ific ial
Ġdirect or
ĠFeed s
ĠÐ¿Ð¾Ð» ÑĥÑĩ
olut ion
u ction
ĠW ord
ain er
Ġpr ivate
Ġpro blem
ĠApp le
ÑĢÑĥ Ð³
Ġbu y
Ġartic les
d ing
Ġhe ld
anc ed
Ġtoget her
i ents
Ñĥ ÑĪ
Ġy et
Ġincre ase
à´ ª
ĠC art
ĠE nd
orn ey
Ġrem ains
Ġf re
ĠD ays
ĠÑģ Ðº
Ð¼ ÐµÑĢ
ĠÐļ Ð°Ðº
ĠAfric a
ĠAdvis ory
ĠI T
ĠI ll
we et
Ġbec ome
4 5
l ier
q t
v o
om m
ĠF ull
ur ance
ir ing
ÑģÐº Ð¾Ð¼
ĠÐĲ Ð²
Ġmeet ing
ĠSt ep
ĠV enezuel
ÑģÐº Ð¸Ñħ
ov ed
Ã Ń
Ð ¯
Ġs ex
ĠE N
ĠSp ring
Ġen h
Ġam id
ĠET F
Ġchall eng
c ome
ĠH our
ro it
Ġtr ack
Ġcomp et
ê ³
as ing
Ġh ard
ĠJ une
ud i
Ġan n
ÐµÑĢÐ¸ Ð°Ð»
Ġ ur
Ġt alk
ĠA ri
ĠW y
Ġd eath
ad ing
ÐµÐ´ Ð½
Ġ0 2
Ġpro ject
Ġt reat
ve als
Ð¸Ðº Ð¾Ð²
ĠCl imate
Ġcall s
Ġlik ely
Ð¸Ð´Ðµ Ð¾
on a
at i
Ġd am
Ġg l
ĠPr ices
ĠRes p
ric ulture
ĠIP L
ĠP enn
ĠB ets
Ġexpl os
ĠMov ies
err or
C RI
ĠÐ ĸ
Ġt imes
ĠM om
Ġh ouse
ĠNews paper
Ð°Ð½ Ð´
Ġres ources
Ð°Ñģ Ñģ
Ġqu ick
Ġpass eng
ÐµÐ¼Ð¿Ð¸Ð¾Ð½ Ð°ÑĤ
Ġë° ı
O C
¸ ì
ĠB en
Ñĥ Ñħ
ĠL ong
iv il
ĠAssoci ated
ĠÑĢ ÑĭÐ½
ĠMarket s
read s
ĠDes k
S E
W atch
i et
ĠSt ation
Ġ5 5
Ġ9 0
Ġpre vious
Ġtech nology
ĠAnnounce ments
n ot
ag ing
ĠSh ort
ib r
ÑģÑĤÐ°Ð½ Ð¾Ð²
3 3
A pp
m ost
Ð¸ Ð½Ñĭ
Ġl ed
ÑĢÑĥ Ð¿
Ġfeat ures
ĠLou is
Ġc reat
Ġm ater
ĠL ook
op es
à´ ²
ry ing
Ġdis cuss
ĠSU BS
ĠSil ver
Ã³ n
N ews
ad u
ĠG ar
Ġneed s
ĠMov ie
Ġo cc
Ġb illion
ĠG ram
ang ers
Ġass ist
ĠPop ular
ĠSUBS CRI
ou b
ain ts
ĠÐ¿ÑĢ Ð¸
ĠSh ah
ĠÑĥ ÐµÐ·Ð´
Ġwebs ites
iqu e
B O
P G
Ð §
Ġre p
Ġr ad
Ð°Ð½ Ð¸Ñı
ĠÐ» ÐµÑĤ
ĠBarb ara
at al
ĠÐ² ÑĢÐµÐ¼
ĠVir al
ĠDet roit
ĠLead ership
ĠC anc
ĠL u
Ġr out
Ġab le
ĠCount ry
Ġshar ed
ĠFest ival
ĠW ind
ĠH D
ĠH ot
Ð¾Ð»ÑĮ ÐºÐ¾
6 2
ĠC ustom
ĠÑĥ Ð´
cl aim
ĠTo ols
ĠEditor ials
ĠâĤ ¬
ĠSaf ety
ÑĤ Ð°Ðº
ĠV ict
ĠSc ores
ĠGu idelines
fer ences
Ġshar es
uf act
Ġ Ñı
Ġt aken
ÑĢ ÐµÑĤ
Ġs old
ĠN Y
ĠF ar
ĠW estern
Ð¼ Ð¾ÑĤ
Ġsus p
ĠS am
ĠSec retary
ĠÑģÐ°Ð¼ Ð¾Ð»
ĠSUBSCRI BE
6 0
Ġ outs
ar i
ar ks
ÑĢ Ð°Ð´
Ġp erm
Ġof ten
ĠO F
Ġl ight
ĠSt ore
ag er
ĠTr ade
Ð°Ð» Ð¾
ĠÐĴ Ñĭ
Ġpl atform
ĠFollow ing
Ġchild ren
ia b
ÑĥÐ»ÑĮÑĤ ÑĥÑĢ
C O
ad esh
Ġcl aim
Ġar rest
ĠÐ¾Ð± ÑĬ
olut ions
ĠConcer t
Ġesp ecially
Ġs ing
ĠA k
Ġw ent
Ġw ild
ĠK ey
Ġpl ans
Ð°Ð¹ Ð´
Ġstart ed
augh ter
ĠS on
ĠS ale
ĠL etters
Ġd ed
ĠÐļ Ð¾Ð½
Ġiss ued
Ġcap ital
ĠPer form
I ES
y an
ĠS end
Ġf avor
Ġp rior
Ġm ass
iv als
Ġre ason
íķ Ļ
K S
ĠT R
Ġh aving
Ġimp lement
Ġtech n
Ġproduc ts
ĠÐĲÐ» ÐµÐºÑģ
Ġt e
ĠG aza
Ġst e
Ġper cent
Ġdec ision
Ġstr eng
Ġcap t
Ġrun s
nov ation
ĠInquir y
p is
Ġt ell
ĠS um
re m
Ġin box
ĠH osts
ÑĥÑĤ Ð±Ð¾Ð»
ĠSoc iety
ĠDist rict
n ership
ĠC as
Ġw ar
ĠB and
Ġ20 18
ĠU t
ĠRe qu
ect ions
ĠRel ations
£ ¼
ĺ ìĿ
ĠP it
un ch
Ġar r
Ġì £¼
ST P
ĠState ment
Ġdoes n
c he
ŀ Ĳ
in ing
Ġres pect
Ð°Ñı Ð²
ĠIns pection
ĠMod i
u als
it ic
Ðº ÑĤ
Ġfor ward
ab ly
Ġbl ock
ĠInvest ing
Ġmater ial
b l
ļ ©
ĠS ac
Ġpart ner
ĠTop ics
ĺ íķĻ
le an
ast e
ĠCont ribut
ĠÐļ ÑĥÐ±
Ġpart y
ful ly
ĠSponsors hips
Ã ±
ĠG etty
ÑģÐº Ð°Ð·
air s
Ġsect or
ĠJos h
j oy
à «
Ġt ea
ĠM MA
ĠÐ· Ð°ÑıÐ²
ĠK R
ĠPun e
Ġmem o
5 6
l or
ĠW ay
Ð¾Ð» Ð¶
get s
Ġsome one
Ġcoll ision
ĠFeed back
v ision
Ð¸ Ð¶
an ks
ic ation
à´ ļ
ĠÑģÐ² Ð¾
OR E
ĠÐ¼Ð°ÑĤ Ñĩ
ord in
Ð½Ð¸Ðº Ð¾Ð²
3 2
ÑĤ ÑĮ
ate gy
ach i
´ì Ħ
Ġpartic ular
ĠWhats App
ĠC up
re c
ĠB ob
am ent
Ġcr ore
led ge
4 7
ĠM art
ĠBe ach
ĠMarket ing
ĠDr ive
Ġrepr esent
E ST
Ġt akes
ĠS ite
Ġw arn
ĠV oices
ian a
ĠNH PR
ĠLeg al
Ð¾Ð½Ð¾Ð¼ Ð¸ÐºÐ°
ĠS port
Ð¼ Ð¾Ð¶
Ġcr itical
Ġsp ending
ĠHol idays
Ġcontr ol
ĠWN BA
Ġsug gest
ĠRoy al
ĠVolunt eer
P h
ĠÐ² Ð¾Ð»
Ġst ay
um ors
Ð°ÑĢ ÑĮ
ĠAd ministration
Ġsh op
ĠFor um
Ġcontr oll
Ġemploy ees
ripp s
N F
m ark
r oll
Ġ enc
ĠS ell
ou st
ĠF ore
ĠH uman
ĠBas eball
Ġelect ric
ĠWy oming
h old
Ġs um
Ġs eek
il ot
ĠW i
ĠU FC
Ġre com
ĠWh ere
Ġteam s
ĠInvestig ates
Ġwrit ten
Ġvi ol
Ġp oll
ĠD ube
Ġl ow
Ġ0 7
Ġcon ditions
ĠÑĤ ÑĥÑĢ
ĠArch ives
p m
ĠH arsh
ĠInf o
ĠLear n
mitt ed
a ult
g u
o op
ĠS ar
ĠH omes
Ġg ive
Ġr ate
ĠV isit
ĠCom pl
ĠÑģÑĤ ÑĢÐ°Ð½
ĠPlay ers
Ġtop ics
ĠT ext
ĠM iddle
ac ter
ÐµÑĢ Ñģ
ours e
Ġcoll abor
b ased
ĠT el
ĠA y
Ġc enter
ĠO per
ĠSports book
ĠAnd roid
Ġplay ers
Ġeduc ation
ĠKap oor
Ð½ Ðµ
ĠN ov
ent ing
ĠJ ames
ch ieve
à´ µ
ĠSc ripps
rou ps
urr ency
Ġide a
Ġfri ends
r ia
Ġp ort
à¤ °
ribut ion
ĠÐ²Ð¾ ÐµÐ½
Ġsen ior
ĠC ow
re ase
Ġp ush
Ġb rief
ĠO ld
Ġe ver
v al
Ð¸ ÐµÐ²
ĠC inema
ĠW el
ist or
l ights
m iss
al y
ĠD ividend
ĠL ond
ĠO ptions
ÐµÐ½ Ð¸Ð¸
ĠÐ¾ ÑĢ
ĠOh io
Ġt erms
ig an
un n
ĠÐ³ Ð¾ÑĢ
u ge
ou ch
ĠL ike
Ġim migration
ĠÑĢÐ¾ÑģÑģ Ð¸Ð¹
Ġrecom m
ĠHarsh it
Ġs ure
ĠM em
ÐµÑĢ Ð°
ĠPl anned
emb ly
Ġspe ech
ĠWX PR
4 6
k y
ĠW H
iv ity
ÑĨ Ð¸Ñı
Ġj udge
Ġinvest ors
ĠChar l
Ġrele ased
Ġg etting
ĠÐ¿ Ð¾ÑĤ
Ġoff ers
ang er
Ð¸ÑģÑĤ ÑĢ
ĠIns ide
Ð°ÐµÑĤ ÑģÑı
à¥ į
Ġappro ach
ĠUnderwrit ing
ĠDie go
t hen
ĠT wo
ĠM ass
ĠI D
5 7
Ġre ach
ĠMon day
Ġreg ister
Ġair craft
Ġman agement
ĠRet urn
ĠLond on
Ġ ess
ĠS eat
Ġf ace
Ġb ill
ĠK ore
Ġex press
ĠRes earch
ĠMin utes
ĠJe ff
n b
s el
ĠW R
ĠL iving
us e
ag n
ĠTr ends
ĠCh oices
ĠÐ¿ÑĢ Ð¸Ð½
Ġpre m
Ġdec l
ĠÐĲÐ½ Ð´ÑĢ
Ġcer tain
4 9
n ews
ĠM ont
ol es
ĠThe at
ĠÐŁ Ð¾
ĠÐļ ÑĢ
Ġres ult
Ġprov ides
B T
¦ Ŀ
ĠB al
ĠE qu
ĠCr oss
ett e
Ġhigh er
Ġprov ided
ĠWi LD
6 22
ĠS ays
ail ed
Ġal erts
ĠÐļ Ð°ÑĢ
per ty
aw ai
pr ise
Ġwork ers
Ġsub scrib
ĠSen ior
Q I
ĠN e
Ġo il
ĠÐ¿ÑĢ Ð¾Ð´
ĠÐ· Ð°Ðº
ĠÐ³ Ð¾Ð´
ĠÐ¿Ð¾ÑģÐ» Ðµ
l ook
o le
Ġf ig
ur ies
ab ilities
ĠAs k
ĠCO VID
G N
g ing
Ġc lick
ĠW as
ĠH as
Ġn ation
ĠTh reat
ĠÐ´ Ð²
```` ````
Ġask ed
ĠO ptim
au g
à¥ Ģ
l aze
Ð ¥
ë ¬
Ġ edit
ĠÐ ®
ĠC ouncil
ans as
ure au
àµ ¼
L A
i ber
Ġf all
Ġf oot
od es
ĠNot es
ĠSm ith
ĠKV NF
ĠJournal ism
4 8
C T
Ġp e
ĠEx pect
iz ing
Ġdo ing
ĠChampions hip
angu age
b ar
h ib
p ts
Th ere
Ġperform ance
Ġdeliver ed
0 8
R e
ĠR angers
Ġm orning
ĠH ours
ian ts
ĠBl og
Ġlead ing
Ġrel ations
rup t
ver age
ĠK ing
act ive
iz es
Ġinc ome
ĠDet ails
wa qt
e as
m es
ĠP ick
Ġf eed
ec ess
Ġn eighborhood
im um
ly mp
and ers
Ð¾Ð» ÐµÐ²
Ġj ob
ÑģÑĤÐ² Ð¾
ĠÐ¡Ð¿ Ð¾ÑĢÑĤ
ĠUt ah
awai waqt
f ires
j a
Ģ ì
el ess
im ed
ĠÐ½Ð° Ñģ
ĠCl os
ĠPro ps
AR T
ĠDE I
ĠBol lywood
u k
Ġs ett
Ġw oman
Ġd oll
oc t
and ed
ee ks
Ġbig gest
ĠHaw k
ĠDan iel
ĠPac ific
en ge
ĠS ol
ac hed
Ð´ Ðµ
Ġv ir
Ġwr ote
ĠAri z
C S
c a
ĠT ay
Ġin form
Ġth ing
Ġcom b
ĠInd ependent
ĠCon go
Ġcre ate
Ġprogram s
ĠCN N
ĠÐŃÐº Ð¾Ð½Ð¾Ð¼Ð¸ÐºÐ°
a ims
c rib
Ġf ans
Ġp ain
ĠCh at
ĠÐľ Ð¸Ð½
ĠBl ue
ww w
ĠT own
id en
ĠO dds
ĠJ oe
ĠÐ¾ÑĤ Ðº
ĠÐ¿ÑĢÐµÐ´ Ð»
Ġbl ack
L Y
Ġs y
ĠC all
Ġc ou
ĠL a
Ñİ Ð±
ĠÐ´ ÐµÐ½ÑĮ
Ġ0 5
iz er
ĠLe ave
Ġem ot
Ġpos ition
i os
Â °
ì ł
ĠF iles
ĠK ids
ĠÐ¿ÑĢ Ð¾Ð²
ĠSm art
Ġiss ue
ic ing
Ġb ox
il ed
ur o
ĠO sc
ct ions
Ġv is
ĠSp ace
ĠAl so
Ġwork ed
ĠT w
ĠW r
ĠG overn
Ñĩ Ð°Ñģ
Ġlead ers
Ġcount ries
Ġmod el
ĠFound ation
7 5
ĠA ward
Ñĭ Ð¼
Ġre v
Ġ( @
ill ed
ĠY ah
Ġme ans
hic les
ÐºÑĢÐ° Ð¸Ð½
ĠCons umer
h ing
ĠP aper
as ons
am m
Ð°ÑĢ Ð°
ell ow
ens ion
Ġag ents
ĠMan age
Ġlead ership
ĠDevelop ment
! !
Ġs itu
Ġto t
ĠF ans
ĠÐ¸ Ð³ÑĢ
Ð°Ð¹ ÑĤÐµ
ĠWeek end
Ġinter view
Ġc amer
ĠÐ³ Ð¾Ð´Ð°
Ġun l
ĠC ircle
ĠN E
ĠM O
ĠB C
Ġd eep
ĠDon or
Ġweek end
ĠSpons or
Ġelect ion
Ġintern ational
r ad
in ter
ĠC ost
ĠP ict
Ġc osts
ĠM ORE
ĠD M
ĠL ess
ri ed
act ions
ĠSc ott
Ð°Ð¶ Ð´
Ġcre ated
Ġche vron
ĠKar achi
force ment
7 0
Ġ il
ĠC F
ĠT O
Ġc ulture
Ñĥ Ðº
ad em
ĠRe agan
r or
w ire
ì ĥģ
ar ily
Ġc ivil
ĠM el
Ġm ur
ĠH ousing
ch ange
ist ic
Ġbe gin
Ġhe art
Â» ,
pr int
ĠIs lam
Ġrel ated
ĠÐ² Ð·
em ony
ĠTr ack
ĠEth ics
Ġ à
Ð° Ñİ
en ew
ĠD id
Ġtr ying
ĠUn lock
ĠAmeric ans
Ġrequ ired
ĠPa ul
c el
y ond
ber g
a Ã±
ĠN iger
ĠE M
ĠE U
Ġbe yond
ĠRe lease
ĠY outube
Ġcon vers
ÐµÐ³ Ð¾Ð´
ĠSe ver
Ġbel ieve
ĠArch ive
Ġenter tainment
su it
on ald
ĠP e
Ġf arm
Ġb order
Ġn omin
ĠK P
Ġus ers
Ġdef ense
ĠResp ond
Ġs er
Ð» ÑĮ
ĠL G
ÑģÑĤ ÑĢ
ĠSc ore
Ġsay ing
ĠPort al
Ġcurrent ly
er g
ÑĢ Ð°Ð·
ĠA QI
iv est
um ar
Ġsh ot
Ġ4 9
ĠTele gram
ĠÑģÐ¾ÑģÑĤÐ°Ð² Ð»ÑıÐµÑĤ
ĠMill er
ĠG oma
Ġst ri
Ġst ates
Ð¼ÐµÐ½ ÐµÐ½Ð¸Ðµ
ĠSpot light
ÐµÐ³Ð¾Ð´ Ð½Ñı
b ing
Ġ z
ĠS av
ĠC A
Ġc ampaign
Ġg roups
ĠÑĢÐ°Ñģ ÑģÐºÐ°Ð·
ĠÐĴÐ¡ Ð£
ĠTay lor
ĠS ud
Ġc ut
ĠN or
ĠJ ap
ut ers
av a
Ġor igin
Ġres ults
Ġab oard
ĠAriz ona
at ters
Ġl im
ĠJ a
Ð¾Ð½ Ðµ
Ð¸Ð» ÑģÑı
ĠÐ¤ Ð¾ÑĤÐ¾
ĠCo ast
Ġconfirm ed
Ġimpro ve
ĠN AS
ĠG reat
Ġg overn
ĠÐ¿ Ð°ÑĢ
ÑģÑĤÐ² Ð°
ĠDis claim
Ġbusiness es
Ġprof it
ĠYah oo
ĠA T
Ġl ost
ĠK it
Ġ0 6
ĠAg riculture
ĠDirect or
Ġmain tain
ĠTar iffs
0 3
ed ly
Ġf ires
ĠH ave
ĠH appy
ĠG row
Ð¼ Ðµ
ĠAn other
Ġsp ace
ĠÐŁÑĢ Ð°Ð²
Ġnav igation
Ġfamil ies
b um
Ä ±
ĠS ites
al ks
ĠB R
Ġd rug
ĠÐ½ Ð°Ð·
Ð¾ÑĤ Ð¾Ð²
Ġoff ering
ĠÑĨ ÐµÐ½Ñĭ
ĠPower ed
Ġbre aking
ĠDep th
' ll
W ire
l iam
ĠC ylind
ĠW U
ĠJ r
olog ical
Ġ10 1
Ġexper i
ĠEag les
i od
it iz
ĠA udio
Ġbe g
ĠÐ½Ð° Ñĩ
ĠÐĺ Ð½
ĠMin istry
ĠÐ° ÑĢ
Ġinc ident
ĠPR T
ĠAustral ian
iat ely
Ġindivid uals
ĠTheat re
P C
in i
Ġb ody
ĠD ark
ess ions
if ty
ap t
Ġex clusive
ĠCont in
Ġcont rovers
ific ations
Ġchang es
Ġexplos ion
ĠT amil
as tern
ĠR umble
ĠListen er
mitt ee
ĠLine ups
Ġ let
ĠS et
Ġh ope
ĠH im
Ð¾ÑĢ Ð³
ab y
ĠCon st
Ġen vironment
ĠAss embly
Ġlevel s
ĠCorpor ate
Ġquick ly
er o
ÑĢ Ð¾Ð½
ĠO lymp
ĠK STP
ab s
Ġhe ard
Ġ4 8
ĠÐ¢ ÑĢ
Ġ7 0
ĠCar ol
Ġenh ance
h at
t d
t le
is hed
ĠL ast
ĠH ope
ÐµÐ½ ÐºÐ¾
ĠSh iv
Ñī Ðµ
ĠÐ³ ÑĢ
ĠPlay list
Ġgu ide
Ġens ure
ĠCre ate
ibr ary
liam ent
u ing
Ð¾ Ð½Ñĭ
ĠÐ´ Ð¾Ð¼
Ġstr ateg
ĠCare er
ĠMich igan
ches ter
pis ode
Ġo dds
ĠR w
os ition
Ġg ets
Ġus er
Ġme as
Ġbre ak
portun ity
ĠDef ense
ĠGall eries
Ġ 00
Ġw eeks
ĠR ah
ĠR aj
ĠR oto
Ġl oc
ĠSt reet
IN D
ĠSponsors hip
fl ix
ĠÐ£ÐºÑĢÐ°Ð¸Ð½ Ðµ
P S
Ġg as
Ġr ates
Ġit em
ile y
Ð¾Ð¶ Ð´
Ġquest ions
ic ations
ith er
Ġare as
ĠÐĴ Ð¸Ð´ÐµÐ¾
ĠÑĥ ÐºÑĢÐ°Ð¸Ð½
Ð¾Ð± ÐµÐ´
Ġ7 5
Ġpre par
ĠCelebr ity
ĠIss ues
d en
f ort
ĠS at
ĠP age
Ġw orks
Ġh alf
ast ers
ip es
umb h
Ġcook ies
b and
Ġo ptions
Ñĥ ÐµÑĤ
Ġd ocument
ad y
ÐµÐ½ Ð¸
enc ed
Ġ9 4
Ġpros ecut
id ge
ec raft
amp le
OR TS
rest ling
UN C
ĠForm er
bur gh
5 8
e ase
ĠR iver
Ñĥ Ð·
ĠDes ign
ĠGas c
Ġtem per
s e
or row
re me
Ġc ause
Ġb urn
Ġtr ust
àµ ½
ĠÐ± ÐµÐ·
oot ing
ĠBe fore
ĠDis c
ĠVir gin
Ġprot ected
yl v
Ġannoun ce
nb sp
ĠJap an
ÐµÐ» ÐµÐ½
Ġpro duct
ĠId eas
Ġconcer n
Ġvict ims
ĠDen ver
ÑĤ Ð¾Ð±Ñĭ
ĠM ax
ĠF ace
Ġv ol
ĠMin ecraft
ĠChe vron
Ð¸Ð³ Ð°
Ġph ot
d o
ÑĤ ÑĢ
Ġs now
ĠT ickets
Ġn eg
ly ing
ĠÐĴ Ð°Ñģ
Ġint elligence
AT CH
ÐŁ ÐĽ
Ġcomplet e
ĠDM CA
Ġs ide
Ġb ad
il t
ĠTh ank
Ġsa w
ĠComp anies
EN D
Ġstream ing
Ġw orth
le v
Ġl ower
Ġon ce
ĠK ash
em pt
Ġcr isis
Ġde als
ĠPro duc
Ð¸ÑĢ Ð¾Ð²Ð°Ð½
ĠOp ens
Ġevery thing
Ġnear ly
ĠIP O
k i
it ude
ĠA thlet
ĠF ool
Ñĭ ÑĤ
ĠG ulf
ĠÐ½ Ð°Ð¿
ĠRe v
ĠY ears
ĠPl an
ĠCl ar
ĠAs h
ÐĴ Ðŀ
ĠEurope an
Ġunderst and
i ec
Ð° ÑģÐº
is ions
ĠR ates
Ġre fer
ĠIn v
ĠY es
Ġal most
ÐµÑģ Ð¿
ĠÐĹ Ð°Ð¿
ivers ary
Ġconf lic
Ġsur v
ĠNet flix
Ġ201 7
ĠStand ards
Ġconcer ns
ĠQuick reads
ĠMess ages
Ġchalleng es
r ants
ĠD eb
ter m
ĠÐ¿ Ð»
and er
ans ion
ĠAg ency
ĠJust in
Ġprof ess
Ġhappen ed
ĠÐķÐ² ÑĢÐ¾Ð¿
ĠÐ¼Ð¾Ð¶ ÐµÑĤ
ĠB AN
ĠB iden
Ð°Ðº Ñģ
Ġnot ed
Ġdis app
Ġà´ ¸
ÐµÐ· Ð¸Ð´
ĠRec omm
ĠAg ain
D E
k a
Ġs at
ĠM S
ad ium
Ġan sw
ip l
Ġ4 2
ps on
Ġro om
ĠConnect ed
Ġcontr act
ĠStart ing
ĠPost ed
Ġmess age
ĠPit ts
8 8
ÑĤ Ð¾Ð²
ĠG erm
Ġre veal
Ġg iven
Ð°Ð½ Ð´ÑĢ
Ġtr y
ous ands
Ġreg ular
ĠPar enting
ĠMc D
ÑĢÐ¾ ÑĦ
Ġide ology
olk ata
ĠETF s
Ġil leg
0 7
f ord
Ġ í
or al
ĠT ip
ĠA R
ĠG iants
our ts
un k
Ð¸Ð½ Ð°Ð½
ann a
opy right
ĠPat el
Ð»Ñİ Ñĩ
Ġess ential
ĠOptim izer
a ith
a ut
Ġw itness
ĠN ar
Ġb enefits
Ġbe gan
Ð¾ÑģÑĤ Ð¾
ĠÐĿ Ð¸Ðº
Ġgo als
Ġfl ights
ĠÑįÑĤ Ð¾Ð¼
Ġear lier
u a
ĠC D
Ġb ar
Ġb road
Ġm ind
if ying
Ġtr aining
ĠFr ench
Ġplay ing
ĠTH IS
4 3
j et
ĠA EW
ĠM D
ĠM ult
ĠH ost
ĠG irl
ĠJ PR
ÐµÐ» Ð¸
Ġres idents
ĠÐłÐ¾ÑģÑģ Ð¸Ñı
ĠOp portunities
Ġreport ing
Ġbrows er
Ġmur der
s y
ĠA h
ĠM ission
Ġm is
Ġwith d
Ġv acc
ĠEx ecutive
ĠInter views
Ġent ire
Ġimmed iately
Ġsitu ation
F P
s ide
y er
Ġs etting
Ġs ession
ĠW inn
ĠW UNC
ĠG and
Ð¾Ð³ Ð´Ð°
Ġcr edit
ĠAir craft
Ġrem ain
Ġprov iding
Ġlead er
ĠCons ider
Ġeconom y
Ġpredict ion
ĠCow b
ĠGasc Ã³n
ĠP A
ĠW arn
Ġd one
ro y
ĠJ ets
ĠK olkata
ÐµÑĢ Ð³
ĠEn t
Ġint ro
Ġinf rastructure
rug g
ĠE D
end a
ust an
av y
ĠAn y
Ġreg ion
ĠVenezuel a
ĠMom ent
aÃ± ol
w est
ĠL imited
Ġd espite
ĠCh and
Ġsign ed
Ġass oci
ĠInter est
Ġcol lect
ĠFest ivals
ĠÐłÐµÐºÐ»Ð°Ð¼ Ð°
ev in
ĠÐ¿ÑĢÐµÐ´Ð» Ð¾Ð¶
Ġcamer a
ÑĢ Ðµ
Ġw el
ĠPr es
Ġ6 7
ÑĤÐ¸ Ð²
ĠPre vious
Ġstud y
Ġpartic ip
ĠInt elligence
àµĨ âĢĭ
ĠImp act
ĠPitts burgh
A J
ĠP H
Ġc ode
Ġcom mercial
Ġ8 0
Ġplay ed
Ġtrans gender
leg es
ĠIndian a
ĠSC V
ĠÐ¿Ð¾ÑģÐ» ÐµÐ´Ð½
T ech
Y ou
d oor
Ġ íķ
Ġb roadcast
ĠÐ¿ Ð¾Ñģ
ĠSt orm
Ġr ound
ĠK ansas
ĠCl in
ĠCl osed
ĠCon gress
Ð°Ð´ Ð¸
Ġplay er
Ġco ordin
T r
os ing
Ġl ate
ĠÐ¿ Ð¾Ð³
ĠÐ¸ Ñħ
ap ers
ĠÐµ Ð³Ð¾
Ġrequ ire
imin al
I R
d e
p atch
ĠG ift
ÐµÑĤ Ñĭ
Ġpro duction
ĠSche d
ĠTech n
Ġinvest ment
ĠHol iday
Ġpass word
ĠHaw ai
Ġtot al
c ue
ĠB ad
ĠJ on
ak a
em ale
ĠÑĢ Ðµ
Ġse ven
à¤ ¿
Ġà´ ª
ino is
ĠLear jet
Ġpop ular
Ġbo ost
h ics
i ot
o ons
ic an
Ġad vert
Ð¸Ð¼ Ð¸
ĠBl ogs
ĠPhil ly
Ġop portunity
Ġhear ing
ĠÐĲÐ»ÐµÐºÑģ Ð°Ð½Ð´ÑĢ
in ation
ar es
Ġs ust
ĠO P
Ġg reen
oc ket
ĠÐ¼ Ð¸Ð½
Ġcl osed
Ðļ ÐĲ
ĠRec ent
ĠFl ight
Ġstreng then
ivest ream
al ent
ĠC ase
ĠN ifty
ĠE sp
ĠG ovt
ĠAr row
ÐºÐ° Ñĩ
ĠEvery thing
ĠIll inois
I m
ÑĤ ÐµÑĢ
ĠC H
ĠT S
ou ver
ĠP S
ÑĮ Ñİ
Ð· Ð°
ors e
anc ouver
Ġpre vent
Ġinclud es
AT ED
Ġval ue
Ð°Ð¹Ð´ Ð¶
Ġedit or
1 00
es man
ĠR yan
Ñĥ ÑģÑĤ
ĠSt atus
Ġr ange
Ġrece ived
ĠShiv am
ĠC op
ĠP osts
ĠN eed
ĠM ike
le vel
Ġm atter
Ġh ot
Ġe mergency
ĠÐĵ ÑĢ
Ġany thing
Ġreg ard
ĠDr ink
Ġupd ated
ĠRan ji
ĠSeat tle
ĠS ind
ĠP u
ĠM ajor
ĠK oh
Ġcr oss
Ġcl imate
ivers e
ĠList ings
Ġam b
UL T
ipl om
F or
I mp
ĠS ource
ĠN J
ĠF arm
ĠF uture
ĠU P
ĠK evin
Ġper iod
ĠSw ing
Ġsim ilar
Ġouts ide
m en
Ġs ong
ĠC T
ĠA FC
ĠA str
ĠN awaiwaqt
ĠB irth
ĠF ight
ĠL PG
Ġ3 2
ĠPr ot
ous es
Ġab ility
eg r
ĠSchool s
ĠRob ert
Ġequ ity
ÐµÑĢÐ¸Ð°Ð» Ñĭ
¼ ë
ĠS er
Ġc ourse
ĠB ur
ĠF C
ĠE IN
Ġl ic
im al
ĠV ancouver
ĠPr os
Ġwas n
ĠÐŀ Ð´
ĠRad ar
umb ers
ĠÐºÐ¾ÑĤÐ¾ÑĢ ÑĭÐµ
ĠPart y
ĠMiss our
Y C
n el
ĠP ot
ig ar
ĠÐ¡ Ð»
ĠGu ard
Ġdirect ly
ĠProm os
ĠÐļÑĥÑĢ ÑģÐºÐ¾Ð¹
vo id
A ir
ĠM aking
ĠW M
Ġl ives
ĠV ik
Ġsp read
Ġsu ff
itt ing
ĠCap it
ĠIsrael i
ĠM ust
ĠF an
ĠW ood
Ġg ovt
Ġis n
Ġ3 5
ĠÐ¿ÑĢ Ð¾Ð³
ĠÐ½Ð° ÑĪ
Ġj ud
Ġoff ensive
Ġfree ze
Ġfr ont
ĠChr is
ĠConf idential
ĠRoto Wire
8 00
9 2
E CH
g ent
s ylv
Ġt our
is l
ĠR oll
Ġl o
ĠÐ¿ Ð¾Ð²
ĠÐ³ Ð»Ð°Ð²
Ġà´ ®
att le
ĠOb s
ici as
Ġgen eral
) :
A s
t m
u ce
Ġt ext
ĠT em
ĠE arn
ĠH ard
Ġcon ference
ise ase
Ġì ¦Ŀ
Ġreg ul
Ġman ufact
Ġevery one
Ġcar rying
Ġop portunities
Ġprot ect
ĠMet ro
Ġpur p
Ġlaun ch
er ry
Ġd en
ĠH ur
ot ions
Ð¼ Ð°
Ġy outube
ÑĨ ÐµÐ²
ĠCh all
ĠÐĲ Ð·
ĠÐ¸Ð· Ð²ÐµÑģÑĤ
ues day
Ġdem and
ĠQuest ions
ĠEar th
Ġregister ed
sylv ania
f ol
i ant
ĠÑĥ Ð²
Ð¸Ð· Ð²
Ġlaw suit
Ġ201 6
ĠComm ission
Ġauthor ities
ocu ments
ĠCustom er
ĠCowb oys
ĠMissour i
d el
Ġa chieve
ĠS ay
re ens
ĠL ivestream
ĠG ab
ro g
ĠAd ani
ĠMin ute
AT ION
Ġtrans form
ĠTri al
ĠAfric an
cri pt
5 00
in ions
Ġs n
ĠC FL
Ġb all
Ġe Paper
ub lish
olog ies
ough t
Ġhel ps
IC E
Ġthough t
ĠVirgin ia
T ER
is er
Ġc y
Ġc ur
ĠM aster
ĠF act
ĠW L
ĠL ions
ĠL oad
ĠG aming
ĠJ ack
Ġcl aims
ĠChief s
ĠPenn sylvania
aug ur
b re
Ġ er
an ch
ĠB on
ĠR aid
us band
Ġl iving
Ġcom mit
ish ing
Ġdis aster
Ġexper ts
ron ic
Ġmarket s
Ġfe et
isc al
ÐµÑĢÐ± Ð°Ð¹Ð´Ð¶
Ġparticular ly
C om
w al
ĠT or
ĠW oman
ĠL ok
ĠG h
ĠO il
ut ch
and id
ÑĦ Ð¸ÑĨ
ĠPol icies
ĠOff er
Ġac cept
Ġallow ed
pro f
ĠÑĤÐ°Ðº Ð¶Ðµ
Ġvar ious
ĠìĨĮ ì
ĠChild ren
Ġemot ional
ìł ľ
Ġwithd raw
³ ´
ĠT urn
is ks
ĠM ountain
Ġh om
ag a
Ġcon cussion
Ð¸Ð¼ Ð½
Ġen joy
ai j
Ġact ually
ĠAm b
ĠDis patch
ĠStud ent
Ġannoun ces
Ġwrit ing
Ġì£¼ ìłľ
ĠCarol ina
ĠSind h
Imp act
Ġì¦Ŀ ìĥģ
I G
Ġc ard
Ġd iv
ĠO wn
oc urrency
rom e
Ð¾ÑĤ Ð¸Ð²
ĠCol umb
ĠÐ¿ÑĢÐµÐ´ ÑģÑĤÐ°Ð²
ĠState Impact
Ġshow ed
ĠExp and
P l
U ST
en ess
re land
ĠH PR
Ġl ines
à´ ¦
ĠÐł ÑĥÑģ
ĠPro v
Ġsc he
Ġrec ently
Ġatt orney
ĠSou thern
Ġneed ed
ĠPar is
ĠìĿ ¼ë
amb ling
Ġbuild ing
ĠDig est
ĠÐ²Ð¾Ð» Ð¾ÑģÑĤÑĮ
ĠìĿ¼ë °
m et
Ġ ê°ľ
Ġs on
re es
Ġb it
ĠD ies
ĠÐľ Ð°ÑĤ
ĠÐ¤ ÑĥÑĤÐ±Ð¾Ð»
Ġen ough
Ġexper t
Ġdes crib
Ġrest rict
ĠìĿ ĺíķĻ
ĠìĨĮ ê°ľ
ĠBroadcast ing
ĠThom pson
¸ì ļ©
ĺìĿ ¸ìļ©
ĠìĿ¼ë° ĺìĿ¸ìļ©
A n
T R
Ġs ou
ĠP ent
Ġw ays
ĠN ame
ĠW I
Ñĥ ÐºÐ°
ĠÐ² Ð¾Ð¿
ĠV is
ĠTh ree
av itt
Ġle ave
Ġso on
ĠZ eal
ourn ey
ĠOpen AI
Ġstar ts
ĠComment ary
I ST
g a
i j
ĠC ut
Ġp ilot
ĠB enefits
Ġh our
Ġst ation
ĠRe f
ĠÐ¢ ÑĥÑĢ
ĠBr it
Ġdec ades
ĠComp et
enef it
ĠColum n
Ġfact ors
Ġcaus ed
S P
l og
r esp
Ĩ į
ĠS ections
Ġs ense
ĠM ac
Ġp ers
ent o
ĠW ATCH
Ð°ÑĤ Ñĭ
ĠÐ½ Ð°Ð³
ĠÐ´ Ð½ÐµÐ¹
ĠBu ild
ĠAP M
à¥ ĩ
ĠìĨĮì Ĩį
D F
H C
it able
ĠL at
Ġd og
Ġh opes
Ġy oung
Ġsc reen
ÑģÑĤÐ² ÐµÐ½
ribut ed
go ing
ĠChar ts
ĠMc C
Ð³ÑĢ Ð°Ð´
ĠDev a
ÐºÐ°Ñĩ Ð°ÑĤÑĮ
f ect
i as
ĠA viation
Ð» ÐµÑĤ
Ñı Ð²
ĠÐ¿ Ð¾Ð¿
Ġr oll
ĠRe veal
ĠÑĢ ÐµÑĪ
ĠÐ¾ÑĤ Ð¼
ĠIm print
ific ation
ĠÐŁÑĢ Ð¾
ĠÐĺÐ²Ð°Ð½ Ð¾Ð²Ð¸Ñĩ
Ġindivid ual
ĠStep hen
N I
T ulsa
b s
e ign
Ġt ro
ĠT uesday
ĠF ield
ĠPr edict
und red
Ġà´ ķ
ĠNo ida
Ġcontin ued
ĠWN YC
Ġoper ations
ĠStudio Tulsa
Ġìł Ģì
ĠSched ules
ĠìłĢì ŀĲ
b aij
à ¦
ĠC amp
ĠI reland
Ġth ousands
Ġcom m
Ġcom mon
ik es
ra ight
iz ations
Ð°Ð»ÑĮ Ð½ÑĭÐµ
Ġair port
Ġrespond ers
ĠWell ness
b ard
m akers
Ġa ward
op h
ĠÐŁ ÐµÑĤ
àµ ĭ
ĠAnd rew
Ġgo al
ER S
ĠNot icias
Ġread ing
ĠGe org
zer baij
´ìĦ ¤
Ġíķ ´ìĦ¤
ĠZeal and
ÑĢ ÐµÐ´
ĠM id
Ð» Ðµ
ĠR og
Ġm iddle
ĠL ah
Ġl oan
ĠU r
ĠÐ½ Ð¾
ĠÐł Ð¤
ram ento
Ġnot hing
ĠÐĵ Ð¾Ð²
Ġen forcement
ĠHealth care
Ġact ions
rough t
Ġcons um
ĠKP BS
ĠKoh li
7 6
at ives
ar ian
ĠP ur
le ashing
ĠB ah
ĠB alt
ĠE ST
av en
ĠÐ¡ Ð¾
ov ers
Ð¸ÑĢ Ð¾Ð²Ð°ÑĤÑĮ
ĠMus k
ED IA
Ġab s
ĠAm id
Ġbec ame
ĠÐ§ ÐµÐ¼Ð¿Ð¸Ð¾Ð½Ð°ÑĤ
Ġtrans port
Ġve hicles
ĠSac ramento
ĠPict ures
al ition
Ġf irm
ĠB ull
Ð¼ Ñĥ
Ġst rugg
ire ment
ĠEx pert
ĠEng ine
ĠIntern s
Ġprom ote
Ġmod ern
ĠProf ess
ĠClos ings
w ell
or ge
ĠS om
ĠP erson
Ġn ecess
ÐµÐ½ Ð½
Ġe ight
ĠÐ¿ Ð¾Ð¼
ill a
ri an
ab les
Ð¾Ð½ Ð°
Ġ0 8
ik a
ov a
hen s
ĠAl i
ĠLe avitt
Ġeven ing
Ġown er
EM ENT
Ġgirl s
ĠPerform ance
sy ch
ĠLah ore
Ġb ench
ol a
âĢĻ :
Ð°Ð½ ÑĤ
Ð³ Ð¾ÑĢ
ĠSign al
ĠQu iz
ĠVir at
ĠSI GN
Ġexc iting
ĠUnlock ed
ease fire
ķ í
ĠS A
ĠA zerbaij
ir it
ĠK PR
Ġan alysis
Ġsp ot
ĠDe als
ĠAs pen
Ġse em
ÑĢÑĥ Ð´
Ġinclud ed
ĠRec ipes
Ðľ Ðĺ
ĠPar liament
ĠÐ¼Ð¸ÑĢ Ð°
Ġsaf e
ĠHind ustan
ĠCylind er
ĠRaid ers
U n
d om
er ed
Ġa ge
ĠR ES
Ġm ill
ĠH on
ĠH al
Ġl a
ĠV eg
Ġpr im
ĠCom mercial
gh an
ĠÐ± Ð¾Ð»ÑĮÑĪ
Ġsc ient
Ð°Ð¶ Ðµ
ĠGr and
ĠÐ¿ÐµÑĢ Ð²
Ġincre ased
ĠSust ainer
ĠNiger ia
ĠDisclaim er
4 2
k en
ĠB iz
ĠR ound
ĠW ebs
ĠÐ´ ÑĢÑĥÐ³
ĠPl ace
Ġad ditional
ĠÑģÑĤ Ð¾
ÐµÐ³ Ð¸ÑģÑĤÑĢ
Ġcol lege
Ġsystem s
p oint
ĠC atch
ĠB ureau
Ġan ti
Ð¸Ð» Ð¾
Ð¾Ñģ ÑĮ
Ġsp ok
ult ural
ĠRec ords
uc ed
ES S
Ġtar iff
Ġrequ est
Ġlink ed
ĠKV PR
raz il
Ġded icated
5 1
Ġs av
Ġo v
ĠR ic
Ġv ot
Ð½Ñĭ Ð¼Ð¸
ack ed
Ġk ids
Ġsp eed
ĠProgram ming
ĠPet e
Ġinfl u
ĠBrown s
ÃŃ a
ĠÐ¾ÑĤÐº ÑĢÑĭ
ĠBalt im
C AR
H e
Ġ ill
ĠS ett
ĠP oll
ĠM ade
ĠIn to
ĠIn novation
end ra
ank a
ĠQu otes
ĠGold en
ĠAssoci ation
ĠÐ¿Ð¾Ð´Ð¿Ð¸ÑģÑĩ Ð¸ÐºÐ¾Ð²
Ġfavor ite
ĠÐ½Ð°Ð³ ÑĢÐ°Ð´
ĠBaltim ore
h ouse
t e
Ġc oun
Ġm other
ot i
Ġfor ces
Ð³ ÑĢÑĭ
ical s
own a
ĠFor ce
ĠÑĩ Ð°ÑģÑĤ
ĠÑĩ ÑĤÐ¾Ð±Ñĭ
ĠCol lection
ĠRec ord
uck y
Ġlong er
ĠCent re
Ġpur ch
ĠMad uro
ĠKel owna
ĠCart oons
8 9
ĠM any
ĠM ets
ĠI ts
ĠK im
ÑĨ ÐµÐ½
ĠTr ail
ĠÐĶ Ð¾Ð½
Ð¾Ñĩ ÐµÐ¼Ñĥ
Ġpol icies
Ġbl ocks
ĠHer oes
Ġsk y
off s
P H
b ell
x iety
± ķí
Ġ es
Ħ °
Ġto wn
ĠÑģ Ð¾Ð²
ce ed
ĠÐł ÐŁÐĽ
àµ ĩ
Ġcan cer
Ġì ±ķí
Ð°Ð¿ Ð¸ÑĤ
ĠGall ery
Ġì±ķí Ħ°
I F
a uty
Ġ ê
ĠF ed
ĠG ener
ĠO s
ĠÐŁ ÑĥÑĤ
aw a
ĠIm age
Ġgo es
Ð¡ Ð¢
Ġsub scribe
Ġact ress
idd en
I L
ĠC ast
ent ure
ch i
un ning
ill age
ri e
Ð¾Ñģ Ð¿
Ġad min
form s
Ġ8 00
Ġstart ing
ĠPet er
ĠÐ²Ð¾Ð· Ð¼Ð¾Ð¶
ĠÐļÑĥÐ± Ð¾Ðº
u z
ĠS ince
Ġc lean
ĠB order
Ġth r
Ġn atural
Ġl akh
ag ues
ill ing
ĠÐ· Ð°Ð´
Ġcomp lex
Ġdo or
ĠSpons ored
ĠRed dit
ĠKar la
ĠT weet
ĠR h
Ġm ax
Ġd raft
ĠE V
ĠH i
id ers
us es
ÑģÑĤ Ð¾ÑĢ
end ations
ĠTr av
ĠÐłÐ¾ÑģÑģ Ð¸Ñİ
Ġlaw yer
10 5
ĠArt ificial
Ġcer emony
Ġseek ing
ĠD NA
ĠSt ill
Ġint ers
Ġsub scription
ĠPress wire
Ġmov ing
acks on
Ġcover age
ĠExper ts
ĠExper ience
Ġfight ing
ĠRest aur
Ġdoll ars
ĠÐĲÐ· ÐµÑĢÐ±Ð°Ð¹Ð´Ð¶
log o
m ail
p x
r act
r ick
Ġt ouch
ĠC P
ĠN FC
Ð´ ÐµÑĢÐ¶
ĠÑģ ÐµÑĢ
pp ed
ĠÐĶ Ð¶
ourn ament
ĠVal ent
Ġrout e
Ġshop ping
ĠLG BT
ĠBAN K
6 6
7 4
b an
c os
ĠS ave
ÐµÐ½ÑĤ ÑĢ
ys ter
Ġwrit er
ĠLI F
ĠDemocr atic
Ġarrest ed
ĠTR END
ĠWr ite
Ġser ious
ĠTREND ING
Ã ¡
Ġc ir
ĠB razil
Ġr isks
op er
Ð°ÑĤ Ð°ÑģÑĤ
ĠK ent
ĠÐ¡ ÐµÑĢÐ³
ĠÐ¼ ÐµÑģÑĤ
ĠÐĹ Ð°
Ġrel ief
ĠÐ£ÐºÑĢÐ° Ð¸Ð½Ñĭ
ÐµÑĢÑĤ Ð¾Ð»
Ġmass ive
Ð°ÐºÑģ Ð¸Ð¼
P A
r is
Ġa viation
ic ult
Ġp le
Ġp odc
ĠB an
ĠR a
ĠW arm
Ġd ro
Ġfor eign
ĠK e
ĠAr ab
20 24
Ġbr ands
Ġmov ie
Ġmark ing
ĠSpring field
Ð°ÑĤÐ°ÑģÑĤ ÑĢÐ¾ÑĦ
G PT
c ont
ĠS essions
ĠC ateg
ĠB ald
ĠD iv
el and
ĠÐŁ Ð¾Ð»
ÐµÐ² Ð°
ÐµÐ¹ ÑĤ
ĠCan ucks
Ġfl u
Ġmin ister
Ġeff ort
ĠPrem ier
Ġincre asing
Ġmom ents
ĠSn ap
resp ond
n ite
Ġ ends
Ð½ Ð°ÑĢ
ĠU l
ĠJ enn
ĠK enn
ÐµÑĢ Ð¾Ð²
Ð¸Ð» Ð¾Ð¶
ĠInst itute
Ġatt empt
IC S
Ġins p
Ġtrad ing
ĠShar es
ĠRequ est
h an
i ams
ĠP ast
Ġw or
ĠH arr
Ġr ise
ear ing
ĠÐ¾ Ñĩ
pl es
Ġsh ock
und er
Ġint ended
OR IES
ĠDem and
Ġmiss ile
ÑģÑĭ Ð»
Ġpasseng ers
Ġfoot age
ĠNAS CAR
Ġtro ops
ĠS ystem
ĠS ession
re hens
Ġh app
Ġn e
ÐµÐ½ Ð½Ð¾ÑģÑĤÐ¸
Ġst ated
ĠCont rast
ĠÑĤ Ð¾ÑĢÐ³
Ġpart ners
ĠOr igin
ĠCap tion
Ġins urance
ĠSo f
ĠDist ribution
ĠGard en
Ġsing le
Ġunl imited
Ġconflic t
ĠGand hi
Ñģ Ð¸Ð¸
ĠF ame
ĠL ab
Ġd oct
Ñĭ ÑĪ
ĠJ un
ag on
ĠK eep
ĠÑĤ Ñĭ
Ġqu ality
ims elf
ĠPart nership
Ġpar ents
ĠCrypt ocurrency
Ġschool s
ĠS ens
Ġs ource
ĠJ o
por ary
ud d
ĠDis cuss
Ġgr ant
ĠAt l
Ġsecond s
ĠMot ley
Ġann ual
sel ves
ĠEsp aÃ±ol
B L
U M
n et
in y
ĠW all
ĠJ et
ĠJ ackson
im ately
all as
ĠÐĴ Ð°ÑĪ
let ters
ĠEx t
Ġun ique
Ġover all
Ġev idence
Ġsub st
Ġthrough out
ĠIntern et
ĠBank ing
ĠTele vision
ĠÐĵÐ¾Ð³ Ð¾Ð»ÐµÐ²
ĠWU WF
u le
Ġp ull
Ġm ix
Ġd aughter
ĠK ings
ÑĨ Ð°
all ed
Ð¸Ð½ Ð¾Ð²
ĠÐĴ Ð»Ð°Ð´
ĠCap e
esh a
ĠWill iams
ÑĥÐ±Ð» Ð¸Ðº
Ġdam age
itiz ens
ĠS ri
an ish
al o
ou ble
Ġb al
Ðº Ð¾Ð¹
ĠÐ´ ÐµÑĤ
ĠFr ance
Ġatt acks
Ġpat ient
Ġclos ings
Ġcommun ities
Ġnet work
ĠInj ury
Ġinters ection
p et
r ont
Ħ ì
it ional
Ġs oci
Ġs ales
Ġin augur
ĠR av
Ġst re
Ġst orm
ÑĪ Ð¸Ñħ
ĠSa udi
ĠÐ°Ð² ÑĤ
Ġilleg al
ĠS her
ĠB ul
ĠB all
il s
ĠD omin
ĠE ff
ĠÐ² Ð°ÑĪ
ĠK am
Ð¸Ð½ Ð¾
Ġtr ue
ĠÐĵ Ð¾Ð²Ð¾ÑĢ
Ð°Ð»ÑĮ Ð½ÑĭÐ¹
duc ed
ug u
Ġreturn s
ĠÐ£ÐºÑĢÐ° Ð¸Ð½Ð°
k g
n g
p age
v id
om ac
ĠG uru
Ġn amed
st e
em ic
ĠÐ» ÑİÐ±
ft ware
Ġab laze
Ġchar acter
ĠPart ners
ĠChat GPT
w ide
Ġw alk
Ġp ark
ĠW a
id ance
Ġ1 50
ear ed
à´ £
ĠRe veals
Ð³ Ð°Ð½
Ġyou th
ĠÐ¼ Ð¾Ð³
Ġad dition
ĠÐºÐ¾ÑĤÐ¾ÑĢ ÑĭÐ¹
AR E
Ġph one
Ġpos itive
RE E
wh ile
ĠSP ORTS
ĠConsider ed
C h
v ention
it ch
ĠT itle
ĠL td
ĠE r
ĠG ot
Ġl anguage
ĠÐĴ Ð¾
Ġse par
ish es
ĠUp coming
Ġind ic
Ġbel ie
ĠHind i
ĠLouis iana
ĠFore ign
ĠOP IN
undred s
U p
_ _
i y
s s
Ð¸ Ñī
ĠI HC
Ġm ot
Ġh uge
ow ell
ĠG ov
ÑģÑĤ ÑĮ
Ġv oice
Ġex act
ump s
Ġun s
ĠEv en
ĠEv ening
uck er
Ġdirect ed
TS B
ĠPal estin
ĠSing h
fol io
ĠOPIN ION
Ġa p
ĠN OW
ĠD allas
ĠH old
ers ey
ĠJ ones
ĠSt adium
ĠTr ading
Ð°Ð» ÑİÑĤ
ĠCom mittee
ire ction
Ġcan cel
inn ing
ĠInter active
Ġfac ing
ĠUkrain ian
Ġturn ed
Ġappear ed
ĠHam as
ĠSab ha
ĠGrow th
del ays
G A
J P
Ġt ele
Ġs ources
Ġc as
Ġc ell
ĠN eg
Ġd ark
ĠSt yle
ĠOn ly
Ġ4 5
Ġnews letters
ift ing
ĠAgain st
er c
Ġc ateg
ĠB und
ĠK S
ĠÐĵ ÐµÑĢ
ĠIns ider
Ġret ail
ĠCrash es
US D
Ġfri end
Re view
ĠCaption ing
8 5
N o
T IS
Y ear
r os
Ġ ult
Ġa thlet
Ġc ards
ĠM o
om s
ĠH o
ad or
ĠNews room
im als
ĠÑģ Ð¾Ð±
ĠTh an
Ġà´ µ
go ogle
ĠStr ategy
Ġest ab
ĠFO X
Ġcou ple
ĠWebs ite
O D
W G
X I
Ð½ Ð¸ÑĢ
Ġf ast
Ġp ic
ĠW ant
ĠD espite
ĠG D
ĠÐ² ÐµÑĢÑĤÐ¾Ð»
Ġwh ite
ik i
Ġcr itic
Ġgr adu
ĠCO DE
Ġdiff icult
Ġvide os
ĠSy nd
ĠCy ber
Ġenc our
ĠOlymp ics
ĠC ould
ĠA L
ĠB ored
ĠF un
ĠR EL
ĠW he
ĠD eath
Ġd iversity
ĠE ye
ĠG ri
Ġl inks
ĠJ ava
Ð°Ð» ÑģÑı
ĠBl ues
Ġapp oint
uth ors
ĠReg ul
ĠHigh lights
ĠBu ff
Ġgrow ing
ĠÐ¼Ð¸ÑĢ Ðµ
ĠÐ°Ð² Ð¸
itut ion
ĠSpok esman
Ġinform ed
ĠEM I
rehens ive
c ell
ĠS ide
Ġs elf
Ġw ife
Ġf elt
Ġp ath
ĠR ail
il ly
Ġd est
ĠH ill
Ġr ank
Ġr ace
un s
Ð°ÑĤ Ð°
ĠSub st
Ġch ance
ĠÐ± Ð¾Ð»
ict ion
ĠFr anc
ĠRes cue
Ġdet erm
ÑĢÑĭ Ð²
ĠSw ed
ĠVi ews
ĠMart in
ĠKore an
Ġfig ure
Ġconvers ation
ĠClar ita
ĠAzerbaij an
b on
re l
ĠI I
ul ner
Ġpro b
Ġsp ent
ru it
ĠIns ight
ĠShop ping
Ġrun ning
eter ans
Ð¸ÑĤÐµÐ» ÐµÐ¹
O n
U K
o ose
Ġ àª
ÑĢ Ñı
Ġc ities
ĠB eat
Ġh istor
ut ual
ĠSp ec
Ġsh ooting
Ġ4 3
Ð¾Ðº Ñģ
ib ly
Ġcl ub
cer tain
ÐµÐ· ÑĥÐ»ÑĮÑĤ
Ġbl ood
ĠOr der
ĠSu ccess
ĠBang l
ĠSett ings
G E
i ative
m ys
o il
o ft
ou ds
ĠN eighborhood
Ġb and
Ġm ig
ĠO T
ĠK A
ĠV ia
à´ Ļ
har d
Ð¾Ð» Ð»
ial ly
ĠAn sw
tt y
app ed
Ġph ys
Ġdead ly
Ð¸Ð½Ð³ ÑĤ
ĠHear t
Ġprem ium
ĠOsc ar
ĠÑĢÐ°ÑģÑģÐºÐ°Ð· Ð°Ð»
B R
N BC
b a
Ġ x
an o
ĠA N
ĠM oh
il ing
Ġh um
Ð² Ð¾ÑĢ
ÑĪ Ð¸Ð±
Ġcan not
ÑĢÑĥ ÑĪ
ann er
ÑĥÐ´ ÑĮ
Ġlook s
ĠAD VER
ĠÑįÐº ÑģÐ¿
ĠFort nite
ĠEN G
ĠÑĢÑĭÐ½ Ð¾Ñĩ
Ġmeas ures
ÐµÐ·Ð¸Ð´ ÐµÐ½ÑĤ
ĠADVER TIS
. )
f ri
Ä ģ
ĠL yn
ĠG round
ĠO thers
Ð¾Ð² ÑĭÐµ
ell o
anc ing
Ġinst ruct
ĠAc adem
ĠS qu
ĠP ut
Ġb i
Ġb ro
ĠW alk
ĠL ind
Ð°ÑĤ Ð¾ÑĢ
ont o
har m
àµ »
ĠSub scrib
Ġch ief
ck now
Ġins ide
ĠProject ions
estin ation
ĠContin ue
R N
g s
Ð½ Ð¸
Ġs ell
Ġp ict
ĠB oth
Ġb ur
ĠG on
Ġe asy
Ð² ÐµÐ´
ĠÐ² ÐµÐ´
Ġst ore
Ġpro jects
à¤ Ĥ
ĠIm migration
Ġhow ever
Ġac qu
IT Y
Ġsup er
iat ives
Ġhappen ing
Ġsect ors
ĠGram mys
ĠTor onto
d r
e pt
u x
Ġt w
ĠM EX
Ġto ward
il iate
Ð¾Ð² ÑĭÑħ
ÐµÐ½ Ñİ
ĠÐľ Ð°ÑĢ
ra ud
ah o
yn am
Ġob s
ĠÐľÐ¾ÑģÐºÐ² Ðµ
Ġtreat ment
ĠRelations hips
ë¬ ¸
ĠÐĿÐ¸Ðº Ð¾Ð»
D S
e qu
m ir
Ġt itle
en ed
it c
ed its
Ġc ourts
ol ine
Ġg ather
Ġr ul
ce an
ist ics
em ail
Ð¾Ð» Ð¾ÑĤ
Ġar gu
land s
OM E
ĠCo ach
Ġpat tern
ĠÑģÐ°Ð¼Ð¾Ð» ÐµÑĤÐ°
ĠCF B
E x
c asts
Ġ >
ÑĢ Ð°Ð²
Ġs ets
Ġs ale
ĠT est
ĠA ction
ĠA LL
Ġw ants
ĠB i
ĠF itness
ĠO K
Ġre venue
Ð¾ÑĢ Ð¾ÑĤ
ÑĪ Ð¸Ð¹
Ġex ample
Ġle aving
over ed
ph as
Ġmin ing
Ġhelp ing
ĠÑĢÐµÐº Ð»Ð°Ð¼
writ ten
ĠCamer a
Ġmid air
ĠÐĲÐ² ÑĤÐ¾ÑĢ
ĠÐĲÐ½Ð´ÑĢ ÐµÐ¹
9 5
m at
Ð Ń
Ġa void
ic ut
ic ient
Ġf ail
Ġf iscal
ĠB a
ĠB road
ow ers
Ġg ave
ĠV ICE
Ġan xiety
Ð¾Ñģ Ð¼Ð¾ÑĤ
ÐĿ ÐĲ
ĠInc rease
ĠBut t
Ġstate ments
ĠÐ¶ Ð¸Ð²
ÐµÑģÑĤÐ² Ð¸Ñı
Ġstud ent
ĠRw anda
ĠCapit ol
Ġmill ions
ĠT ea
is a
Ġf ired
ĠR ac
il ty
ĠH ul
Ġr ain
ĠK umar
ĠÐ¾ Ðº
ĠY ad
ĠÐľ Ð¸Ñħ
ÐµÐº ÑĥÑī
Ġcr iminal
Ġde g
ĠSp anish
Ð½Ð¸Ðº Ð¸
Ġatt ention
Ġcall ing
ath an
ĠCap ital
ĠAust ria
Ġsup ply
Ġpar ts
ĠId aho
Ġlar gest
Ġref lect
ĠAdd ress
ici ency
inter est
Ġprosecut ors
Ġsust ain
ĠPot omac
C R
or a
it age
Ġre pl
ĠÐŁ Ð¾ÑģÐ»
ÐµÑĤ ÑģÑı
sc ape
Ðĺ ÐĶ
IN E
ĠCar l
ĠAf ghan
Ġaff ected
augh t
Ġpotential ly
ĠAtt ack
Ġprop osed
ĠThom as
ĠMa har
d a
p ay
Ġ eth
ĠA v
Ġm iles
ÐµÑĤ Ðµ
ĠÐ¡ ÐľÐĺ
ÐµÐ¹ ÑģÑĤÐ²
ĠÐ± Ð¾
Ġwho le
Ġì Ĺ
ĠSe lect
Ġam ount
Ġhigh light
ĠÐ·Ð° Ñī
ĠConnect icut
Ðĵ Ð¾Ð³
ĠBh op
Ġwinn ers
Ġreveal ed
ĠED IT
ĠWL RN
ĠKenn edy
t witter
ĠP ack
ĠM ail
ĠM ental
Ġb ott
Ġto ols
Ġh y
ec urity
Ġl imited
Ġfor ced
Ġe ither
Ġr ules
ĠV er
ist ance
ĠÐ¡ ÐºÐ°ÑĩÐ°ÑĤÑĮ
àµ Ģ
ĠDe al
ĠUn leashing
ÑĢÐ°Ð½ Ñģ
ĠPar am
ĠConnect ions
Ġactiv ities
ĠFAQ s
Ġste ps
ĠColumb ia
respond ent
B l
g ery
r ics
ar io
Ð» ÑĥÐ±
Ġb rought
ĠW al
Ġd ied
Ġh imself
ĠH ospital
el ine
Ġg ambling
ĠÐ´ Ð¾Ð»Ð¶
Ġcl ouds
Ġits elf
Ġapp ears
ĠCar ib
yl an
Ðķ ÐĿ
EC T
Ġshort ly
y es
Ġc old
ĠR umors
Ġm ult
ow d
Ġre porter
ĠÑģ ÐµÐ³Ð¾Ð´Ð½Ñı
Ð°Ð½ Ðµ
Ġ3 7
ÑĪ ÐµÐ³Ð¾
du ce
Ġem p
AT E
Ġread y
ĠOr gan
ÐµÐ¶ Ð´Ñĥ
Ð½Ð° Ñĩ
rup tion
Ġrele ases
Ġinfl ation
ĠContribut e
Ġprofess ional
ĠGeorg ia
vid ia
P L
g ment
p apers
t ies
Ġs olutions
Ġc amp
ĠI R
ĠE ll
ĠE mergency
um a
Ð¾ÑĢ ÑĤÐ°
Ġ3 4
ant ic
Ġpro gress
Ġde ploy
ens es
Ð¸Ð¼ Ð¸ÑĢ
ĠMe an
The y
ĠÐ¿ÐµÑĢ ÐµÐ´
Ġred ist
ĠÑĪ Ðº
ÐµÑĢÑģ Ð¸Ñı
ĠParam ount
m ary
r ant
w ith
ĠP C
ĠB us
ĠB oy
ĠE at
ĠÐ¸ Ð¼
Ġpr ison
Ġle ague
ĠCon vers
ĠÐ± Ð»
ĠÐ» Ð¸
Ġdis play
ĠYou th
Ġsm art
ĠRo om
ĠÑĨ ÐµÐ½Ð°
ĠBre ak
Ġchall enge
Ġinj ury
Ġrecover ed
Ġclick ing
ĠN TSB
ĠR ub
ĠG M
Ġre place
Ð°ÑĢ Ð¾Ð²
Ð¸Ð½ Ñĥ
ĠSh ould
ĠAd ditional
Ġj obs
ĠÐ¼ ÐµÐ½Ñı
ĠEx press
Ġar row
Ġì Ī
IC K
Ġred uce
ĠIr an
2 00
H ER
b eat
Ð½ Ð¸ÑĨ
Ġp an
Ġp iec
ĠF REE
ay an
Ġg old
ĠTh rough
oun ge
Ġ0 9
ĠÐ· Ð°Ð±
Ġpol itics
ep th
ott e
ĠÐĺÐ· Ð¼ÐµÐ½ÐµÐ½Ð¸Ðµ
be an
Ġfeat ure
A C
