#version: 0.2
Ġ Ð
i n
e r
Ġ t
Ġ a
Ð ¾
o n
Ð °
Ð ¸
e s
Ð µ
o r
h e
e n
a t
Ġ S
Ñ Ĥ
a n
a r
Ð ½
Ñ ģ
i t
a l
Ñ Ģ
Ġ s
Ġ C
Ð¾ Ð
e d
in g
Ġ T
i c
i s
Ġ A
Ġt he
o u
r e
Ġ P
Ġ c
Ġ w
n d
Ġ f
i on
a s
Ġ N
Ġ M
l e
Ġ p
o m
Ġ o
Ð »
Ġ B
Ġ in
Ġ b
Ġt o
Ġ F
en t
â Ģ
Ġ R
i l
Ġ I
Ð º
Ġ W
Ġa nd
Ġo f
Ġ m
Ġ D
e w
e t
Ñ ĥ
Ġ L
o l
Ġ d
Ñ ı
Ġ h
Ġ E
Ġ 2
a m
Ġ H
e l
a c
i d
a d
Ð° Ð
u s
a y
Ñ Į
o w
i g
i v
t s
Ñ ĭ
Ðµ Ð
e c
ew s
Ġt h
er s
Ġ G
o s
u r
o t
at ion
Ġ2 0
Ġ O
i r
t er
Ġ n
ĠN ews
Ñģ ÑĤ
Ġ l
Ġ U
Ġ20 2
r o
Ð¾Ð ²
Ġ on
Ġ J
Ðµ Ð½
Ġf or
t h
Ġ re
es t
Ġ e
i m
c h
Ð ´
Ġ 1
Ġ g
ĠÐ ¿
ĠS t
Ñ ĩ
es s
Ð ²
ĠT he
m ent
Ġ Ñģ
v er
âĢ Ļ
l y
it h
ou r
Ġ âĢ
Ġ r
o p
ĠI n
u t
p or
Ð ¼
o c
a g
c e
u l
ĠÐ ²
u b
Ġ202 5
Ġs t
u n
o d
i a
Ð° ÑĤ
Ġ K
i es
ig h
ĠÐ ¸
Ġ is
Ġ V
u m
Ðµ ÑĢ
at e
iv e
v e
Ð ¿
Ġw ith
i f
Ð¾ ÑĢ
a in
Ð° Ð½
a k
Ġ y
an d
it y
is t
s t
on t
ar y
e ar
ou t
Ñ ħ
Ð ·
ĠÐ ½
c t
Ġb e
e m
Ġ (
à ´
il l
r i
Ġ 3
u p
Ġth at
Ð ±
or e
ĠR e
en d
Ñ Ĩ
ĠÐ º
a p
Ð¸ ÑĤ
h ar
Ð¾Ð »
u d
' s
ĠÐ Ł
al l
l d
a b
o k
Ġw h
e b
r om
Ġa t
ĠT r
Ð° Ð»
as t
Ð¾Ð ¼
Ġa n
Ñ İ
ĠÐ ¾
Ġa s
ic e
i al
Ð¸ Ð¸
l l
Ñ Ħ
Ġ &
. .
i p
Ġ it
e e
f f
Ð¸ Ðº
Ġ he
Ðµ Ð»
Ðµ ÑĤ
ĠT h
por t
Ġp r
er e
Ð¾Ð ³
us t
ar d
Ġc om
ĠP r
Ġ v
Ð° ÑĢ
Ð¾Ð ´
Ġ Y
i o
ion s
o g
Ñ Ī
a il
ec t
igh t
Ġb y
om e
ar t
Ð½ Ñĭ
Ñģ Ðº
Ġ -
u ary
Ð¸ Ñı
id e
ac t
ac k
o ok
0 0
l ic
Ð¾Ð ¹
Ġe x
ĠC h
ĠÐ¿ ÑĢ
ĠJ an
ĠÐ ´
Ġf rom
ou n
Ð ¹
Ð°Ð ²
a v
d u
ÐµÐ ´
an t
ĠS c
h er
Ð¾ Ð½
Ġ 0
k s
Ð¸ Ð½
Ð°Ð ¼
p p
Ð°ÑĤ ÑĮ
Ġp ro
Ġa re
Ñģ Ñı
Ġ Â
e at
Ġ or
in e
q u
ĠÐ ¡
har e
as h
ĠÐ ľ
Ġ ÑĢ
b out
Ð ³
c c
ĠÐ Ĵ
os t
ĠC om
por ts
g e
an s
Ġt r
u re
Ð¸ Ð»
Ġw as
a ve
i re
el l
Ð¾ ÑģÑĤ
Ð¾ ÑĤ
ĠC ont
in d
p l
ĠÐ ł
ĠÐ ŀ
ĠU s
ag e
k et
ĠS h
Ð¾ Ñģ
as s
Ġp l
Ġth is
ÐµÐ ¼
Ġc on
ol l
Ðµ Ðº
Ġa l
ĠâĢ ľ
er v
i k
ĠÐ ļ
ĠÐ½ Ð°
ĠA d
ĠE n
ig n
r a
Ġ ÑĤ
ay s
âĢ Ŀ
Ð¸ Ðµ
r am
Ġy ou
ĠÐ ·
ĠA r
ation s
Ġ Ñĥ
ĠP l
Ġr es
le t
Ġ3 1
ĠI nd
or s
Ñ ī
Ġs a
e x
Ġ k
or m
ing s
ĠC l
Ġc r
Ġd e
ĠH e
at ed
Ð° Ñı
Ð ¶
en s
i e
ĠC r
Ð° Ðº
Ġ "
âĢ ĭ
r ou
ĠO n
ĠJan uary
Ġc ont
Ġn ot
g et
ic al
ĠÐ ĵ
or d
ub lic
ĠW h
an ce
ĠP ro
Ð°Ð ·
ĠÐ Ŀ
en ce
Ġ j
Ġ le
o b
p t
or y
ĠS p
Ġs h
à µ
Ġh as
Ġa g
Ġ 4
ou s
Ġ |
ĠP ol
i le
ow n
u nd
ĠÐ ¼
o od
p er
Ġa d
Ð¸ Ñģ
ĠC on
ent s
ic s
Ġh ave
Ġ us
e y
ĠA ll
Ġ 5
ÐµÐ ²
it e
o ver
ou ld
ĠA n
Ð¸ Ð¹
o v
Ġsa id
ĠS ports
.. .
or ld
m er
at ch
ri b
or k
i an
ĠS ub
ÐµÐ ¹
ĠE x
Ð° ÑĨ
in ess
oun t
Ðµ Ñģ
r y
am il
g h
um p
ear ch
us iness
ĠP h
u e
Ġs p
ĠL ive
im e
Ġ up
ĠÐ Ķ
a w
Ð¸ ÑĢ
oc k
i z
s c
Ð¸ÑĤ ÑĮ
ĠÐ ³
ic h
on g
f orm
Ð½ Ð¸Ðº
Ġw ill
at es
Ġm ore
b er
al th
ul t
is e
re e
c l
f ter
Ġc h
Ð¾ Ñĩ
ĠM ar
ĠÐ ±
os e
d ay
ĠF eb
ĠD e
Ġof f
as e
a z
ĠâĢ Ķ
ec h
he n
Ð° Ñģ
ak e
v i
a h
ĠF or
ation al
P R
en c
ĠSc he
h ip
th er
am e
ab le
Ġc an
ar e
Ð¾Ð º
ĠU n
ud get
Ġ ,
Ð½ Ð¾
Ġ 8
Ġ 6
ic es
ee k
Ġa ll
d it
Ð¾Ð ±
ĠT o
m un
du le
ĠTr ump
Ġ Ñĩ
Ġ im
Ġs hare
Ġ ÑģÑĤ
i b
et t
on s
Ġy our
Ġh is
ÐµÐ½ ÑĤ
le ct
ĠSche dule
Ġc l
ĠÐ »
ĠTh is
ĠA l
ĠA bout
ol d
ac h
oc al
eat her
or t
ĠA s
p h
Ġcom p
Ġin t
Ġ out
ĠN ew
ĠR ad
Ġwh o
ĠCont act
er m
ĠU S
Ñİ Ð´
ĠB usiness
o y
Ġ202 4
ĠÐ Ľ
in k
Ġpr ice
o in
t ain
Ġw e
Ġ Q
an e
Ġ un
id ent
an k
ĠP ublic
Ġa cc
Ðµ ÑģÑĤ
Ð°Ð ¹
al s
Ð» Ñı
Ġs e
ac y
ĠÂ «
Ġthe ir
ĠL e
on d
Ð½Ñĭ Ðµ
ĠÐ ĺ
ĠÐ Ĺ
r u
Ð¾ÑĢ Ð¼
ĠD on
à ¤
ac e
ĠB udget
ic k
ic t
Â »
ĠÐ ¢
Ġa bout
v est
Ð°Ð ´
c om
ik e
ĠV ide
ic y
ĠS hare
e ed
ĠRad io
ĠE v
ĠÐ Ĳ
Ð¸ Ñĩ
ĠE m
ÑĦ Ð¾ÑĢÐ¼
ment s
od c
p r
a ff
ÑĢ Ð°Ð½
p s
Ñ į
it ies
an c
ĠÐ ¤
he d
Ġn ews
ĠM ed
Ð¸ Ð¼
ĠW orld
2 0
ĠF r
ĠB y
up port
b all
e am
Ġa r
f t
ĠÐ ĳ
is h
e op
an g
is s
or n
ĠPl ay
ĠR es
ÐµÐ½ Ð¸Ñı
g ram
ĠInd ia
Ġ .
Ð¸ Ð·
Ġa fter
ĠC ol
o ve
Ġ '
mun ity
c k
ĠH ome
os s
Ġ ì
ĠU p
r uary
Ġ our
an y
Ð¾Ð ¿
ĠB l
Ġ en
ir st
eop le
ĠC al
ĠNews let
Ð°Ð ¿
Ð° ÑģÑĤ
ĠFeb ruary
s o
Ð¾Ð» ÑĮ
on e
or ies
ĠP odc
Ġ 7
Ġthe y
eb ook
ol og
Ð½ Ð°Ñı
ĠM in
at est
igh ts
ĠâĢ ĵ
Ð¾Ð³ Ð¾
ac ebook
p en
ou nd
Ñĥ ÑĢ
or g
l es
v el
ver t
Ġit s
Ġ +
ĠÐ¾ ÑĤ
ĠM us
Ġ /
ĠW eather
ĠB r
ĠI s
ĠA pp
ĠÐŀ Ð±
Ġb ut
ĠHe alth
ĠÐ² Ñĭ
ĠL ocal
Ð¿ ÑĢ
ĠS earch
ĠM ore
Ġd o
Ġy ear
o ol
Ġa pp
ÐµÐ» ÑĮ
Ġ Ñį
sc rib
al ly
amil io
ĠA ir
m it
ĠI t
ÑĤ Ð¾
ter n
Ð¾ÑģÑĤ Ð¸
n ow
ÑĢ Ñĥ
Ġbe en
Ġs c
Ð¾Ð ¶
ĠC an
Ð» Ð¸
re at
S T
in es
Ġ1 0
ÐµÐ½ Ð¸Ðµ
Ġo ver
Ð°ÑĨ Ð¸Ð¸
ĠÐ¸ Ð½
Ġal so
il d
am p
2 5
Ð Ĳ
el y
ad e
a x
Ġ 9
ĠA nd
Ð°Ð» ÑĮ
mer ic
àµ į
Ġn ew
ĠâĢ ĺ
du c
over n
ĠPol icy
o ot
oll ow
as ts
r ow
iv acy
ver y
Ġd is
ÑĢ Ð°
ĠY our
ĠÐ °
ĠÐ¸ Ð·
Ġ1 9
ĠA meric
Ð ļ
Ġw ere
Ġwh ich
Ð¸ ÑĨ
it al
ĠS ign
Ġre c
ĠÂ ©
ĠÑģ Ð²
a i
Ġm e
Ġ $
w it
ĠAd vert
at er
Ġs erv
an n
Ġe v
ĠF acebook
ĠPr ivacy
ĠÐ¾ Ð±
i ence
ak ing
Ð¾Ñĩ Ð½Ð¸Ðº
et s
Ġp art
ĠEn ter
tain ment
Ġe m
Ġs u
Ð¸ Ð¾Ð½
ĠH ow
ĠQ u
ÐµÐ ³
ĠG u
t on
ur n
Ġh er
ĠB e
ar k
if f
r ess
iv ers
scrib e
ĠÐ £
ers on
ĠPh il
c on
ÑĤ Ð¸
Ð¸ Ð´
f amilio
ĠT V
Ð ¢
Ġp er
ĠS e
er al
t ic
rou nd
p ect
ĠCom munity
ĠY ou
ĠN ow
ÑĤ Ð°
Ð¸ Ñħ
wit ter
C C
il ity
ĠN PR
olog y
Ġp eople
ow er
u es
ct ion
ĠL ist
ĠSh ow
Ð ĺ
us s
I N
ĠL atest
Ð¾Ñģ Ñģ
ĠT op
op y
r it
ĠN ational
cl ud
w ard
od ay
Ġ à´
c er
Ġw ork
Ð¾Ð² Ð°ÑĤÑĮ
Ġint o
ag es
id ay
Ñĥ ÑĤ
Ð ŀ
ĠEnter tainment
ĠI m
Ñĥ Ð´
en g
l and
ĠÐº Ð¾Ð¼
re am
Ġg o
Ð¸Ðº Ð°
Ġf irst
o ard
ex t
B S
ĠPodc asts
Ġon e
ĠW ith
Ġl ike
E R
ĠA cc
B C
es e
E D
ĠN ot
ĠMus ic
Ġ qu
ĠT ech
end ing
form ation
ĠT oday
Ð¾Ð ·
Ñĥ Ñİ
overn ment
Ð Ŀ
t ers
it ed
Ġ0 1
ar n
ĠâĢ ¢
r ight
ĠSub scribe
Ġcr ash
Ð¼ ÐµÐ½ÑĤ
r ic
Ñĥ Ð±
ar s
a us
Ñĥ Ð¶
ĠM on
ion al
w o
Ġp ol
o x
ad el
Ġa b
if ic
as on
r ation
Ð°Ð ³
O R
Ðµ Ñħ
i ew
ĠCl ass
Ġp re
erm s
ĠÐ¿ÑĢ ÐµÐ´
ch ool
ÐµÐ ·
Ġ3 0
Ġh ad
Ġan y
ur es
am es
a u
ĠAdvert ise
d er
ph ia
, âĢĿ
Ġ und
ĠP re
t t
adel phia
Ġj ust
ÑİÐ´ Ð¸
Ġ ÑĦ
ĠW atch
Ð°Ð ±
Ġin d
ĠRe ad
ent er
ÑģÑĤ Ð²
en e
ur ing
ĠE dit
Ġs o
ĠPhil adelphia
ĠWh at
ĠW e
ĠPro gram
l ine
i ed
Ġin clud
ĠC opy
a ir
ire ct
Ð¿ Ð¸Ñģ
Ð ¡
e le
ee p
ĠL if
em ber
ĠMed ia
es ident
ĠÐĽ ÑİÐ´Ð¸
it ics
um b
ĠVide o
1 9
ĠÐĿ Ð¾Ð²
ĠCan ad
Ġo ther
em b
w e
in s
Ġa m
at ing
er ies
it s
ĠFr iday
ul l
ĠC ar
Ġt ime
iv es
ett ing
ail y
ĠR ec
Ð° ÑĪ
ial s
ĠM an
ĠMar ket
ĠIn c
Ġs ec
ĠEm ail
Ġf l
Ġb l
Ġin c
ĠD ay
Ġw ould
Ġwh at
ĠS upport
ers hip
ĠEv ents
at a
Ð¼ÐµÐ½ÑĤ Ð°ÑĢ
B A
vi ew
Ġs ome
ic ket
Ġ Z
Ñı Ð·
enc y
Ð½Ñĭ Ð¹
ĠSt ories
y s
. âĢĿ
Ðº Ð¸
h i
ĠO ur
Ġs ub
ĠSt ate
u al
an ge
ra ft
' t
ĠF l
Ġs he
ĠNewslet ter
Ð¸Ñģ ÑĮ
ĠÐł Ð¾ÑģÑģ
F L
Ñģ Ðµ
Ñĭ Ðµ
m in
a j
Ð¾Ð»ÑĮ Ð·
en n
ĠÐĵ Ð»
ĠO ff
o ad
ĠT erms
Ġt wo
ist ory
Ñı Ð½
Ñĥ Ñĩ
Ð¾ÑĤ Ð¾ÑĢ
Ð¸ Ð²
ou gh
Ð¼ÐµÐ½ÑĤÐ°ÑĢ Ð¸Ð¸
ĠD el
Ġ X
Ġre g
ĠA g
A T
ĠList en
ĠÐ· Ð°Ð¿
ÐµÑĢ Ð½
at ive
Ġw hen
c es
Ġa ct
ĠM y
I V
Ġn ow
i x
Ġ â
ĠC he
ĠÐŁ ÑĢ
ĠPol itics
Ġc ould
Ġim p
i el
m an
Ġin vest
ĠT witter
Ġh igh
rou gh
Ġ ro
oc ks
Ðº Ð°
ĠÐ ķ
Ġm in
Ġre m
our n
r al
Ð°Ð ¶
Ñĭ Ñħ
Ġth ere
Ð°Ð» Ð¸
ĠS k
Ġth an
Ð°ÑĤ ÐµÐ»ÑĮ
u c
Ġm on
ĠA m
ir m
ĠÑģ Ð¾
ĠIn st
ĠÐ¸Ð½ ÑĦÐ¾ÑĢÐ¼
ĠD is
ult ure
ĠO p
ĠÐ¿ Ð¾Ð´
Ġhe l
Ġpro v
oot ball
Ġm ed
ĠÐº Ð¾ÑĤÐ¾ÑĢ
Ð¾Ð» Ð¸ÑĤ
O N
Ġle ad
ĠPh ot
ĠF ollow
ĠÐ½ Ðµ
Ð´ Ð°
u g
Ġpl ay
ĠUp d
Ġm ar
im es
ĠV iew
f ul
n ect
iv ing
ec ial
Ġb r
Ġm ay
A R
ur r
ap p
Ġat t
op e
Ġv s
ĠN o
Ġk now
Ð½ Ð¾Ð³Ð¾
l is
iv er
ĠF in
Ġd ec
ĠE duc
1 8
ĠT eam
ĠS oc
end s
ĠS erv
Ġcont ent
à´ ¿
ĠIn vest
ĠA I
ĠN H
e p
i er
Ġpl ane
ĠS ou
Ġag ain
or th
E S
at or
ĠG et
Ġag o
ap er
Ġcon s
le ase
ĠÑģÐ² ÑıÐ·
ĠE con
Ġn o
is m
Ġthe m
, "
i um
ÐµÐ½ Ð´
u th
g y
ĠAmeric an
Ġb ack
ĠEcon om
in n
ÑģÑĤ Ð¾ÑĩÐ½Ð¸Ðº
Ġst r
Ñĩ Ð°ÑģÑĤ
ic ks
Ġb ec
ĠÐ §
ĠE lect
Ġtr ans
f er
Ġa ir
y le
Ġh ow
Ñı ÑĤ
ĠRe g
ĠEduc ation
ĠCom p
as ed
ĠÐ» ÑİÐ´
Ð¾Ð» Ð¾Ð³
ÑĢÐ°Ð½ Ð¸ÑĨ
od e
Ġre port
Ġe ff
O M
ĠD r
ous e
Ð¸ ÑģÑĤ
it ion
ĠSub mit
ag ram
ĠW eek
is ion
n oun
Ġw eek
Ġad d
Ñĥ Ð»
vel op
Ġyear s
et y
f ore
our s
ĠM e
ĠÑĤ ÐµÑħ
ĠIn s
al e
o h
as y
Ġa c
Ġserv ices
in a
Ġf in
n ess
A N
Ġt eam
Ð°Ð· Ð°ÑĤÑĮ
ĠB ut
. "
Ñİ ÑĤ
in t
Ð¾Ð»Ð¸ÑĤ Ð¸ÐºÐ°
e ver
ĠP M
Ġsh ow
om en
erv ed
ĠÐ·Ð°Ð¿ Ð¸ÑģÑĮ
ĠVide os
aus e
rib ut
j ect
ĠÐ¿ Ð¾
ĠCopy right
Ġs ign
ed eral
Ġas s
0 4
ĠÐ´ Ð»Ñı
av el
w n
) ,
Ġn eed
Ġg et
ĠB est
Ð¾ Ðµ
5 0
Ñģ Ð¿
Ġund er
ĠN FL
pl oy
Ġm an
ot her
os ts
Ġre l
ĠÐŁ Ð¾Ð»Ð¸ÑĤÐ¸ÐºÐ°
ĠEn g
Ġhel p
Ð½ Ð¾Ð»Ð¾Ð³
ĠC BS
Ġg r
Ð² Ð°ÑĢ
ĠS he
Ġon ly
ash ing
ĠC o
at ur
ĠCanad a
Ġre ad
Ġst ate
Ġb et
Ġres p
Ñģ Ð»
E N
w ay
re ad
le y
Ð¸ÑĤ Ðµ
Ġs ays
ĠRe port
e g
ĠÑĤÐµÑħ Ð½Ð¾Ð»Ð¾Ð³
Ġ if
Ð½Ð¾ Ðµ
ĠS m
Ġh ere
I C
Ġ2 4
an ts
Ġc all
ĠA t
Ġex per
Ġre t
b r
ĠD aily
ĠPr ess
ÑĢ Ð°ÑĤ
ÑģÐº Ð¾Ð¹
ĠNewslet ters
ÐµÑģ Ñģ
Ġm y
h ic
Ġto p
ĠF rom
ĠO f
3 0
ec ut
Ð ľ
Ð¾Ð² Ð°Ð½
Ġin ter
ĠPr esident
el s
U T
ĠD own
ĠO r
ot h
n ology
Ġl aw
es ts
ÐµÐ ¿
er t
ul ar
ĠS chool
ĠC ount
at t
as es
aff ic
al d
r on
ĠL ink
ak es
ĠH ol
ivers ity
Ñģ ÑĥÐ¶
ĠÐ¿ÑĢ Ð¾
ĠH igh
ot t
ĠF ootball
end ar
00 0
an a
ĠC are
le ge
oin t
ĠÑĤÐµÑħÐ½Ð¾Ð»Ð¾Ð³ Ð¸Ð¸
al k
ĠM en
Ġe very
Ġwh ere
Ð¿ÑĢ Ð°Ð²
ĠO pen
ub e
Ġcont in
Ġc o
ĠSou th
ĠF CC
IV E
E W
ĠBl ack
p art
Ġl ook
ill ion
C A
Ġth rough
Ġwh ile
ĠS ec
Ġde f
ist ration
ĠP ar
Ġt ar
l ob
erson al
es p
er y
iel d
ir on
ir es
1 0
Ġp ass
ĠSc ience
Ġ ÑıÐ½
Ġ1 2
ĠÑģÑĤ Ð°ÑĤÑĮ
Ġg overnment
Ġs upport
Ġth ese
ord ing
y st
rou p
ĠÐŀÐ± ÑģÑĥÐ¶
ĠG o
ant asy
re en
Ġd own
il it
Ġm ost
Ġd ay
t y
ĠÐº Ð¾Ð½
ĠG r
Ġ :
ĠR el
ĠAs s
at h
is ter
Ð½Ñĭ Ñħ
n es
ens e
Ġin st
ĠH istory
v ers
ĠÐ· Ð°
Ġs m
Ġ ...
ĠÐ² Ð¾Ð¹
ed it
end er
Ġst art
ÑģÐº Ð°Ñı
Ġcon f
Ġoff ic
ĠDel hi
g o
ĠÑģ Ð°Ð¹
ĠSt aff
and s
ĠIn tern
Ġis s
Ġ1 1
ĠD o
20 25
is ing
ĠL IVE
l ed
v iron
ar m
ÐµÐ ¶
it t
et h
I T
ĠCal endar
ÐµÐ» Ð¾Ð²
ĠÐļ Ð¾Ð¼
Ġinclud ing
ĠCon nect
iss ion
ĠN BA
id er
ig ital
ĠEdit or
ĠRe p
ĠF ile
Ġw ell
le g
ĠS ur
ur ity
Ð¸ ÑĦ
ĠÐŁ Ð¾Ð´
ÑģÐº Ð¸Ð¹
ro ad
ĠC ap
T he
ĠD ec
ÑĢÑĥ Ð·
Ð¸ Ð³
Ġb u
Ð¸Ð» ÑĮ
ĠJ az
ĠI N
in ce
Ġagain st
ĠÑıÐ½ Ð²Ð°ÑĢ
Ġin s
ĠB as
est yle
l ing
Ġc ount
ĠM L
am s
Ġg u
a f
Ġ1 5
ĠSp ons
at s
ĠL og
ĠÐĿÐ¾Ð² Ð¾ÑģÑĤÐ¸
ĠÑıÐ½Ð²Ð°ÑĢ Ñı
im s
ĠÑĩ ÐµÐ»Ð¾Ð²
Ġh ome
in ion
Ġc ap
ĠCr ash
viron ment
os p
ĠTr ans
ĠA fter
Ðº Ñĥ
eb s
ĠF antasy
Ġr ights
Ð Ķ
ĠÐ¡ ÑĤ
ĠÐ± ÑĥÐ´
ĠC har
ĠÑĩÐµÐ»Ð¾Ð² ÐµÐº
Ð¾Ð² Ð¸Ñĩ
Ð¼ Ð¸
ĠNH L
ð Ł
ul es
ur s
ĠÐº Ð°Ðº
ashing ton
if e
Ġbe fore
pt ion
ĠW ashington
` `
v en
Ġf ree
I n
ĠB u
is ts
ĠW est
Ġmar ket
min istration
il m
vi ews
l ines
ĠSt ud
ĠÑĩ ÑĤÐ¾
ĠÑį ÑĤ
ist an
ĠC ity
Ð½ Ð¾ÑģÑĤÐ¸
Ð ł
Ġth ose
ain ing
ĠTr ending
ĠY ork
Ð¸Ð» Ð¸
Ð°ÑĤ ÐµÐ»
ĠClass ical
ĠO ut
ĠU nd
Ġb el
ĠLif estyle
ÑĥÑĩ ÑĪ
Ġs ur
Ġ1 8
lis hed
i ous
ĠÐ ¶
iv id
Ð°Ð² Ð¸ÑĤÑĮ
ÐµÐº ÑĤ
uth or
Ð¾Ð³ Ð»
ĠR uss
Ð°ÑĨ Ð¸Ð¾Ð½
ĠS up
Ġus e
he l
ot e
ĠJaz z
1 4
Ð Ĵ
Ġw orld
ĠÐł ÐµÐº
ĠG old
v ail
y l
ĠCol lege
ul ts
m ed
ĠB etting
Ġin formation
ĠF ire
Ġn ear
Ġex pl
Ġl ast
ket ball
ĠS o
Ġc re
id a
ĠÐľ Ð¸ÑĢ
S S
Ġa round
ĠR o
Ðº ÑĢÐ°
C OM
ard s
ust ry
Ð½ Ð¾Ð¼
Ġhe alth
ib le
ĠInst agram
Ġ8 9
Ġs ee
I A
ec ast
ie f
T V
er gy
Ġd et
ĠO b
0 1
u ch
ĠÐ µ
ent ial
ĠServ ice
Ġbe ing
ĠB ank
ĠÐ¡ Ð¿
ĠA re
Ġin f
Ġ1 4
ĠC ulture
ĠA P
ĠCr icket
Ġ ë
Ð¾Ð´ Ð°
ĠAr tic
Ġd uring
ĠJ ust
Ġres earch
Ġm ake
ĠTh at
ĠÐ»ÑİÐ´ ÐµÐ¹
ÐµÑģÑĤ Ð²
Ġev en
lob al
ĠB oard
yst em
u ck
Ġd r
ĠÐ²Ð¾Ð¹ Ð½Ñĭ
Ð½ Ð°
Ġp ost
ĠSh op
ilit ary
ĠÑĩÐµÐ»Ð¾Ð²ÐµÐº Ð°
t en
Ð¾Ð± Ð°Ð²Ð¸ÑĤÑĮ
es h
Ġcont r
o ts
Ġs ay
ĠÑģÐ°Ð¹ ÑĤÐ°
c uss
Ġd el
Ġ #
oc us
ĠS eries
Ġd id
Ð½ Ð¾Ð²
orn ing
Ġc he
ĠPl ane
à´¿ âĢĭ
/ /
if ied
ourn al
ĠSt ream
Ġd irect
oc i
amil y
ĠDon ate
r oss
it es
ub lished
ĠÐĶ ÐĿ
ĠÐĹ Ð´
ĠÐ¸Ð½ÑĦÐ¾ÑĢÐ¼ Ð°ÑĨÐ¸Ð¸
Ð ķ
Ð¾Ð»ÑĮÐ· Ð¾Ð²
ĠOp inion
ĠW ill
Ġth ree
ĠÑģ Ð¿
g an
E O
om es
ÑĢ Ñĭ
ĠN et
ur ed
ĠÐŁ Ð¾Ðº
ĠÑģÑĤ ÑĢÐ°Ð½Ð¸ÑĨ
Ġp h
Ġ202 3
ib ility
Ġh im
Ġar tic
ec ts
os ed
ĠÐºÐ¾ÑĤÐ¾ÑĢ ÑĭÑħ
ĠN orth
ĠÑģ Ð¿ÑĢÐ°Ð²
Ġt ake
ĠÐ¸ ÑģÑĤÐ¾ÑĩÐ½Ð¸Ðº
Ġd es
ur y
ĠH T
ut e
Ñĥ Ð»Ñı
ĠTr avel
Ġde velop
Ġsh ould
Ġem ail
Ġg row
Ġp ublic
cl us
ĠE l
Ġ à¤
Ð°Ð± Ð¾ÑĤ
i ent
b ack
Ð¾ÑģÑĤ Ð°Ð²
c ul
n a
Ġm any
ĠÐ Ń
Ð° ÐµÑĤ
ĠS w
ĠIn ter
Ġor der
n s
Ġt ech
ĠC enter
ĠA ust
Ġf ollow
ir ed
enc es
ĠOn e
Ð°ÑĤÑĮ ÑģÑı
ĠH er
es ent
ĠÐŀÐ± ÑĢÐ°ÑĤ
Ġ1 6
ĠÐĿ Ð°
Ġmon th
ĠÑģÐ²ÑıÐ· ÑĮ
ĠMen u
ĠT ax
Ð Ł
ain s
ĠÐŀÐ±ÑĢÐ°ÑĤ Ð½Ð°Ñı
ÑĢÑĥÐ· Ð¸ÑĤÑĮ
Ġst ud
Ġf ire
ĠF ood
Ġd on
ĠÐĶÐĿ Ðļ
ĠI f
ĠG ED
Ð¾ÑĩÐ½Ð¸Ðº Ð°
ĠÑģÐ¿ÑĢÐ°Ð² Ð¾ÑĩÐ½Ð¸ÐºÐ°
ĠGED COM
Ñħ Ð¾Ð´
Ð¾Ð²Ð°ÑĤÑĮ ÑģÑı
F S
Ð¾Ð³Ð» Ð°ÑĪ
ar r
ĠP un
our t
Ñī Ð¸Ñħ
Ġad v
ĠC or
is ed
Ġw ant
ĠM ay
we en
Ð½ Ð¾Ð¹
ul s
Ġo wn
ĠP icks
Ġd ays
ele br
hic le
Ġs k
Ġb usiness
ĠPre m
Ġl ong
ĠC ent
: //
ĠÐ¿ ÐµÑĢ
al a
ĠTech nology
urr ent
ĠÐļÐ¾Ð¼ Ð¼ÐµÐ½ÑĤÐ°ÑĢÐ¸Ð¸
Ġe lect
ĠML B
Ġc ol
Ġf ederal
Ð° Ñħ
ĠP et
Ñĥ Ñģ
ĠUs e
ru ct
ĠÐŁÐ¾Ðº Ð°Ð·Ð°ÑĤÑĮ
o or
Ġ ÑĨ
Ġto day
i or
if t
Ð¾Ñģ Ð»
à ¥
Ġ [
ĠF eat
Ð² ÐµÑĤ
ĠÐĵÐ» Ð°Ð²
ĠV al
Ð¿ Ð»
ÑĩÐ°ÑģÑĤ Ð½Ð¸Ðº
ĠRep ublic
ĠIn formation
iff s
v ed
it ical
re t
b le
ĠAn g
m y
ĠH ere
ĠWh y
ĠLink ed
2 4
ĠInd ian
our ces
g est
Ġc har
T S
ĠAd v
ĠPodc ast
el f
ĠRe al
´ ì
ĠG ames
ĠEx pl
l oad
Ġex p
tt ps
u el
ĠS atur
ÐµÐº Ñģ
Ġw ebs
F C
en er
ĠV e
Ġacc ess
Ð¾Ð³Ð»Ð°ÑĪ ÐµÐ½Ð¸Ðµ
ĠP art
Ġb ig
E L
Ġf e
e f
ĠN BC
U S
ĠThe y
Ġd ata
ĠProgram s
Ġ2 3
anc ial
ĠUnd er
ĠV ir
ĠT imes
Ġc ar
ÐµÑĤ Ð¸
id es
ĠSatur day
ĠB re
T h
Ġre ce
ĠÐ±ÑĥÐ´ ÐµÑĤ
ĠEn vironment
vail able
c ed
ĠD irect
ĠAr ts
d s
Ġ20 1
ĠCal if
Ġâ Ĥ
Ġm ade
ĠSt ock
ĠDon ation
Ġ1 7
Ġ2 5
UT C
ĠP ower
c ast
ĠSt ocks
ĠInvest ig
Ð´ Ñĥ
ĠAr t
ĠR ed
ĠH ouse
ĠCount y
iz ed
ward s
ĠA M
Ġ2 2
ĠO ver
Ñ ĳ
ĠF A
Ġh ttps
Ġsec ond
ar am
Ð Ľ
Ð¾ÑĢ Ð¾Ð²
r ain
Ġf und
ĠUn iversity
ĠÐŁÐ¾Ð´ Ð¿Ð¸Ñģ
I S
Ġ end
Ġc oll
er ts
ĠP at
Ðº Ð°Ð·
Ð¾Ð¼ ÐµÐ½Ð´
Ð¾ÑĢ ÑĤ
ĠE st
ÑĨ Ð¸
ÑĥÐ»Ñı ÑĢ
ĠN ext
Ġr ed
ĠMon th
n er
Ġr un
Ġbet ween
Ð» Ð°Ð¼
Ġsu ch
Ġst ory
ĠF irst
ĠAdvertise ment
at ors
om a
id d
he ast
3 1
i am
w ood
ĠM emb
Ġan noun
C H
orn ia
Ð°ÑĤÐµÐ»ÑĮ Ð½ÑĭÐµ
. ,
r est
us h
pr ess
Ð¸Ð½ Ð°
ĠIn f
Ð ĵ
l ish
ĠÐľ Ð¾
Ð¸Ð· Ð½
Ġcomp any
Ġre qu
om in
Ġin v
Ð¾ÑģÑĤ ÑĮ
oin ts
part ment
or ed
ĠM c
ĠW eb
ak istan
ĠÐ½ Ð¾Ð²
ĠB ar
Ġs har
y ing
ĠÐŁÐ¾Ð´Ð¿Ð¸Ñģ Ð°ÑĤÑĮÑģÑı
Ġ1 3
ĠG overnment
er ing
ĠF eed
Ġl ist
ĠSt art
Ġp rom
ĠE T
Ġmed ia
Ġb as
an ies
ĠF M
I D
le ar
Ġb est
ĠTr affic
Ð¾Ð¼ÐµÐ½Ð´ Ð°ÑĤÐµÐ»ÑĮÐ½ÑĭÐµ
Ð¾Ð¿ ÑĥÐ»ÑıÑĢ
Ð´Ð° ÐµÐ¼
dit ions
ĠP ost
Ġc are
Ġk ill
Ġle g
ĠSoc ial
ecut ive
ĠCalif ornia
2 2
à´ ķ
ÑīÐ¸Ñħ ÑģÑı
ĠÐŀÐ±ÑģÑĥÐ¶ Ð´Ð°ÐµÐ¼
A S
um an
ĠS an
w ar
is it
ĠChe ck
ĠA ct
lic k
ĠB ook
hip s
ĠShow s
Ġgo ing
Ðµ Ñĩ
Ġo p
ĠUn ion
ĠFl or
Ġpro f
ĠÐ¸ ÑģÐ¿
ĠP akistan
ĠP R
à´ ¾
per t
l a
Ġ ec
ĠC O
amp a
aj or
ĠÐ ¨
r ed
ĠCl ose
b ook
o es
ÑĨ Ð¸Ð¸
Ġres erved
) .
im ate
ĠG ive
ĠÐ¿ Ð¾Ð»
Ġad ministration
ĠUn ited
Ð°ÑĢ ÑĤ
ĠSp ecial
am er
ĠM ich
Ġret urn
f or
ĠÐłÐ¾ÑģÑģ Ð¸Ð¸
ĠCon s
Ġg ood
ig ation
ĠA f
ĠD et
ĠÑģ Ð°Ð¼
r ap
ĠB ow
ip s
Ġse ason
Ġpro gram
Ðº Ð¾
Ġm ain
Ġst ill
ĠÐ´ ÐµÐ»
ĠM ag
Ġm od
Ġpr ot
Ġex t
ic o
ĠÐŁ ÐµÑĢ
T A
Ġs et
ĠÐºÐ¾Ð¼ Ð¼ÐµÐ½ÑĤÐ°ÑĢÐ¸Ð¸
Ġhe ad
Ġbec ause
Ġo pen
amp ions
od y
ĠD es
ĠO ther
ail s
ÐµÑģ ÑĮ
ĠHe ad
Ġg ame
ĠEv ent
in ks
id s
ĠÐŁ Ð¾Ð¿ÑĥÐ»ÑıÑĢ
ĠFlor ida
Ġa ff
Ġs up
Ġw rit
Ġinc re
h ind
t o
ĠS ee
ĠW hen
Ġdo es
y pt
ic on
ĠPr ice
ol f
Ġr ight
Ð°Ð½ Ð°
Ġex pect
ob s
h a
on om
pt ions
Ġcom munity
U N
p ar
ĠN EW
Ð³ ÑĢ
am a
uls a
Ġm ov
à´ ¨
Ġd iff
ĠK ar
ĠDown load
Ġw ay
c ess
Ð¸ Ñİ
ĠD igital
Ð¸Ðº Ð¸
A L
m e
ur u
ĠD FS
Ð¾Ð² Ð¾Ð¹
ĠR ights
ĠO k
s p
Ġt ax
ĠT H
ÐµÐ³ Ð¾
osp ital
A P
a un
ĠP er
ĠW ed
ate g
y p
Ġ ed
ĠR s
ut ure
Ġwith out
sc ri
Ġk ey
ol ut
Ġst ories
ÑĢÐ° ÑĦ
e es
ĠAr ch
ĠÐĺ Ð·
y n
le x
Ġs ite
Ġs ystem
g in
iz e
ĠGu ide
ĠPhot o
ĠM ov
âĢ Ķ
il es
Ġm uch
as hed
ĠMemb ership
ĠÑģÑĤÐ°ÑĤÑĮ Ð¸
ĠJ oh
ĠP ersonal
ĠD em
ĠB ay
Ġ2 1
ĠPhot os
o an
àµ ģ
Ġs oc
ĠCom m
ort heast
ear s
ene f
ĠL os
ÑĢ Ð°Ð¼
Ġb oth
Ġl ocal
ut es
ĠÑĢ Ð°Ð·
ĠLe ad
p le
u ed
Ġp ower
ĠSk ip
W E
ĠP eople
ĠW omen
Ġb re
age ment
Ġ5 0
ĠWh ite
or ts
ĠLif e
c o
ĠM et
Ð¾Ð² Ð°
ĠH el
ĠÑĢ Ð°Ð±Ð¾ÑĤ
ĠLe g
ers t
ĠAcc ess
ĠSt and
cc ess
Ġac ross
a id
ĠT ar
ĠD av
Ġf ac
th ing
ĠLinked In
' re
ĠAmeric a
ÐµÐ½ Ð¸Ð¹
ĠCal cul
ÑĢ Ð¾
ĠÐ£ ÐºÑĢÐ°
Ġup d
Ġs ince
Ġ2 7
Ġth ink
ĠÐ± Ñĭ
Ġresp ons
Ġh ours
w ork
Ġapp ro
ĠÐºÐ¾Ð½ ÑĦ
ĠÐĵÐ»Ð°Ð² Ð½Ð°Ñı
Ġw eather
ĠM ex
Ð¾Ð²Ð°Ð½ Ð¸Ñı
ĠA b
ĠR ules
ĠPrem ium
a im
Ġp ar
ÐµÐ ±
ĠB ack
ĠÑĢ ÐµÐº
e a
r ict
Ð¸ ÑģÐº
Ġv i
ĠAust ral
ĠW N
ob ile
Ġl ink
he ad
v es
it u
ĠEst ate
ÑĤ Ðµ
L E
Ġ202 2
end ed
ĠVe hicle
er n
ĠF ree
ĠEconom y
il y
S t
un t
ĠAng el
on y
ĠRes ults
Ð± Ð¾ÑĢ
ĠPlay ing
Ð¾ Ñī
aram an
b e
Ġacc ording
ĠS und
Ġl atest
Ġacc ount
ĠÐ¸ÑģÐ¿ Ð¾Ð»ÑĮÐ·
o ices
Ġ ðŁ
Ġf ound
ant a
ĠFin ance
g ed
ect ion
al ys
in o
ot a
Ġ icon
ĠP rom
iv al
ĠInc ome
ĠElect ion
ust om
ĠM orning
du ct
ÑıÑĤ ÑĮ
ĠI d
ith araman
ĠDon ald
or es
2 3
op ter
ĠSpons ors
ĠSt r
ĠR SS
ap pen
Ð» ÐµÐ½Ð¸Ñı
o ff
ĠJ oin
ĠIntern ational
Ġre al
b or
w ays
Ð» Ð°ÑģÑĤ
ĠCont est
ĠS itharaman
ab ad
port un
ĠW WE
ĠÐ¿ Ð¾ÑģÑĤ
ĠÐ¾ Ñģ
Ġsm all
Ġ ide
Ġthe n
Ġn ext
Ġr est
u ally
Ġe ar
ĠM ap
ĠI P
ĠR et
Ġsoc ial
W e
at ter
ĠWh o
id ed
Ġsp e
ĠB ec
and ing
ag ue
ĠUS D
B I
Ġl ar
ĠTh ere
ĠBow l
Ġf our
Ġec onom
w rit
ÑĢ ÐµÐ¼
ĠS en
Ġtr ad
Ġì Ŀ
Ġf ilm
ĠCh ampions
ĠB ig
Ġo b
ĠB eng
A I
ĠÐ¸ Ð»Ð¸
Ġf r
Ġm om
ain ed
Ġcount ry
ĠArtic les
É Ļ
as ter
m ig
it ing
Ð¼ ÐµÐ½
Ġ very
Ġs l
Ġhe lic
Ð°Ð½ Ð¸Ð¸
M A
Ð¸ÑĤ ÑģÑı
Ð½ ÑĤ
om an
ack s
ĠCr ypt
Ð¸ÑĤÑĮ ÑģÑı
h ood
Ð°Ð» Ð¸Ð·
i at
Ġa uthor
Ġto ld
ÐµÐ´ Ð°Ðº
Ð¸ Ð±
ot ential
ĠÐ² ÑģÐµ
ĠP ort
ĠSt e
ÐµÑĢ Ð¾
ÐµÐ² Ð¸Ñĩ
e igh
Ðµ Ðµ
ĠN ortheast
Ñĥ Ð¼
ash ion
ĠW ays
let ter
R I
ĠEm ploy
ĠCol um
Ġo per
Ġper form
ed ict
Ġl ife
ar a
ĠT ele
Ġf ind
Ġv ide
ĠUpd ates
âĢ ĵ
ÑĮ Ðµ
k rain
in c
is on
ĠR ank
ol s
ÑĮ Ñı
ĠDe f
ĠNEW S
Ð´ ÑĢ
ĠSt ory
Ð²ÐµÑĤ ÑģÑĤÐ²
ĠCh r
ĠS ust
ent ion
ly wood
y ear
Ñģ Ð»Ð¸
Ġs om
Ġs chool
ĠF est
ĠÐĴ Ð¾Ð¹
Ġme et
ĠIm ages
Ð°ÑĨ Ð¸Ñı
2 6
ar ies
av ing
ĠBas ketball
Ġ20 0
ÑĨÐ¸ Ð°Ð»ÑĮ
ĠG en
ĠSup er
à ª
er r
ĠCalcul ator
k e
ĠÐ¼ Ð¸ÑĢ
c le
s h
ÑĢ Ð¸ÑĤ
og le
w w
Ġp os
ĠD raft
Ðµ ÑĪ
Ð³ Ð¸
i ans
à´ ¤
au gh
ĠE ast
at her
ĠG roup
ÐµÑĢ Ñĭ
ir l
ĠCare ers
ĠC ook
Ġartic le
r en
Ġf eat
vi ous
ot o
ĠAngel es
ì Ŀ
iv ely
ĠMon ey
Ðº Ð¾Ð²
Ġtar iffs
ĠA ut
oc u
ĠÐłÐµÐº Ð»Ð°Ð¼
ÐµÑĢ ÑĤ
ru g
Ð ¨
ĠT ex
ill s
Ġsa f
Ġc ent
Ġd em
ĠAn noun
Ġ19 9
ĠMe et
Ġ1 00
ra el
ÑĥÐ» ÑĮ
R A
n ing
ĠL ear
ĠW ork
Ġgrow th
ĠOn line
ĠM atch
ĠD C
Ġg reat
à´ ¯
Ġcom ment
ĠAir port
L L
IN G
ĠSt ay
j ab
ĠP ublished
Ġ2 8
1 5
O T
ĠP al
Ġw omen
ĠÐ´ Ð°Ð½
umb ai
ĠEconom ic
W orld
I ON
R E
ĠG lobal
ir d
ag s
Ġm emb
Ġfor m
enc ies
Ġcomp let
o on
th ers
mit t
scri ption
Ġre f
ĠF ound
Ñħ ÑĢÐ°Ð½
Ñı Ñħ
Ġv ia
ĠF ind
Ġm illion
ĠSt ates
Ð¾Ð¼ Ð¾Ñī
ĠApp s
Ð°Ð»ÑĮ Ð½Ð¾Ð³Ð¾
Ġserv ice
Ġexper ience
road cast
im ited
Ġ enter
ess ion
ĠH or
ĠBeng al
ĠS ong
ĠP op
ab ility
ĠCont ests
ĠFor ecast
Ġ8 8
Ġcl ass
at ure
ÐµÐ½ÑĤ Ð°
Ð¸Ð´ ÐµÐ½
Ġh appen
lic ations
Ġare a
ĠWh ile
Ġall ow
Ð» Ð°ÑĤ
ie ve
e er
our ce
ĠK h
Ð¿ÑĢ Ð¾
e v
an i
Ð°Ð» Ð°
ord s
r ing
is k
Ġb udget
ĠDe partment
Ġan other
ĠÐ¤ ÐµÐ´
i ety
ĠM umbai
ĠÑĢ Ð°Ñģ
Ġpol icy
ĠÐ ¥
Ñĭ Ð¹
ĠK V
Ġde ad
Ġqu est
ou d
ĠCr edit
ĠMex ico
p aper
Ġ ÑĪ
Ġhelic opter
ĠU krain
g er
ÑĢ ÐµÐ²
is c
and a
i qu
Ð² Ð°Ð½
ord er
ĠC ities
is es
ĠÑĤ ÐµÑĢ
Ġs im
ĠCh ina
Ġc ook
g ress
Ð¸Ð·Ð½ ÐµÑģ
Ġdiff er
ĠR ock
Ġ2 9
ad es
ĠV ol
h am
Ġse ver
ĠElect ions
Ã ©
Ġ ÑĦÐ¾ÑĢÐ¼
Ġf amily
ch es
ĠR ob
Ġst ar
Ð £
Ġ ent
ĠOff ice
r up
Ð¸ÑĤ ÐµÐ»ÑĮ
o o
os c
ÐµÐ½ ÑĮ
Ġw ind
ĠÐ· Ð½
ÐµÐ´ Ð¸
ĠÐ° Ð½
u ts
ĠD ist
ĠD eep
ÐµÐ½ Ñı
ag o
og n
ÑİÑĤ ÑģÑı
Ġinv ol
n e
on es
Ġe qu
Ġreport ed
Ġre le
Ġw in
ĠF orm
Ġm iss
ÐµÐ½ Ñĭ
ult ip
Ġresp ond
ĠWed nes
Ð½ Ñı
ĠPr int
Ð¸Ñĩ Ðµ
ĠL aw
Ġcomp anies
ĠIs rael
Ð» Ð¾Ð³
à´¾ âĢĭ
ĠÐĴÐ¾Ð¹ ÑĤÐ¸
Ð¾Ð³ ÑĢÐ°ÑĦ
Ġus ed
Ġwebs ite
Ġm us
ip p
ĠReg ional
Ñı Ð¼
ĠRe views
ab or
ĠÑĥ Ð»
ÑģÐ» ÐµÐ´
ĠAss oci
Ð¿ÑĢÐ¾ ÐµÐºÑĤ
r ies
Ġp ick
ĠE ur
ĠWednes day
al t
ĠTh urs
Ġpr esident
ĠÐ ¦
Ġc over
ent ly
Ġd ist
Ð°Ð¼ Ð¸
ĠÐĴ ÐµÐ»
1 1
m a
ĠM od
Ð¾Ð² Ð¾ÑĢ
ĠH is
ĠG reen
eat h
ĠÑĥ ÑģÐ»
ĠT enn
w a
Ġp at
Ġcon cer
D A
Ð ĳ
ĠJ obs
ĠÑģ Ð¾Ð·
un e
Ġconf irm
ĠStud io
Ð¸Ð´ÐµÐ½ ÑĨÐ¸Ð°Ð»ÑĮ
ĠT ulsa
Ġp ur
ĠH aw
Ġ202 1
ĠCent ral
ĠÐºÐ¾Ð½ÑĦ Ð¸Ð´ÐµÐ½ÑĨÐ¸Ð°Ð»ÑĮ
ĠC elebr
ÐµÐ½ Ð½Ð¾
read y
" ,
ÑĤ Ð¾ÑĢ
Ġp op
ĠÐºÐ¾Ð½ÑĦÐ¸Ð´ÐµÐ½ÑĨÐ¸Ð°Ð»ÑĮ Ð½Ð¾ÑģÑĤÐ¸
Ð°Ð» Ð¾Ð³
ĠMin nes
ĠÐ¸ÑģÐ¿Ð¾Ð»ÑĮÐ· Ñĥ
Ġw atch
ĠW ild
Ġm ust
im in
Ġt ri
ÑģÐº Ð¾Ðµ
Ġadd ress
ĠMinnes ota
7 7
ĠB io
Ġ202 0
l er
ĠS U
Ġc lear
ĠRel ated
ĠG as
Ġpr ess
ĠÐ´ Ð¸
ical ly
m on
ĠÐ²Ñĭ Ð±
Ġ Ã
ro p
ĠÐł Ð°Ñģ
Ġp erson
a ur
ĠS C
ÐµÐ½ Ðµ
mer g
Ð¾Ð¼Ð¾Ñī ÑĮ
Ġf act
Ðº Ðµ
ĠH y
Ġn ight
ĠÐĹ Ð°Ðº
ĠÐ¾Ð± Ð»Ð°ÑģÑĤ
í ķ
Ġp ay
ad o
ĠÐ¿ Ð¾ÑģÐ»
at ic
ĠT ri
Ġth ough
ĠÐĹ Ð°Ð³
ĠF ashion
Ġk n
Ġch ild
Ġev ent
it ness
Ġm ove
ĠPro ject
Ð°Ð· Ð°
m ar
ĠC ode
iv en
Ġiss ues
alys is
m p
r ast
Ġs ent
Ġm em
ĠG iving
ĠEx p
Ġc or
ĠÑĤ ÑĢ
Ġcr ashed
3 6
`` ``
ĠA BC
ĠG ood
ĠJ ournal
E C
Ġp otential
iv ate
ĠC ourt
Ġm ilitary
irm ala
ĠSund ay
et er
ĠS har
ĠÐĴÐµÐ» Ð¸Ðº
it ive
ĠC over
Ġm aking
à´ °
ÐµÑĤ Ð°
ĠThurs day
ĠMag az
l ah
ĠAd d
ÐµÑģÑĤ Ð°
ĠS I
Ġm ajor
oc r
ĠÐ² Ð¾
ĠQu ick
ĠAcc ount
Ð½ ÐµÑĢ
Ġsu ccess
ĠComp any
ĠÑģÐ¾Ð· Ð´
p ro
ve y
ultip le
ĠS T
le ment
ĠK L
1 7
Ġtr ade
ĠCr ime
ĠÐĺ ÑģÑĤÐ¾ÑĩÐ½Ð¸Ðº
Ġf ull
ĠMin t
ĠOk lah
Ġp oints
og s
Ð¨ ÐĲ
ĠN irmala
ĠOklah oma
ĠS anta
Ġ0 3
ÑĥÑİ Ñī
Ġmemb ers
b y
ic ago
Ġf ocus
ĠÐ½ Ð°ÑĢ
y a
en ing
ĠAf ric
ĠP lease
ÐµÐ½ Ð°
ĠÐ¡ Ð¨ÐĲ
ĠCl ub
ĠJoh n
Ðµ ÑĨ
ĠM ost
Ġh ost
ĠSt ar
Ġpart ic
ĠÑįÑĤ Ð¾Ð¹
Ġc urrent
Ð² Ð¾Ð¹
Ð°Ð½ Ð¸Ð¹
ĠCh icago
Ġpro duc
0 2
ac es
ĠK now
Ġpl ace
ĠÑĤ Ð°Ðº
n ov
all s
Ġpro cess
ĠÐº Ñĥ
Ġas k
ĠP ass
Ġst ock
à´ Ł
ĠEng land
ĠRank ings
l ight
Ġ Ñħ
ĠA wards
Ġf uture
ĠÐĳ Ð»Ð¾Ð³
Ġw r
ĠÐĵ Ðµ
ÑĥÑĢ ÑģÐµ
am b
ĠInd ustry
n ame
Ġcom ments
Ġfin ancial
ĠHel p
ĠKL CC
eigh bor
Ġt urn
ĠA tt
Ġh istory
ĠT ake
Ġp m
Ġv al
ÑĦ ÐµÑģÑģ
ĠÐ¸Ð½ Ð´
Ġdel iver
Ġkill ed
ĠÐĲ Ð½
in ed
ĠE very
Ġa vailable
ÑĢ Ð°Ð»
Ġre ally
ÐĲ Ð¢
ep end
ent al
us ed
ĠÐ¿ Ð°Ð¼
ĠÑĢ ÐµÐ´Ð°Ðº
ĠÑį ÑĤÐ°
ĠTex as
ĠR oad
ÑĥÑĤ ÑĮ
ĠS y
ĠÐľ Ñĭ
ĠCom ment
ĠÐķ ÑģÐ»Ð¸
ĠDec ember
S eek
b ox
Ġp oss
ĠRe view
Ð¸ÑĢ Ð¾Ð²Ð°ÑĤÑĮÑģÑı
ĠSec urity
ĠÑĢÐ°Ð±Ð¾ÑĤ Ñĭ
ĠIn t
ĠEn ergy
Ñī ÐµÑģÑĤÐ²
ĠBengal uru
ĠS a
Ġc ase
Ġl ot
ĠÐ½Ð° ÑħÐ¾Ð´
ĠÐĶ Ð¾Ð±Ð°Ð²Ð¸ÑĤÑĮ
Ġì ł
ê °
ar ter
ĠÑĥ ÑĩÐ°ÑģÑĤÐ½Ð¸Ðº
ÑĥÐ»ÑĮ ÑĤ
ĠÐ½ Ð°Ð¶
ĠÐ¼ Ð°ÑĤ
Ġim port
iv ed
Ð¼ Ð¸ÑĤÐµ
if y
ĠM ad
Ð¾ÑĢÐ¾Ð² ÑĮÐµ
w are
op s
ak ers
Ġpl an
ÐµÐ¼ Ð¿
Ġal ong
c raft
ĠA c
ĠM obile
il le
Ġn ational
ĠÐº Ð½
Ð°Ð¹ ÑĤÐ¸
Ġar t
E M
Ñı ÑĤÐ¸
ĠÐ¸ Ñģ
ud e
ens ive
ĠSm all
ĠÑĥÐ» ÑĥÑĩÑĪ
Ġe ach
ĠEur ope
Ġ est
Ġf acebook
Ð¾ÑĤ Ð²ÐµÑĤÑģÑĤÐ²
Ġag ree
re w
ĠJust ice
ĠEmploy ment
Ġs ect
eth ing
Ġp ut
Ġsh ort
ĠEdit ion
Ð½ Ð¾Ñģ
ĠÐ² Ð¾Ð·
ÑģÐº Ð¾Ð³Ð¾
ĠÐ²Ñĭ Ð³
ĠÐºÐ¾Ð¼ Ð¿
ĠS il
ect ed
Ġ0 4
ĠÑĥ ÐºÐ°Ð·
a el
Ð°Ð² ÐµÑĢ
I t
ĠL oan
Ġfor mer
ĠMar ch
d ds
ĠS ing
ĠM ot
Ġ2 6
ce pt
Ð°Ð½ Ð½ÑĭÐµ
ĠÑģÐ¾ Ð¾ÑĤÐ²ÐµÑĤÑģÑĤÐ²
Ġf ive
ĠÐ¢ Ð°ÑĢ
CA A
m il
Ð¾ÑĢ Ð¸Ð¸
ĠAm az
ĠHead lines
ÑĦÐµÑģÑģ Ð¸Ð¾Ð½
Ġle ast
ĠÐ³ ÐµÑĢÐ¾
3 9
Ð¾ Ñĥ
ĠÑģÐ¾ ÑħÑĢÐ°Ð½
Ġoffic ials
Ð¸ÑĦ ÑĢ
ĠRuss ian
ĠExpl ore
ĠÐ½Ð°Ð¶ Ð¼Ð¸ÑĤÐµ
Ð¸Ð» Ð°
Ġpol ice
ĠUpd ate
ĠS al
ag ed
ĠCont ent
ĠPro f
it a
Ġle vel
Ð¿Ð» Ð¾Ð¼
l ast
ĠL ine
ĠCon cer
ĠServ ices
t il
Ġn um
Ġcl os
t a
ĠS ch
ud ge
ĠDeep Seek
Ġind ustry
g es
ĠN CAA
ĠÐĹÐ´ Ð¾ÑĢÐ¾Ð²ÑĮÐµ
Ð¸ÑģÐº Ð¸
Ð»Ð°ÑĤ ÑĦÐ¾ÑĢÐ¼
ic i
l i
ĠÐ´Ð¸ Ð¿Ð»Ð¾Ð¼
ĠÑĥÑĩÐ°ÑģÑĤÐ½Ð¸Ðº Ð¾Ð²
Ġ ident
Ġs eries
ĠJ u
Ð¸Ð½ Ð³
ĠÐ¤ Ðĺ
ÑģÐ»ÐµÐ´ Ð¾Ð²Ð°Ð½Ð¸Ñı
ĠS u
ÑĥÐ± ÐµÑĢÐ½
idd le
Ð°ÑĤÐµÐ» ÐµÐ¹
2 9
E T
ĠW ar
ĠDe v
Ð¾Ð»ÑĮÐ·Ð¾Ð² Ð°ÑĤÐµÐ»ÑĮ
Ġc er
ĠM er
ell ig
vel t
o ice
Ñĭ Ð½
ĠÑģ Ð¾Ð³Ð»Ð°ÑĪÐµÐ½Ð¸Ðµ
ĠApp lications
Ġem ploy
ĠÐ¸Ð½ÑĦÐ¾ÑĢÐ¼ Ð°ÑĨÐ¸Ð¾Ð½
ĠÐĴÐµÐ»Ð¸Ðº Ð¾Ð¹
v ron
Ġa ction
Ð½ ÑĥÑİ
Ġm akes
ĠG olf
Ð± Ð¾Ð»
ĠRes erved
ĠÐłÐ¾ÑģÑģ Ð¸Ð¹
ĠÐ¿Ð°Ð¼ ÑıÑĤÑĮ
w ord
Ġs ame
ĠI con
Ñĥ Ð³Ð¸
Ġk eep
Ð¿Ð¸Ñģ Ð¾Ðº
ĠÐ¿ÑĢÐ¾ ÑĦÐµÑģÑģÐ¸Ð¾Ð½
er ve
re et
ĠÑĢ ÐµÑģ
Ġcontin ue
ĠPun jab
ruct ure
ĠÑģ ÐµÐ¼
ind ex
Ġle ft
ÑĩÐ°ÑģÑĤ Ð²
ĠEng lish
ĠÑģ Ð¿Ð¸ÑģÐ¾Ðº
or ks
ĠC lick
Ġth reat
Ġe arn
ĠÐŁ Ð¾Ð»ÑĮÐ·Ð¾Ð²Ð°ÑĤÐµÐ»ÑĮ
Ġcom ing
Ġv isit
Ġimp act
ÐµÐ· Ð´
t he
est in
ĠÑģ Ð»
Ð¾Ñģ Ñĭ
ann ed
ĠÐºÐ¾Ð¼ Ñĥ
Ð¸Ð»ÑĮ Ð½ÑĭÐ¹
ĠÐ·Ð½ Ð°Ð½Ð¸Ð¹
f ind
z z
Ð ¤
Ġl ess
ĠÐŁ Ð°Ð¼
port ation
Ð¸ÑĦ Ñĭ
ĠBio World
ĠM al
Ð» Ð°
ĠG e
ĠÐĳ Ð°Ð·Ð°
ĠCol or
Ð¸ÑģÑĤ ÐµÐ¼
ĠÐ¤ÐµÐ´ ÐµÑĢ
5 5
ĠM ic
ĠM ake
Ġp ersonal
ĠÐĺ Ð²Ð°Ð½
Ġl ive
anc es
Ġeff ect
itt le
en ch
Ġw on
ĠCanad ian
ose velt
ĠRuss ia
Ð¸Ð» Ð¸Ð¸
ĠÐĲ Ð»
ĠÑģÐ²ÑıÐ· Ð°Ð½Ð½ÑĭÐµ
Ð¾Ð³ÑĢÐ°ÑĦ Ð¸Ñı
ĠAmaz on
Ġc ity
Ñĭ Ð²
Ġ3 6
ĠÑģÑĤÑĢÐ°Ð½Ð¸ÑĨ Ñĥ
ers ion
Ġl ove
Ġch all
ann el
ĠRo osevelt
ĠI ST
ÐµÑĢ Ð¸ÑĤÐµ
Ġvide o
ĠÐ³ÐµÑĢÐ¾ ÐµÐ²
ĠO ct
Ġn on
Ġprov ide
ĠÐ ¯
ĠMed ic
ĠÐĹÐ°Ðº Ð°Ð·Ð°ÑĤÑĮ
ĠÐŁÐ¾Ð»ÑĮÐ·Ð¾Ð²Ð°ÑĤÐµÐ»ÑĮ ÑģÐºÐ¾Ðµ
A M
ĠÐ¾ÑĤ Ð½Ð¾Ñģ
ater ials
ĠQu ery
ĠÑĥÑģÐ» ÑĥÐ³Ð¸
Ð°Ð»Ð¾Ð³ Ð°
st r
ĠÐĿ Ð°Ð¹ÑĤÐ¸
ÐµÐºÑģ Ð°ÑĨÐ¸Ð¸
ĠÐ¸ÑģÐ¿Ð¾Ð»ÑĮÐ·Ñĥ ÐµÐ¼
ĠÑģÐ¾Ð·Ð´ Ð°Ð»Ð¸
O W
c hel
ĠC N
ĠÑģ Ð¸ÑģÑĤÐµÐ¼
ÐµÑĢ Ð¶
Ġv ict
ÑĢÐ°Ð½Ð¸ÑĨ Ñĭ
Ġeff orts
ĠÐĹÐ´ ÐµÑģÑĮ
ĠÐºÐ½ Ð¾Ð¿
ÑĩÐ°ÑģÑĤÐ² Ð¾Ð²Ð°ÑĤÑĮ
Ġc ost
cuss ion
ĠÐ¿Ð¾ÑģÑĤ ÐµÐ¿
ĠÐ¢Ð°ÑĢ Ð¸ÑĦÑĭ
ĠS af
ĠÐŁ Ð¾Ð¼Ð¾ÑīÑĮ
Ġrec ord
Ġsec urity
ĠâĤ ¹
ĠT im
ĠD an
id ents
Ġch ange
Ġsever al
ĠÐ¸Ñģ ÑģÐ»ÐµÐ´Ð¾Ð²Ð°Ð½Ð¸Ñı
ĠÐºÐ½Ð¾Ð¿ ÐºÑĥ
P aper
s w
ÑģÑĤ Ð°Ð½
ro ph
Ġg round
ĠÐ¿ Ð¾Ð»ÑĮÐ·Ð¾Ð²
Ġfollow ing
ĠÑģÐ¾ÑħÑĢÐ°Ð½ Ð¸ÑĤÑĮ
ÑĤ ÐµÑģÑĤ
ĠC oll
ĠG ame
Ġg roup
ĠSe ason
ĠÐĵÐµ Ð¾Ð³ÑĢÐ°ÑĦÐ¸Ñı
ĠÐ¸Ð½Ð´ ÐµÐºÑģÐ°ÑĨÐ¸Ð¸
or ing
ĠM iss
om ing
ĠE d
Ġst and
Ġ6 0
Ġ19 14
ĠÐ¸ÑģÑĤÐ¾ÑĩÐ½Ð¸Ðº Ð¾Ð²
ĠÑĤÐµÑĢ ÑĢÐ¸ÑĤ
ĠÐ¿Ð¾ÑģÑĤÐµÐ¿ ÐµÐ½Ð½Ð¾
e al
up s
ÑĪ Ð¸ÑĦÑĢ
her oes
Ġor gan
ra w
ĠDe velop
Ð¾Ð¶ Ð°Ð»
ĠÐŁÐµÑĢ Ð²Ð¾Ð¹
ĠÑĥÐ»ÑĥÑĩÑĪ ÐµÐ½Ð¸Ñı
ĠÑģÐ¾Ð¾ÑĤÐ²ÐµÑĤÑģÑĤÐ² ÑĥÑİÑī
ĠÐ¿ÑĢÐ¾ÑĦÐµÑģÑģÐ¸Ð¾Ð½ Ð°Ð»ÑĮÐ½Ð¾Ð³Ð¾
ĠÐ¾ÑĤÐ½Ð¾Ñģ Ð¸ÑĤÑģÑı
ÑĪÐ¸ÑĦÑĢ Ð¾Ð²Ð°ÑĤÑĮ
O P
ĠP a
Ġcom e
ĠÐ¤ Ð°Ð¼
Ġnews letter
ĠÑĦ Ð°Ð¼
ĠÐ´Ð°Ð½ Ð½Ð°Ñı
ĠR ate
Ġg ed
ĠRe ports
ĠÐľ ÐµÑģÑĤÐ°
ĠÐł ÑĥÐ±
ĠÐŀ Ðļ
ex pert
ĠÐ£ ÑĩÐ°ÑģÑĤÐ²Ð¾Ð²Ð°ÑĤÑĮ
ĠÐ»ÑİÐ´ ÑıÑħ
ĠÐ¡ÑĤ ÑĢÐ°Ð½Ð¸ÑĨÑĭ
ĠÐľÐ¸ÑĢ Ð¾Ð²Ð¾Ð¹
ÑĢÐµÐ² Ð¾
ĠÐĹÐ°Ð³ ÑĢÑĥÐ·Ð¸ÑĤÑĮ
g war
g ospital
ĠF amilio
Ġd na
Ġl and
Ġj et
ĠÐĶ ÑĢÐµÐ²Ð¾
ock ey
ĠÐ³ ÐµÐ½Ðµ
ove k
19 18
ÐµÑĢÐ½ ÐµÑĤ
ĠÐ·Ð°Ð¿Ð¸ÑģÑĮ Ñİ
ÐĶ Ð¾Ð±Ð°Ð²Ð¸ÑĤÑĮ
ĠÐ¡Ð¿ Ð¸ÑģÐºÐ¸
ĠÑģÑĤÑĢÐ°Ð½Ð¸ÑĨ Ñĭ
ĠÐ´ÐµÐ» Ð¸ÑĤÑĮÑģÑı
ĠÑĦÐ¾ÑĢÐ¼ Ð¸ÑĢÐ¾Ð²Ð°ÑĤÑĮÑģÑı
ĠÐ²ÑĭÐ± ÐµÑĢÐ¸ÑĤÐµ
ĠÐłÐ°Ñģ ÑĪÐ¸ÑĦÑĢÐ¾Ð²Ð°ÑĤÑĮ
ĠÐºÑĥ ÐºÐ¸
ĠÐ²ÑĭÐ³ ÑĢÑĥÐ·Ð¸ÑĤÑĮ
ĠÑĥÐºÐ°Ð· Ð°Ð½Ð°
last name
ĠÐ¤Ðĺ Ðŀ
index ing
ĠÐŁÐ°Ð¼ ÑıÑĤÐ¸
chel ovek
ĠÐ¸ÑģÑģÐ»ÐµÐ´Ð¾Ð²Ð°Ð½Ð¸Ñı Ð¼Ð¸
ĠÑģÐ¾Ð¾ÑĤÐ²ÐµÑĤÑģÑĤÐ²ÑĥÑİÑī ÑĥÑİ
ĠÐ¤Ð°Ð¼ Ð¸Ð»Ð¸Ð¸
ĠÑĦÐ°Ð¼ Ð¸Ð»ÑĮÐ½ÑĭÐ¹
Ġged com
ĠÐ³ÐµÐ½Ðµ Ð°Ð»Ð¾Ð³Ð°
t ion
Ġst ocks
ĠÐĵ Ð¾Ð³
ĠÐ¿Ð¾Ð´ Ð¿Ð¸Ñģ
Ġr a
ĠPlay er
ĠC hen
Ñī Ð¸Ðµ
al ity
ou ts
Ġh old
Ġch ang
ĠLe ague
Ġen ergy
p ly
Ð¾Ð± Ñī
ines e
Ð¶ ÐµÑĢ
en a
ĠS n
ow s
Ġth ings
Ġmon ey
1 2
ĠM all
ĠG all
Ġg ames
out ube
ĠCon ditions
Ð Ĺ
ĠÐ¾ÑĤ Ð½Ð¾
Ġsu g
ĠWeek ly
ÑĥÑĩÑĪ Ð¸Ðµ
ĠDav id
ellig ence
z e
il ities
c ent
Ġw ater
qu ir
ĠB el
ĠÑģ Ð±Ð¾ÑĢ
if ts
ĠÐ¿ÑĢ Ð¸Ð¼
Ġtr affic
ĠÑĦ ÐµÐ²
ÐĲÐ¢ Ð
Ġex ecutive
Ġmed ical
o e
o f
ĠS un
ĠC y
Ġto ok
Ð°ÑĢÑĤ Ð½ÐµÑĢ
enef its
Ġf ri
Ġin j
ĠF ederal
ur ther
Ġoff er
ĠÐŃ Ðº
ĠU N
Ġed uc
d ers
ĠD ata
Ð¶ Ðµ
ĠÐ³ ÑĥÐ±ÐµÑĢÐ½
ĠAustral ia
ÑģÑĤ Ð°Ð²
Ð°ÑĢ Ð¸Ñı
Ðľ Ð¾Ð´
V ID
ĠO N
ell ing
fer ence
ĠÑĢÐµÐ´Ð°Ðº ÑĨÐ¸Ð¸
ĠRe le
ÐµÑĢÐ½ ÑĥÑĤÑĮ
mig ration
n ai
ĠS l
Ġp oint
Ġd ate
Ġh uman
Ġro ad
ĠHor osc
l ess
ĠH ar
ĠÐ°Ð½ Ð°Ð»Ð¸Ð·
ÑĢ Ð¸ÐºÐ¸
Ġin tern
ĠR E
Ġus ing
Ġev ents
ĠColum ns
ĠUpd ated
ĠGo ogle
Ġt witter
ĠT ime
Ġl og
Ð´ ÐµÐ½Ð¸Ðµ
ĠHow ever
ĠÐ¾Ñģ Ð½Ð¾Ð²
Ġ *
dit ion
ĠMagaz ine
ĠÐ° Ð²
Ġadd ed
Ġst ream
Ġoff ice
1 3
L D
Ġs us
Ġm atch
ĠPro p
Ġind ivid
Ġbet ter
Ġco ach
Ġbu ild
for ce
Ġh on
av or
clus ive
ĠÐºÐ¾Ð¼Ð¿ Ð°Ð½Ð¸Ð¸
Ñģ Ñĭ
ĠÐ¿ÑĢÐµÐ´ Ð¾ÑģÑĤÐ°Ð²
Ġact iv
Ġa head
Ġg ot
ĠÐ¿Ð¾Ð»ÑĮÐ·Ð¾Ð² Ð°ÑĤÐµÐ»ÐµÐ¹
b oard
ĠR em
Ġpr esent
ÐµÐ¼Ð¿ Ð¸Ð¾Ð½
ÐµÑĢÐ½ÑĥÑĤÑĮ ÑģÑı
g ender
h y
Ġp ast
ĠÐ½Ð°ÑĢ Ð¾Ð´Ð°
ĠÐłÑĥÐ± ÑĢÐ¸ÐºÐ¸
Ġre view
ak en
Ð¾Ñĩ ÑĤ
Â» .
Ġstate ment
ĠR oy
ĠAs ia
l ock
Ġp osts
ĠÑģ Ð¾ÑģÑĤÐ°Ð²
Ð¸Ð· Ð°ÑĨÐ¸Ð¸
Ġsom ething
2 7
Ġt em
ig in
ĠAr my
mer c
I P
Ġf ew
Ġh omes
ak h
ett y
ĠBre aking
p ing
u ff
ĠÂ °
Ġsign ific
ĠÐ¨ Ð¾Ñĥ
Ġh and
Ð± Ð¸Ð·Ð½ÐµÑģ
ĠEx per
ĠTenn is
2 8
O S
U R
ĠTh ings
Ð¾Ð½ Ð¾Ð¼
ĠÐ¡ Ð²
A D
Ñ Ĭ
ĠR an
ĠTh ese
ĠChen nai
T ube
ut y
Ġde p
ĠÐ³ÑĥÐ±ÐµÑĢÐ½ Ð¸Ñı
Ġ ve
Ġcom mun
f l
ĠA pr
ĠM ilitary
Ġapp ear
Ġc ame
ĠB h
Ġm en
ob er
ĠAnnoun ce
ĠÑĤÐµÑĢÑĢÐ¸ÑĤ Ð¾ÑĢÐ¸Ð¸
ĠChr ist
L C
ĸ ¼
Ġt aking
ĠT ampa
ĠP ark
ĠÐ´ Ð¾
Ġcons ider
ĠNet work
ÐµÑģ ÐµÐ½
Ġsp ecial
ĠIN D
ret ary
in em
Ġ4 0
ĠÐķ Ð²
portun ities
ap e
Ġal ways
ĠÐĿÐ¾Ð² ÑĭÐµ
Ġmus ic
eighbor hood
1 6
Ġf ar
ĠM ah
S U
ĠCh inese
ov t
row s
ivid end
f ield
ve al
og rap
ÑģÐº Ð¸Ðµ
ĠÑģÑĤÐ°ÑĤÑĮ Ðµ
ag an
ĠCh ief
Ð¸Ð½ ÑĦÐ¾ÑĢÐ¼
Ġfund ing
Ġ ens
ĠM ain
Ġre ports
ĠYou Tube
ĠVal ley
3 4
ther n
ĠÐĲ ÑĢ
Ð°ÑĤÐµÐ» ÑıÐ¼
ÑĢÐ°Ð¼ Ð¿
ĠBec ome
ĠC M
ĠB o
Ġd eb
Ġpr edict
àµ Ĩ
ĠT ik
ur al
ĠAl erts
ĠBook s
ĠAccess ibility
O G
ok e
Ġinst agram
Ð½ÑĤ ÐµÑĢÐ½ÐµÑĤ
Ð»Ð°ÑĤÑĦÐ¾ÑĢÐ¼ Ð°
Ġ i
Ġf ield
Ġre pr
ĠÐº ÑĢ
ĠY ear
lis ts
j i
Ġl ater
ĠSp e
3 5
as k
ĠF und
Ġn ever
ĠÑģ ÐµÑĤÐ¸
lect ion
ĠÐ¿ÑĢÐµÐ´ Ð¿
Ġimp ro
ĠColor ado
ĠÐ°Ð½Ð°Ð»Ð¸Ð· Ð°
merc ial
d own
m ing
ĠM ember
Ð» ÐµÐ½
Ġex c
Ġa ut
Ġs ix
ĠD E
ĠMed ical
ĠAdv is
Ġf ight
à´ Ĥ
ĠSub scription
ĠAdvert ising
Ġs ports
Ġm et
un g
ĠÐ» ÐµÐ½ÑĤÐ°
ĠS im
ĠSt ats
à´ ±
ĠÐľ ÐµÐ´Ð¸
ĠÐŁÐ¾Ð¿ÑĥÐ»ÑıÑĢ Ð½Ð¾Ðµ
ĠÐ¿ÑĢÐ¸Ð¼ ÐµÐ½Ñı
3 7
iz ation
Ġcrash es
ĠUnder writ
T ok
c hed
ĠL ight
Ð² ÐµÑģÑĤ
oy s
Ġdis c
Ġnum ber
ĠÐ¸Ð½ÑĦÐ¾ÑĢÐ¼Ð°ÑĨÐ¸Ð¾Ð½ Ð½Ð¾Ð¼
ĠÐ¿ÑĢÐ¸Ð¼ÐµÐ½Ñı ÑİÑĤÑģÑı
m ber
Ġ @
Ġto o
Ġg ener
ĠSp ot
ĠÑĢÐµÐº Ð¾Ð¼ÐµÐ½Ð´Ð°ÑĤÐµÐ»ÑĮÐ½ÑĭÐµ
ĠÑĢÐµÑģ ÑĥÑĢÑģÐµ
ĠN ear
ĠL inks
Ġl ik
ĠÐŁ Ð°ÑĢÑĤÐ½ÐµÑĢ
Ġv ar
EN T
Ġbel ow
t ing
ĠÐŁ Ð¾Ð¶Ð°Ð»
Ġrec ogn
ĠSoc cer
Ġdiffer ent
ĠÐ¾Ð±Ð»Ð°ÑģÑĤ Ð¸
Ð°Ð³ Ð¾
ĠUkrain e
Ġc aus
Ð» Ð°Ð´
ĠF O
ro om
ri or
ĠÐĽ ÑĥÑĩÑĪÐ¸Ðµ
ĠAir lines
Ġmonth s
0 6
a it
s on
Ġf ood
ĠW X
Ġb oard
ĠF ri
ĠCh ange
ĠPlay lists
ĠÑģÐµÐ¼ ÑĮÑı
ĠA uthor
Ġw he
ĠM ill
ĠSt ations
ĠAn n
ÐµÐ½Ð¸Ñı Ð¼
ĠMich ael
e um
i ance
ĠH ockey
ĠU K
ĠÐĶ ÐµÑĤÐ¸
ĠÐ¢ ÑĢÐ°Ð¼Ð¿
ÑĥÐ» Ð¸Ð½
ĠFeat ures
ĠTik Tok
ĠAcc ording
ĠH am
Ġg en
eb all
Ġrece ive
Ġmom ent
ĠD en
ig er
ĠÐĴ ÐµÑĢÐ½ÑĥÑĤÑĮÑģÑı
Ð¾ÑĤ Ð¾
ĠCon f
ĠBr and
Ġam ong
Ġh it
Ð½Ñĭ Ð¼
ĠÐŀ Ð¿ÑĢ
Ġcl ose
ove mber
ĠÐŀÐ±ÑģÑĥÐ¶Ð´Ð°ÐµÐ¼ ÑĭÐµ
ocu ment
r es
w h
ĠK n
Ġoffic ial
Ð°ÑĨÐ¸Ð¾Ð½ Ð½ÑĭÐµ
' :
4 1
e ad
n ey
ĠE th
Ġì Ĩ
icket s
ĠÐ½Ð°ÑħÐ¾Ð´ Ñı
ĠF BI
ĠQu est
uc ks
Ġvi ews
O L
ĠÐļ ÑĥÐ»Ð¸Ð½
E X
id el
Ġtar get
ĠÐłÐ¾ÑģÑģÐ¸Ð¹ ÑģÐºÐ¾Ð¹
ĠOct ober
ĠÐ¾ÑģÐ½Ð¾Ð² Ðµ
Ġcont ribut
Ġbr ing
ĠÐľÐ¾ Ñı
Ġexpect ed
ĠÐ¤ÐµÐ´ÐµÑĢ Ð°ÑĨÐ¸Ð¸
ĠÐ½Ð°ÑħÐ¾Ð´Ñı ÑīÐ¸ÑħÑģÑı
ĠW in
ĠH om
Ġpro p
ĠÐľ ÐµÑģÑģ
ĠÑį ÑĤÐ¾
ĠDirect ory
Ġt yp
ĠT om
Ñĭ Ð´Ñĥ
Ġhe ar
ĠRele ases
g ers
Ġc al
Ġst op
Ġsc ene
ĠSk y
ĠÐ¾ÑĤÐ½Ð¾ ÑģÑı
ĠìĨ Į
ĠÐļÑĥÐ»Ð¸Ð½ Ð°ÑĢÐ¸Ñı
l ist
ĠT ips
Ð¾Ð´ Ð°ÑĤÐµÐ»ÑıÐ¼
ĠÑģÐ² ÐµÐ´
ĠÐ¿ÑĢÐµÐ´Ð¿ Ð¾ÑĩÑĤ
Ġl ine
Ġon line
oc ation
ri ef
Ġinter est
ĠÑģÐ¿ Ð°Ð¼
ĠÐłÐµÐºÐ»Ð°Ð¼ Ð¾Ð´Ð°ÑĤÐµÐ»ÑıÐ¼
ĠW ell
ĠJ os
ĠÐ½ Ð°Ð²ÐµÑĢ
ĠÐ¿ÑĢ Ð°Ð²
ĠÑģÐ±Ð¾ÑĢ Ð°
ĠÐľÐµÐ´Ð¸ Ð°Ð¿
th let
ĠPol ice
ĠIm p
ĠÐĳÐ»Ð¾Ð³ ÐµÑĢÑĭ
Ġsignific ant
g r
ĠA ug
ĠÐľ Ð¢
ĠDe p
ÐµÐ½Ð´ Ð¶ÐµÑĢ
ĠÐŀÐ±ÑģÑĥÐ¶Ð´Ð°ÐµÐ¼ Ð¾Ðµ
i ate
Ġal ready
Ðĺ Ð½ÑĤÐµÑĢÐ½ÐµÑĤ
ĠÐĵÐ» Ð°Ñģ
ĠÐŀÐ±ÑģÑĥÐ¶ Ð´ÐµÐ½Ð¸Ðµ
ê° ľ
ĠÐ¿ÑĢÐµÐ´Ð¾ÑģÑĤÐ°Ð² Ð»ÐµÐ½Ð¸Ñı
ĠÐŁÐ°ÑĢÑĤÐ½ÐµÑĢ Ð°Ð¼
¤ ë
ĠE EO
Ð°ÑĤ Ð¸Ð·Ð°ÑĨÐ¸Ð¸
ĠV i
ĠIs s
ĠÐłÐµÐº Ð¾Ð¼ÐµÐ½Ð´Ð°ÑĤÐµÐ»ÑĮÐ½ÑĭÐµ
ĠÐ¿Ð¾Ð´Ð¿Ð¸Ñģ Ñĩ
ĠÐľÐµÑģÑģ ÐµÐ½Ð´Ð¶ÐµÑĢ
ĠÐ¿ÑĢÐµÐ´Ð¿Ð¾ÑĩÑĤ ÐµÐ½Ð¸ÑıÐ¼
r ol
ĠN ation
à´ ®
ĠÐ¡ Ð¾Ð³Ð»Ð°ÑĪÐµÐ½Ð¸Ðµ
Ð¢ ÐµÑģÐµÐ½
ĠÐĵÐ» Ð°Ð³Ð¾
ĠÐ§ ÐĲÐ¢Ð
esp ite
ĠÐľÐ¸ÑĢ Ð¢ÐµÑģÐµÐ½
àµģ âĢĭ
ĠÑģÐ¸ÑģÑĤÐµÐ¼ Ð°ÑĤÐ¸Ð·Ð°ÑĨÐ¸Ð¸
Ð¸Ð½ÑĦÐ¾ÑĢÐ¼ Ð°ÑĨÐ¸Ð¾Ð½Ð½ÑĭÐµ
ĠÐŁÐ¾Ð¶Ð°Ð» Ð¾Ð²Ð°ÑĤÑĮÑģÑı
ĠÐŀÐ¿ÑĢ Ð¾ÑģÑĭ
ĠÐ¾ÑĤÐ½Ð¾ÑģÑı ÑīÐ¸ÑħÑģÑı
ĠÑģÐ²ÐµÐ´ ÐµÐ½Ð¸Ð¹
ĠÐľÐµÐ´Ð¸Ð°Ð¿ Ð»Ð°ÑĤÑĦÐ¾ÑĢÐ¼Ð°
ĠÐĵÐ»Ð°Ð³Ð¾ L
ĠÐ§ÐĲÐ¢Ð «
f ire
Ġo ld
ĠÐ¿ÑĢÐµÐ´ ÑĭÐ´Ñĥ
0 5
at ory
ĠNews w
Ġen g
ĠHorosc ope
Ð¸ÑĤ ÐµÐ»
Ġwork ing
Ġs w
ĠM att
Ġm ight
Ġn av
Ġl oss
pl ace
ĠMin ister
ĠTeam s
ĠCor por
Ġfe el
ÑīÐµÑģÑĤÐ² Ð¾
ĠÐ½Ð°Ð²ÐµÑĢ Ñħ
Ð¸ ÑĪ
ĠL I
ur t
an ia
ĠF ocus
ous ing
m ission
Ġb ased
app y
ĠÐ¿ÑĢÐµÐ´ÑĭÐ´Ñĥ ÑīÐ¸Ðµ
ĠC amer
ÑĩÐ°ÑģÑĤÐ½Ð¸Ðº Ð¸
Ð½ Ð¾ÑģÑĤÑĮ
Ñĥ Ð¿
ain t
ĠÐ£ ÑĩÐ°ÑģÑĤÐ½Ð¸ÐºÐ¸
Ġë §
Ġimport ant
ī ´ì
Ġf un
Ġb o
ĠI r
id ing
ak er
ĠClass ified
ĠWhat s
ĠSong book
¤ë ī´ì
Ġë§ ¤ëī´ì
Ġë§¤ëī´ì ĸ¼
Ġ )
at form
du ction
vi ation
ic ies
ĠN ovember
Ġin it
ak s
Ġrespons e
ĠApr il
um er
ĠÑĦÐµÐ² ÑĢÐ°Ð»
s u
Ð¾ ÑĪ
it ut
Ġs earch
ĠM ess
ĠR est
Ã ³
ĠCover age
Ġb ook
id ence
ĠÐ² Ñģ
Ġj ournal
ble m
ĠJ e
Ġfor ecast
à¤ ¾
epend ent
4 4
Ġd igital
Ġle arn
Ġdid n
Ġm ultiple
ac ed
ot es
Ġcon st
Ġbas ketball
Ġinf l
Ġdevelop ment
ĠMedic ine
roph y
Ġpol itical
Ġatt ack
ĠFA Q
ĠAut o
' ve
es tern
ac ts
az a
n ers
ĠB roadcast
ĠF ilm
Ġst aff
ÐµÑĢ Ð¸
ĠIs land
ĠÐŀÐ± ÑīÐµÑģÑĤÐ²Ð¾
c are
ĠP ay
ĠJ im
Ġv iew
Ġsp ec
Ġun til
Ð¾Ð»ÑĮ ÑĪ
ĠDem ocr
ud io
Ġl aun
Ġb ank
Ġwh y
ĠÐ¾ Ð¿
ĠTh om
Ġse en
ĠAre a
I M
ĠH ind
ĠVol unt
at ely
ĠR ight
ĠE ar
ir th
pt im
Ġstr ong
Ġ el
Ġm id
oun c
Ġinvest ig
ĠEditor ial
ĠB ill
Ġm ember
Ġ- -
ĠRes ources
ound s
ÐµÐ¶ Ð¸Ðµ
ĠGen eral
ĠA D
ĠF amily
ĠTr ust
Ð¸ÑĢ Ð¾Ð²
ĠStream ing
ĠL ou
ĠH all
pl ay
Ġj oin
Ġlar ge
ĠSust aining
t r
ĠS ab
ÑĢ Ð¾Ð¿
ĠC ard
ic ated
ĠK el
Ġk ind
Ġcont act
com ing
ĠBe hind
Ġannoun ced
3 8
ĠS it
Ġeconom ic
ĠR ana
Ġwith in
Ġab ove
Ġb us
ĠL ove
Ġa way
ĠT alk
ĠP ac
Ð´ ÐµÐ»
Ġcon nect
Ġs ol
ĠC re
Ġc ases
ĠE ag
Ġg lobal
ĠV ersion
ĠStream s
ĠFA A
Ð° ÑİÑĤ
ĠA lex
ĠIn quir
Ð½ ÐµÐ¹
ĠA ff
ĠMus eum
Ġche ck
Ġw inn
ĠSe pt
ĠÐľÐ¾ ÑģÐº
merg ency
al f
ĠB ro
ĠF ox
ĠL LC
Ġag encies
Ð¸Ð´ Ðµ
Ġund erst
Ġcall ed
t ime
ĠT rophy
Ġo thers
Ġm ess
ĠÑį Ðº
ĠÐ¡Ð² ÐµÐ¶Ð¸Ðµ
ĠG ard
Ġal leg
Ð»Ñı ÐµÑĤ
ĠBar b
ĠKh an
i ers
at us
Ġde al
ĠUS A
ven ue
5 9
ĠS P
ir cle
ĠÑĢ Ð¾ÑģÑģ
ident ial
ĠMan agement
ĠÑģÐ¾ Ð¾Ð±Ñī
rast ructure
ĠT ags
Ġf urther
om b
ĠO h
ĠThe ir
ist ry
Ġinclud e
ul f
ost on
Ġo pp
ĠB et
Ġre lease
em ap
Ġpr ices
Ġcom es
ĠCook ie
Ġinvol ved
U L
it le
ĠC ON
ĠB oston
Ġme an
ĠLog in
ĠSit emap
4 0
Ġ esp
ĠT able
ĠB ox
Ġth ird
ÐµÑĢ Ð±
ene z
ĠL A
Ð°Ð½ Ð¸Ðµ
ĠÐĴ ÑģÐµ
iam i
idel ines
t ra
ĠF re
Ġpr act
ĠÃ Ĺ
g round
v ille
ĥ ģ
Ġp age
ĠÐ¾ Ð½
oun g
av es
Th is
c ri
Ġc ustom
ĠM aterials
ĠM iami
Ġp lease
dit ional
umb le
Ġfl ight
itu aries
u f
ÑĢ Ð¾Ñģ
ĠC urrent
Ġd ue
Ġd aily
Ġlook ing
ĠTrans portation
Ġdes ign
ĠCrypt o
P T
b ur
ÑĢ Ð¾Ð²
ĠL et
ĠOb ituaries
Ġleg al
y e
Ġc elebr
ĠM ur
ĠD ig
os ter
Ġst ress
Ġcom pl
Ġtr avel
B E
Ġde v
az e
Ġsaf ety
9 9
ĠM il
ĠN av
Ġm ark
j ects
l in
al es
Ġ20 19
ĠDe ad
ann ing
Ġfin al
Ġb rows
Ġn ame
à´ ¸
Ġstud ents
Ġf amil
Ð» Ñİ
ĠSur vey
ĠH ear
ĠInvestig ations
ĠÐ½ Ð°Ð´
Ġag ency
l am
Ñĥ Ð½
Ġbe hind
Ġpr os
ĠÐĵ Ð¾Ð´
ĠÐ¼ Ð¾Ð¶
ampa ign
' m
ĠT e
ĠA vailable
Ġc ourt
oun ts
Ġacc used
ĠÐŁÐ¾Ð¿ÑĥÐ»ÑıÑĢ Ð½ÑĭÐµ
ĠS ome
ĠP ages
ĠD uring
ĠÐŀ ÑĤ
yl ind
Ġcare er
ĠPr ime
Ġro le
ĠÑĦÐµÐ²ÑĢÐ°Ð» Ñı
v ing
z er
Ġn et
Ġpr es
atur al
ĠArtic le
ĠStand ings
Ð° Ñĩ
ÑĤ Ñĭ
re g
ĠD ie
ac c
por ter
ĠÐĴ Ð¡
ra z
der abad
Ġshow s
Ġdet ails
ĠÐ£ÐºÑĢÐ° Ð¸Ð½
ounc il
v ent
il ar
Ñĥ Ñī
Ġg irl
act ion
ĠÂ »
Ġs en
Ð³ Ð¾
ÐµÐ¼ Ñĥ
pect ion
P M
ic a
Ġp ublished
Ð» Ð°Ð²
Ġrec over
ÑĥÐ± Ð»
ĠFin ancial
ĠTH E
ĠHy derabad
W F
it ute
ĠC EO
ĠM a
ĠIn j
ĠÐļ ÑĥÑĢ
ĠHol lywood
Ġquest ion
Ġwind ow
ĠM ary
Ð» Ð¾
Ġr isk
ĠCom ments
ĠMar k
Ġim med
ĠClassified s
id ays
os es
ri pp
Ð¾Ð± Ñĭ
Ġupd ates
Ġposs ible
2 1
ĠG l
ru ction
ĠÐ½Ð¾Ð² Ð¾ÑģÑĤÐ¸
ĠÐ¾ Ð´
ĠCh ild
Ġear ly
t i
ĠB ang
Ġg ender
ars h
enez uel
it ions
Ġf ootball
ĠN ight
ac ing
ĠG TA
ro id
ul ation
ĠÂ ·
ĠFor t
inem a
ed y
ĠW ater
ĠCh annel
ĠBu y
Ġwhe ther
5 4
el t
Ġre b
ount ain
ĠOff ic
N A
Ġt erm
ar ed
ĠÐ¿ Ð¾ÑĢ
ĠEx ams
Ð¸ Ð¿
ĠG ifts
Ġt est
ĠT our
ĠP an
ĠB ol
ĠSp ok
Ġrec ent
ĠJu ly
b ed
ĠD ate
Ġor ders
ĠBr own
Ġinvest igation
V ER
ol k
um e
ap s
Ġcre w
ĠNewsw ires
8 0
ĠS H
ĠH ub
ĠSept ember
ĠÐľÐ¾ÑģÐº Ð²
C E
Ñ ĸ
ĠW rit
ĠÐ¿ Ð¾Ðº
em s
ĠAn alysis
Ġmin utes
Ġë °
ĠAug ust
ĠM A
ro vers
ett ers
ang u
clus ion
ad a
ĠK ap
Ð°Ñģ ÑĮ
ecial ly
Ġcontin ues
Ġkn own
it er
ĠNot ice
Ġqu arter
ĠFeat ured
is is
Ġto get
am ed
am ing
ĠO l
Ġl ittle
ĠAl ert
ific ial
Ġdirect or
ĠFeed s
ĠÐ¿Ð¾Ð» ÑĥÑĩ
olut ion
u ction
ĠW ord
ain er
Ġpr ivate
Ġpro blem
ĠApp le
ÑĢÑĥ Ð³
Ġbu y
Ġartic les
d ing
Ġhe ld
anc ed
Ġtoget her
i ents
Ñĥ ÑĪ
Ġy et
Ġincre ase
à´ ª
ĠC art
ĠE nd
orn ey
Ġrem ains
Ġf re
ĠD ays
ĠÑģ Ðº
Ð¼ ÐµÑĢ
ĠÐļ Ð°Ðº
ĠAfric a
ĠAdvis ory
ĠI T
ĠI ll
we et
Ġbec ome
4 5
l ier
q t
v o
om m
ĠF ull
ur ance
ir ing
ÑģÐº Ð¾Ð¼
ĠÐĲ Ð²
Ġmeet ing
ĠSt ep
ĠV enezuel
ÑģÐº Ð¸Ñħ
ov ed
Ã Ń
Ð ¯
Ġs ex
ĠE N
ĠSp ring
Ġen h
Ġam id
ĠET F
Ġchall eng
c ome
ĠH our
ro it
Ġtr ack
Ġcomp et
ê ³
as ing
Ġh ard
ĠJ une
ud i
Ġan n
ÐµÑĢÐ¸ Ð°Ð»
Ġ ur
Ġt alk
ĠA ri
ĠW y
Ġd eath
ad ing
ÐµÐ´ Ð½
Ġ0 2
Ġpro ject
Ġt reat
ve als
Ð¸Ðº Ð¾Ð²
ĠCl imate
Ġcall s
Ġlik ely
Ð¸Ð´Ðµ Ð¾
on a
at i
Ġd am
Ġg l
ĠPr ices
ĠRes p
ric ulture
ĠIP L
ĠP enn
ĠB ets
Ġexpl os
ĠMov ies
err or
C RI
ĠÐ ĸ
Ġt imes
ĠM om
Ġh ouse
ĠNews paper
Ð°Ð½ Ð´
Ġres ources
Ð°Ñģ Ñģ
Ġqu ick
Ġpass eng
ÐµÐ¼Ð¿Ð¸Ð¾Ð½ Ð°ÑĤ
Ġë° ı
O C
¸ ì
ĠB en
Ñĥ Ñħ
ĠL ong
iv il
ĠAssoci ated
ĠÑĢ ÑĭÐ½
ĠMarket s
read s
ĠDes k
S E
W atch
i et
ĠSt ation
Ġ5 5
Ġ9 0
Ġpre vious
Ġtech nology
ĠAnnounce ments
n ot
ag ing
ĠSh ort
ib r
ÑģÑĤÐ°Ð½ Ð¾Ð²
3 3
A pp
m ost
Ð¸ Ð½Ñĭ
Ġl ed
ÑĢÑĥ Ð¿
Ġfeat ures
ĠLou is
Ġc reat
Ġm ater
ĠL ook
op es
à´ ²
ry ing
Ġdis cuss
ĠSU BS
ĠSil ver
Ã³ n
N ews
ad u
ĠG ar
Ġneed s
ĠMov ie
Ġo cc
Ġb illion
ĠG ram
ang ers
Ġass ist
ĠPop ular
ĠSUBS CRI
ou b
ain ts
ĠÐ¿ÑĢ Ð¸
ĠSh ah
ĠÑĥ ÐµÐ·Ð´
Ġwebs ites
iqu e
B O
P G
Ð §
Ġre p
Ġr ad
Ð°Ð½ Ð¸Ñı
ĠÐ» ÐµÑĤ
ĠBarb ara
at al
ĠÐ² ÑĢÐµÐ¼
ĠVir al
ĠDet roit
ĠLead ership
ĠC anc
ĠL u
Ġr out
Ġab le
ĠCount ry
Ġshar ed
ĠFest ival
ĠW ind
ĠH D
ĠH ot
Ð¾Ð»ÑĮ ÐºÐ¾
6 2
ĠC ustom
ĠÑĥ Ð´
cl aim
ĠTo ols
ĠEditor ials
ĠâĤ ¬
ĠSaf ety
ÑĤ Ð°Ðº
ĠV ict
ĠSc ores
ĠGu idelines
fer ences
Ġshar es
uf act
Ġ Ñı
Ġt aken
ÑĢ ÐµÑĤ
Ġs old
ĠN Y
ĠF ar
ĠW estern
Ð¼ Ð¾ÑĤ
Ġsus p
ĠS am
ĠSec retary
ĠÑģÐ°Ð¼ Ð¾Ð»
ĠSUBSCRI BE
6 0
Ġ outs
ar i
ar ks
ÑĢ Ð°Ð´
Ġp erm
Ġof ten
ĠO F
Ġl ight
ĠSt ore
ag er
ĠTr ade
Ð°Ð» Ð¾
ĠÐĴ Ñĭ
Ġpl atform
ĠFollow ing
Ġchild ren
ia b
ÑĥÐ»ÑĮÑĤ ÑĥÑĢ
C O
ad esh
Ġcl aim
Ġar rest
ĠÐ¾Ð± ÑĬ
olut ions
ĠConcer t
Ġesp ecially
Ġs ing
ĠA k
Ġw ent
Ġw ild
ĠK ey
Ġpl ans
Ð°Ð¹ Ð´
Ġstart ed
augh ter
ĠS on
ĠS ale
ĠL etters
Ġd ed
ĠÐļ Ð¾Ð½
Ġiss ued
Ġcap ital
ĠPer form
I ES
y an
ĠS end
Ġf avor
Ġp rior
Ġm ass
iv als
Ġre ason
íķ Ļ
K S
ĠT R
Ġh aving
Ġimp lement
Ġtech n
Ġproduc ts
ĠÐĲÐ» ÐµÐºÑģ
Ġt e
ĠG aza
Ġst e
Ġper cent
Ġdec ision
Ġstr eng
Ġcap t
Ġrun s
nov ation
ĠInquir y
p is
Ġt ell
ĠS um
re m
Ġin box
ĠH osts
ÑĥÑĤ Ð±Ð¾Ð»
ĠSoc iety
ĠDist rict
n ership
ĠC as
Ġw ar
ĠB and
Ġ20 18
ĠU t
ĠRe qu
ect ions
ĠRel ations
£ ¼
ĺ ìĿ
ĠP it
un ch
Ġar r
Ġì £¼
ST P
ĠState ment
Ġdoes n
c he
ŀ Ĳ
in ing
Ġres pect
Ð°Ñı Ð²
ĠIns pection
ĠMod i
u als
it ic
Ðº ÑĤ
Ġfor ward
ab ly
Ġbl ock
ĠInvest ing
Ġmater ial
b l
ļ ©
ĠS ac
Ġpart ner
ĠTop ics
ĺ íķĻ
le an
ast e
ĠCont ribut
ĠÐļ ÑĥÐ±
Ġpart y
ful ly
ĠSponsors hips
Ã ±
ĠG etty
ÑģÐº Ð°Ð·
air s
Ġsect or
ĠJos h
j oy
à «
Ġt ea
ĠM MA
ĠÐ· Ð°ÑıÐ²
ĠK R
ĠPun e
Ġmem o
5 6
l or
ĠW ay
Ð¾Ð» Ð¶
get s
Ġsome one
Ġcoll ision
ĠFeed back
v ision
Ð¸ Ð¶
an ks
ic ation
à´ ļ
ĠÑģÐ² Ð¾
OR E
ĠÐ¼Ð°ÑĤ Ñĩ
ord in
Ð½Ð¸Ðº Ð¾Ð²
3 2
ÑĤ ÑĮ
ate gy
ach i
´ì Ħ
Ġpartic ular
ĠWhats App
ĠC up
re c
ĠB ob
am ent
Ġcr ore
led ge
4 7
ĠM art
ĠBe ach
ĠMarket ing
ĠDr ive
Ġrepr esent
E ST
Ġt akes
ĠS ite
Ġw arn
ĠV oices
ian a
ĠNH PR
ĠLeg al
Ð¾Ð½Ð¾Ð¼ Ð¸ÐºÐ°
ĠS port
Ð¼ Ð¾Ð¶
Ġcr itical
Ġsp ending
ĠHol idays
Ġcontr ol
ĠWN BA
Ġsug gest
ĠRoy al
ĠVolunt eer
P h
ĠÐ² Ð¾Ð»
Ġst ay
um ors
Ð°ÑĢ ÑĮ
ĠAd ministration
Ġsh op
ĠFor um
Ġcontr oll
Ġemploy ees
ripp s
N F
m ark
r oll
Ġ enc
ĠS ell
ou st
ĠF ore
ĠH uman
ĠBas eball
Ġelect ric
ĠWy oming
h old
Ġs um
Ġs eek
il ot
ĠW i
ĠU FC
Ġre com
ĠWh ere
Ġteam s
ĠInvestig ates
Ġwrit ten
Ġvi ol
Ġp oll
ĠD ube
Ġl ow
Ġ0 7
Ġcon ditions
ĠÑĤ ÑĥÑĢ
ĠArch ives
p m
ĠH arsh
ĠInf o
ĠLear n
mitt ed
a ult
g u
o op
ĠS ar
ĠH omes
Ġg ive
Ġr ate
ĠV isit
ĠCom pl
ĠÑģÑĤ ÑĢÐ°Ð½
ĠPlay ers
Ġtop ics
ĠT ext
ĠM iddle
ac ter
ÐµÑĢ Ñģ
ours e
Ġcoll abor
b ased
ĠT el
ĠA y
Ġc enter
ĠO per
ĠSports book
ĠAnd roid
Ġplay ers
Ġeduc ation
ĠKap oor
Ð½ Ðµ
ĠN ov
ent ing
ĠJ ames
ch ieve
à´ µ
ĠSc ripps
rou ps
urr ency
Ġide a
Ġfri ends
r ia
Ġp ort
à¤ °
ribut ion
ĠÐ²Ð¾ ÐµÐ½
Ġsen ior
ĠC ow
re ase
Ġp ush
Ġb rief
ĠO ld
Ġe ver
v al
Ð¸ ÐµÐ²
ĠC inema
ĠW el
ist or
l ights
m iss
al y
ĠD ividend
ĠL ond
ĠO ptions
ÐµÐ½ Ð¸Ð¸
ĠÐ¾ ÑĢ
ĠOh io
Ġt erms
ig an
un n
ĠÐ³ Ð¾ÑĢ
u ge
ou ch
ĠL ike
Ġim migration
ĠÑĢÐ¾ÑģÑģ Ð¸Ð¹
Ġrecom m
ĠHarsh it
Ġs ure
ĠM em
ÐµÑĢ Ð°
ĠPl anned
emb ly
Ġspe ech
ĠWX PR
4 6
k y
ĠW H
iv ity
ÑĨ Ð¸Ñı
Ġj udge
Ġinvest ors
ĠChar l
Ġrele ased
Ġg etting
ĠÐ¿ Ð¾ÑĤ
Ġoff ers
ang er
Ð¸ÑģÑĤ ÑĢ
ĠIns ide
Ð°ÐµÑĤ ÑģÑı
à¥ į
Ġappro ach
ĠUnderwrit ing
ĠDie go
t hen
ĠT wo
ĠM ass
ĠI D
5 7
Ġre ach
ĠMon day
Ġreg ister
Ġair craft
Ġman agement
ĠRet urn
ĠLond on
Ġ ess
ĠS eat
Ġf ace
Ġb ill
ĠK ore
Ġex press
ĠRes earch
ĠMin utes
ĠJe ff
n b
s el
ĠW R
ĠL iving
us e
ag n
ĠTr ends
ĠCh oices
ĠÐ¿ÑĢ Ð¸Ð½
Ġpre m
Ġdec l
ĠÐĲÐ½ Ð´ÑĢ
Ġcer tain
4 9
n ews
ĠM ont
ol es
ĠThe at
ĠÐŁ Ð¾
ĠÐļ ÑĢ
Ġres ult
Ġprov ides
B T
¦ Ŀ
ĠB al
ĠE qu
ĠCr oss
ett e
Ġhigh er
Ġprov ided
ĠWi LD
6 22
ĠS ays
ail ed
Ġal erts
ĠÐļ Ð°ÑĢ
per ty
aw ai
pr ise
Ġwork ers
Ġsub scrib
ĠSen ior
Q I
ĠN e
Ġo il
ĠÐ¿ÑĢ Ð¾Ð´
ĠÐ· Ð°Ðº
ĠÐ³ Ð¾Ð´
ĠÐ¿Ð¾ÑģÐ» Ðµ
l ook
o le
Ġf ig
ur ies
ab ilities
ĠAs k
ĠCO VID
G N
g ing
Ġc lick
ĠW as
ĠH as
Ġn ation
ĠTh reat
ĠÐ´ Ð²
```` ````
Ġask ed
ĠO ptim
au g
à¥ Ģ
l aze
Ð ¥
ë ¬
Ġ edit
ĠÐ ®
ĠC ouncil
ans as
ure au
àµ ¼
L A
i ber
Ġf all
Ġf oot
od es
ĠNot es
ĠSm ith
ĠKV NF
ĠJournal ism
4 8
C T
Ġp e
ĠEx pect
iz ing
Ġdo ing
ĠChampions hip
angu age
b ar
h ib
p ts
Th ere
Ġperform ance
Ġdeliver ed
0 8
R e
ĠR angers
Ġm orning
ĠH ours
ian ts
ĠBl og
Ġlead ing
Ġrel ations
rup t
ver age
ĠK ing
act ive
iz es
Ġinc ome
ĠDet ails
wa qt
e as
m es
ĠP ick
Ġf eed
ec ess
Ġn eighborhood
im um
ly mp
and ers
Ð¾Ð» ÐµÐ²
Ġj ob
ÑģÑĤÐ² Ð¾
ĠÐ¡Ð¿ Ð¾ÑĢÑĤ
ĠUt ah
awai waqt
f ires
j a
Ģ ì
el ess
im ed
ĠÐ½Ð° Ñģ
ĠCl os
ĠPro ps
AR T
ĠDE I
ĠBol lywood
u k
Ġs ett
Ġw oman
Ġd oll
oc t
and ed
ee ks
Ġbig gest
ĠHaw k
ĠDan iel
ĠPac ific
en ge
ĠS ol
ac hed
Ð´ Ðµ
Ġv ir
Ġwr ote
ĠAri z
C S
c a
ĠT ay
Ġin form
Ġth ing
Ġcom b
ĠInd ependent
ĠCon go
Ġcre ate
Ġprogram s
ĠCN N
ĠÐŃÐº Ð¾Ð½Ð¾Ð¼Ð¸ÐºÐ°
a ims
c rib
Ġf ans
Ġp ain
ĠCh at
ĠÐľ Ð¸Ð½
ĠBl ue
ww w
ĠT own
id en
ĠO dds
ĠJ oe
ĠÐ¾ÑĤ Ðº
ĠÐ¿ÑĢÐµÐ´ Ð»
Ġbl ack
L Y
Ġs y
ĠC all
Ġc ou
ĠL a
Ñİ Ð±
ĠÐ´ ÐµÐ½ÑĮ
Ġ0 5
iz er
ĠLe ave
Ġem ot
Ġpos ition
i os
Â °
ì ł
ĠF iles
ĠK ids
ĠÐ¿ÑĢ Ð¾Ð²
ĠSm art
Ġiss ue
ic ing
Ġb ox
il ed
ur o
ĠO sc
ct ions
Ġv is
ĠSp ace
ĠAl so
Ġwork ed
ĠT w
ĠW r
ĠG overn
Ñĩ Ð°Ñģ
Ġlead ers
Ġcount ries
Ġmod el
ĠFound ation
7 5
ĠA ward
Ñĭ Ð¼
Ġre v
Ġ( @
ill ed
ĠY ah
Ġme ans
hic les
ÐºÑĢÐ° Ð¸Ð½
ĠCons umer
h ing
ĠP aper
as ons
am m
Ð°ÑĢ Ð°
ell ow
ens ion
Ġag ents
ĠMan age
Ġlead ership
ĠDevelop ment
! !
Ġs itu
Ġto t
ĠF ans
ĠÐ¸ Ð³ÑĢ
Ð°Ð¹ ÑĤÐµ
ĠWeek end
Ġinter view
Ġc amer
ĠÐ³ Ð¾Ð´Ð°
Ġun l
ĠC ircle
ĠN E
ĠM O
ĠB C
Ġd eep
ĠDon or
Ġweek end
ĠSpons or
Ġelect ion
Ġintern ational
r ad
in ter
ĠC ost
ĠP ict
Ġc osts
ĠM ORE
ĠD M
ĠL ess
ri ed
act ions
ĠSc ott
Ð°Ð¶ Ð´
Ġcre ated
Ġche vron
ĠKar achi
force ment
7 0
Ġ il
ĠC F
ĠT O
Ġc ulture
Ñĥ Ðº
ad em
ĠRe agan
r or
w ire
ì ĥģ
ar ily
Ġc ivil
ĠM el
Ġm ur
ĠH ousing
ch ange
ist ic
Ġbe gin
Ġhe art
Â» ,
pr int
ĠIs lam
Ġrel ated
ĠÐ² Ð·
em ony
ĠTr ack
ĠEth ics
Ġ à
Ð° Ñİ
en ew
ĠD id
Ġtr ying
ĠUn lock
ĠAmeric ans
Ġrequ ired
ĠPa ul
c el
y ond
ber g
a Ã±
ĠN iger
ĠE M
ĠE U
Ġbe yond
ĠRe lease
ĠY outube
Ġcon vers
ÐµÐ³ Ð¾Ð´
ĠSe ver
Ġbel ieve
ĠArch ive
Ġenter tainment
su it
on ald
ĠP e
Ġf arm
Ġb order
Ġn omin
ĠK P
Ġus ers
Ġdef ense
ĠResp ond
Ġs er
Ð» ÑĮ
ĠL G
ÑģÑĤ ÑĢ
ĠSc ore
Ġsay ing
ĠPort al
Ġcurrent ly
er g
ÑĢ Ð°Ð·
ĠA QI
iv est
um ar
Ġsh ot
Ġ4 9
ĠTele gram
ĠÑģÐ¾ÑģÑĤÐ°Ð² Ð»ÑıÐµÑĤ
ĠMill er
ĠG oma
Ġst ri
Ġst ates
Ð¼ÐµÐ½ ÐµÐ½Ð¸Ðµ
ĠSpot light
ÐµÐ³Ð¾Ð´ Ð½Ñı
b ing
Ġ z
ĠS av
ĠC A
Ġc ampaign
Ġg roups
ĠÑĢÐ°Ñģ ÑģÐºÐ°Ð·
ĠÐĴÐ¡ Ð£
ĠTay lor
ĠS ud
Ġc ut
ĠN or
ĠJ ap
ut ers
av a
Ġor igin
Ġres ults
Ġab oard
ĠAriz ona
at ters
Ġl im
ĠJ a
Ð¾Ð½ Ðµ
Ð¸Ð» ÑģÑı
ĠÐ¤ Ð¾ÑĤÐ¾
ĠCo ast
Ġconfirm ed
Ġimpro ve
ĠN AS
ĠG reat
Ġg overn
ĠÐ¿ Ð°ÑĢ
ÑģÑĤÐ² Ð°
ĠDis claim
Ġbusiness es
Ġprof it
ĠYah oo
ĠA T
Ġl ost
ĠK it
Ġ0 6
ĠAg riculture
ĠDirect or
Ġmain tain
ĠTar iffs
0 3
ed ly
Ġf ires
ĠH ave
ĠH appy
ĠG row
Ð¼ Ðµ
ĠAn other
Ġsp ace
ĠÐŁÑĢ Ð°Ð²
Ġnav igation
Ġfamil ies
b um
Ä ±
ĠS ites
al ks
ĠB R
Ġd rug
ĠÐ½ Ð°Ð·
Ð¾ÑĤ Ð¾Ð²
Ġoff ering
ĠÑĨ ÐµÐ½Ñĭ
ĠPower ed
Ġbre aking
ĠDep th
' ll
W ire
l iam
ĠC ylind
ĠW U
ĠJ r
olog ical
Ġ10 1
Ġexper i
ĠEag les
i od
it iz
ĠA udio
Ġbe g
ĠÐ½Ð° Ñĩ
ĠÐĺ Ð½
ĠMin istry
ĠÐ° ÑĢ
Ġinc ident
ĠPR T
ĠAustral ian
iat ely
Ġindivid uals
ĠTheat re
P C
in i
Ġb ody
ĠD ark
ess ions
if ty
ap t
Ġex clusive
ĠCont in
Ġcont rovers
ific ations
Ġchang es
Ġexplos ion
ĠT amil
as tern
ĠR umble
ĠListen er
mitt ee
ĠLine ups
Ġ let
ĠS et
Ġh ope
ĠH im
Ð¾ÑĢ Ð³
ab y
ĠCon st
Ġen vironment
ĠAss embly
Ġlevel s
ĠCorpor ate
Ġquick ly
er o
ÑĢ Ð¾Ð½
ĠO lymp
ĠK STP
ab s
Ġhe ard
Ġ4 8
ĠÐ¢ ÑĢ
Ġ7 0
ĠCar ol
Ġenh ance
h at
t d
t le
is hed
ĠL ast
ĠH ope
ÐµÐ½ ÐºÐ¾
ĠSh iv
Ñī Ðµ
ĠÐ³ ÑĢ
ĠPlay list
Ġgu ide
Ġens ure
ĠCre ate
ibr ary
liam ent
u ing
Ð¾ Ð½Ñĭ
ĠÐ´ Ð¾Ð¼
Ġstr ateg
ĠCare er
ĠMich igan
ches ter
pis ode
Ġo dds
ĠR w
os ition
Ġg ets
Ġus er
Ġme as
Ġbre ak
portun ity
ĠDef ense
ĠGall eries
Ġ 00
Ġw eeks
ĠR ah
ĠR aj
ĠR oto
Ġl oc
ĠSt reet
IN D
ĠSponsors hip
fl ix
ĠÐ£ÐºÑĢÐ°Ð¸Ð½ Ðµ
P S
Ġg as
Ġr ates
Ġit em
ile y
Ð¾Ð¶ Ð´
Ġquest ions
ic ations
ith er
Ġare as
ĠÐĴ Ð¸Ð´ÐµÐ¾
ĠÑĥ ÐºÑĢÐ°Ð¸Ð½
Ð¾Ð± ÐµÐ´
Ġ7 5
Ġpre par
ĠCelebr ity
ĠIss ues
d en
f ort
ĠS at
ĠP age
Ġw orks
Ġh alf
ast ers
ip es
umb h
Ġcook ies
b and
Ġo ptions
Ñĥ ÐµÑĤ
Ġd ocument
ad y
ÐµÐ½ Ð¸
enc ed
Ġ9 4
Ġpros ecut
id ge
ec raft
amp le
OR TS
rest ling
UN C
ĠForm er
bur gh
5 8
e ase
ĠR iver
Ñĥ Ð·
ĠDes ign
ĠGas c
Ġtem per
s e
or row
re me
Ġc ause
Ġb urn
Ġtr ust
àµ ½
ĠÐ± ÐµÐ·
oot ing
ĠBe fore
ĠDis c
ĠVir gin
Ġprot ected
yl v
Ġannoun ce
nb sp
ĠJap an
ÐµÐ» ÐµÐ½
Ġpro duct
ĠId eas
Ġconcer n
Ġvict ims
ĠDen ver
ÑĤ Ð¾Ð±Ñĭ
ĠM ax
ĠF ace
Ġv ol
ĠMin ecraft
ĠChe vron
Ð¸Ð³ Ð°
Ġph ot
d o
ÑĤ ÑĢ
Ġs now
ĠT ickets
Ġn eg
ly ing
ĠÐĴ Ð°Ñģ
Ġint elligence
AT CH
ÐŁ ÐĽ
Ġcomplet e
ĠDM CA
Ġs ide
Ġb ad
il t
ĠTh ank
Ġsa w
ĠComp anies
EN D
Ġstream ing
Ġw orth
le v
Ġl ower
Ġon ce
ĠK ash
em pt
Ġcr isis
Ġde als
ĠPro duc
Ð¸ÑĢ Ð¾Ð²Ð°Ð½
ĠOp ens
Ġevery thing
Ġnear ly
ĠIP O
k i
it ude
ĠA thlet
ĠF ool
Ñĭ ÑĤ
ĠG ulf
ĠÐ½ Ð°Ð¿
ĠRe v
ĠY ears
ĠPl an
ĠCl ar
ĠAs h
ÐĴ Ðŀ
ĠEurope an
Ġunderst and
i ec
Ð° ÑģÐº
is ions
ĠR ates
Ġre fer
ĠIn v
ĠY es
Ġal most
ÐµÑģ Ð¿
ĠÐĹ Ð°Ð¿
ivers ary
Ġconf lic
Ġsur v
ĠNet flix
Ġ201 7
ĠStand ards
Ġconcer ns
ĠQuick reads
ĠMess ages
Ġchalleng es
r ants
ĠD eb
ter m
ĠÐ¿ Ð»
and er
ans ion
ĠAg ency
ĠJust in
Ġprof ess
Ġhappen ed
ĠÐķÐ² ÑĢÐ¾Ð¿
ĠÐ¼Ð¾Ð¶ ÐµÑĤ
ĠB AN
ĠB iden
Ð°Ðº Ñģ
Ġnot ed
Ġdis app
Ġà´ ¸
ÐµÐ· Ð¸Ð´
ĠRec omm
ĠAg ain
D E
k a
Ġs at
ĠM S
ad ium
Ġan sw
ip l
Ġ4 2
ps on
Ġro om
ĠConnect ed
Ġcontr act
ĠStart ing
ĠPost ed
Ġmess age
ĠPit ts
8 8
ÑĤ Ð¾Ð²
ĠG erm
Ġre veal
Ġg iven
Ð°Ð½ Ð´ÑĢ
Ġtr y
ous ands
Ġreg ular
ĠPar enting
ĠMc D
ÑĢÐ¾ ÑĦ
Ġide ology
olk ata
ĠETF s
Ġil leg
0 7
f ord
Ġ í
or al
ĠT ip
ĠA R
ĠG iants
our ts
un k
Ð¸Ð½ Ð°Ð½
ann a
opy right
ĠPat el
Ð»Ñİ Ñĩ
Ġess ential
ĠOptim izer
a ith
a ut
Ġw itness
ĠN ar
Ġb enefits
Ġbe gan
Ð¾ÑģÑĤ Ð¾
ĠÐĿ Ð¸Ðº
Ġgo als
Ġfl ights
ĠÑįÑĤ Ð¾Ð¼
Ġear lier
u a
ĠC D
Ġb ar
Ġb road
Ġm ind
if ying
Ġtr aining
ĠFr ench
Ġplay ing
ĠTH IS
4 3
j et
ĠA EW
ĠM D
ĠM ult
ĠH ost
ĠG irl
ĠJ PR
ÐµÐ» Ð¸
Ġres idents
ĠÐłÐ¾ÑģÑģ Ð¸Ñı
ĠOp portunities
Ġreport ing
Ġbrows er
Ġmur der
s y
ĠA h
ĠM ission
Ġm is
Ġwith d
Ġv acc
ĠEx ecutive
ĠInter views
Ġent ire
Ġimmed iately
Ġsitu ation
F P
s ide
y er
Ġs etting
Ġs ession
ĠW inn
ĠW UNC
ĠG and
Ð¾Ð³ Ð´Ð°
Ġcr edit
ĠAir craft
Ġrem ain
Ġprov iding
Ġlead er
ĠCons ider
Ġeconom y
Ġpredict ion
ĠCow b
ĠGasc Ã³n
ĠP A
ĠW arn
Ġd one
ro y
ĠJ ets
ĠK olkata
ÐµÑĢ Ð³
ĠEn t
Ġint ro
Ġinf rastructure
rug g
ĠE D
end a
ust an
av y
ĠAn y
Ġreg ion
ĠVenezuel a
ĠMom ent
aÃ± ol
w est
ĠL imited
Ġd espite
ĠCh and
Ġsign ed
Ġass oci
ĠInter est
Ġcol lect
ĠFest ivals
ĠÐłÐµÐºÐ»Ð°Ð¼ Ð°
ev in
ĠÐ¿ÑĢÐµÐ´Ð» Ð¾Ð¶
Ġcamer a
ÑĢ Ðµ
Ġw el
ĠPr es
Ġ6 7
ÑĤÐ¸ Ð²
ĠPre vious
Ġstud y
Ġpartic ip
ĠInt elligence
àµĨ âĢĭ
ĠImp act
ĠPitts burgh
A J
ĠP H
Ġc ode
Ġcom mercial
Ġ8 0
Ġplay ed
Ġtrans gender
leg es
ĠIndian a
ĠSC V
ĠÐ¿Ð¾ÑģÐ» ÐµÐ´Ð½
T ech
Y ou
d oor
Ġ íķ
Ġb roadcast
ĠÐ¿ Ð¾Ñģ
ĠSt orm
Ġr ound
ĠK ansas
ĠCl in
ĠCl osed
ĠCon gress
Ð°Ð´ Ð¸
Ġplay er
Ġco ordin
T r
os ing
Ġl ate
ĠÐ¿ Ð¾Ð³
ĠÐ¸ Ñħ
ap ers
ĠÐµ Ð³Ð¾
Ġrequ ire
imin al
I R
d e
p atch
ĠG ift
ÐµÑĤ Ñĭ
Ġpro duction
ĠSche d
ĠTech n
Ġinvest ment
ĠHol iday
Ġpass word
ĠHaw ai
Ġtot al
c ue
ĠB ad
ĠJ on
ak a
em ale
ĠÑĢ Ðµ
Ġse ven
à¤ ¿
Ġà´ ª
ino is
ĠLear jet
Ġpop ular
Ġbo ost
h ics
i ot
o ons
ic an
Ġad vert
Ð¸Ð¼ Ð¸
ĠBl ogs
ĠPhil ly
Ġop portunity
Ġhear ing
ĠÐĲÐ»ÐµÐºÑģ Ð°Ð½Ð´ÑĢ
in ation
ar es
Ġs ust
ĠO P
Ġg reen
oc ket
ĠÐ¼ Ð¸Ð½
Ġcl osed
Ðļ ÐĲ
ĠRec ent
ĠFl ight
Ġstreng then
ivest ream
al ent
ĠC ase
ĠN ifty
ĠE sp
ĠG ovt
ĠAr row
ÐºÐ° Ñĩ
ĠEvery thing
ĠIll inois
I m
ÑĤ ÐµÑĢ
ĠC H
ĠT S
ou ver
ĠP S
ÑĮ Ñİ
Ð· Ð°
ors e
anc ouver
Ġpre vent
Ġinclud es
AT ED
Ġval ue
Ð°Ð¹Ð´ Ð¶
Ġedit or
1 00
es man
ĠR yan
Ñĥ ÑģÑĤ
ĠSt atus
Ġr ange
Ġrece ived
ĠShiv am
ĠC op
ĠP osts
ĠN eed
ĠM ike
le vel
Ġm atter
Ġh ot
Ġe mergency
ĠÐĵ ÑĢ
Ġany thing
Ġreg ard
ĠDr ink
Ġupd ated
ĠRan ji
ĠSeat tle
ĠS ind
ĠP u
ĠM ajor
ĠK oh
Ġcr oss
Ġcl imate
ivers e
ĠList ings
Ġam b
UL T
ipl om
F or
I mp
ĠS ource
ĠN J
ĠF arm
ĠF uture
ĠU P
ĠK evin
Ġper iod
ĠSw ing
Ġsim ilar
Ġouts ide
m en
Ġs ong
ĠC T
ĠA FC
ĠA str
ĠN awaiwaqt
ĠB irth
ĠF ight
ĠL PG
Ġ3 2
ĠPr ot
ous es
Ġab ility
eg r
ĠSchool s
ĠRob ert
Ġequ ity
ÐµÑĢÐ¸Ð°Ð» Ñĭ
¼ ë
ĠS er
Ġc ourse
ĠB ur
ĠF C
ĠE IN
Ġl ic
im al
ĠV ancouver
ĠPr os
Ġwas n
ĠÐŀ Ð´
ĠRad ar
umb ers
ĠÐºÐ¾ÑĤÐ¾ÑĢ ÑĭÐµ
ĠPart y
ĠMiss our
Y C
n el
ĠP ot
ig ar
ĠÐ¡ Ð»
ĠGu ard
Ġdirect ly
ĠProm os
ĠÐļÑĥÑĢ ÑģÐºÐ¾Ð¹
vo id
A ir
ĠM aking
ĠW M
Ġl ives
ĠV ik
Ġsp read
Ġsu ff
itt ing
ĠCap it
ĠIsrael i
ĠM ust
ĠF an
ĠW ood
Ġg ovt
Ġis n
Ġ3 5
ĠÐ¿ÑĢ Ð¾Ð³
ĠÐ½Ð° ÑĪ
Ġj ud
Ġoff ensive
Ġfree ze
Ġfr ont
ĠChr is
ĠConf idential
ĠRoto Wire
8 00
9 2
E CH
g ent
s ylv
Ġt our
is l
ĠR oll
Ġl o
ĠÐ¿ Ð¾Ð²
ĠÐ³ Ð»Ð°Ð²
Ġà´ ®
att le
ĠOb s
ici as
Ġgen eral
) :
A s
t m
u ce
Ġt ext
ĠT em
ĠE arn
ĠH ard
Ġcon ference
ise ase
Ġì ¦Ŀ
Ġreg ul
Ġman ufact
Ġevery one
Ġcar rying
Ġop portunities
Ġprot ect
ĠMet ro
Ġpur p
Ġlaun ch
er ry
Ġd en
ĠH ur
ot ions
Ð¼ Ð°
Ġy outube
ÑĨ ÐµÐ²
ĠCh all
ĠÐĲ Ð·
ĠÐ¸Ð· Ð²ÐµÑģÑĤ
ues day
Ġdem and
ĠQuest ions
ĠEar th
Ġregister ed
sylv ania
f ol
i ant
ĠÑĥ Ð²
Ð¸Ð· Ð²
Ġlaw suit
Ġ201 6
ĠComm ission
Ġauthor ities
ocu ments
ĠCustom er
ĠCowb oys
ĠMissour i
d el
Ġa chieve
ĠS ay
re ens
ĠL ivestream
ĠG ab
ro g
ĠAd ani
ĠMin ute
AT ION
Ġtrans form
ĠTri al
ĠAfric an
cri pt
5 00
in ions
Ġs n
ĠC FL
Ġb all
Ġe Paper
ub lish
olog ies
ough t
Ġhel ps
IC E
Ġthough t
ĠVirgin ia
T ER
is er
Ġc y
Ġc ur
ĠM aster
ĠF act
ĠW L
ĠL ions
ĠL oad
ĠG aming
ĠJ ack
Ġcl aims
ĠChief s
ĠPenn sylvania
aug ur
b re
Ġ er
an ch
ĠB on
ĠR aid
us band
Ġl iving
Ġcom mit
ish ing
Ġdis aster
Ġexper ts
ron ic
Ġmarket s
Ġfe et
isc al
ÐµÑĢÐ± Ð°Ð¹Ð´Ð¶
Ġparticular ly
C om
w al
ĠT or
ĠW oman
ĠL ok
ĠG h
ĠO il
ut ch
and id
ÑĦ Ð¸ÑĨ
ĠPol icies
ĠOff er
Ġac cept
Ġallow ed
pro f
ĠÑĤÐ°Ðº Ð¶Ðµ
Ġvar ious
ĠìĨĮ ì
ĠChild ren
Ġemot ional
ìł ľ
Ġwithd raw
³ ´
ĠT urn
is ks
ĠM ountain
Ġh om
ag a
Ġcon cussion
Ð¸Ð¼ Ð½
Ġen joy
ai j
Ġact ually
ĠAm b
ĠDis patch
ĠStud ent
Ġannoun ces
Ġwrit ing
Ġì£¼ ìłľ
ĠCarol ina
ĠSind h
Imp act
Ġì¦Ŀ ìĥģ
I G
Ġc ard
Ġd iv
ĠO wn
oc urrency
rom e
Ð¾ÑĤ Ð¸Ð²
ĠCol umb
ĠÐ¿ÑĢÐµÐ´ ÑģÑĤÐ°Ð²
ĠState Impact
Ġshow ed
ĠExp and
P l
U ST
en ess
re land
ĠH PR
Ġl ines
à´ ¦
ĠÐł ÑĥÑģ
ĠPro v
Ġsc he
Ġrec ently
Ġatt orney
ĠSou thern
Ġneed ed
ĠPar is
ĠìĿ ¼ë
amb ling
Ġbuild ing
ĠDig est
ĠÐ²Ð¾Ð» Ð¾ÑģÑĤÑĮ
ĠìĿ¼ë °
m et
Ġ ê°ľ
Ġs on
re es
Ġb it
ĠD ies
ĠÐľ Ð°ÑĤ
ĠÐ¤ ÑĥÑĤÐ±Ð¾Ð»
Ġen ough
Ġexper t
Ġdes crib
Ġrest rict
ĠìĿ ĺíķĻ
ĠìĨĮ ê°ľ
ĠBroadcast ing
ĠThom pson
¸ì ļ©
ĺìĿ ¸ìļ©
ĠìĿ¼ë° ĺìĿ¸ìļ©
A n
T R
Ġs ou
ĠP ent
Ġw ays
ĠN ame
ĠW I
Ñĥ ÐºÐ°
ĠÐ² Ð¾Ð¿
ĠV is
ĠTh ree
av itt
Ġle ave
Ġso on
ĠZ eal
ourn ey
ĠOpen AI
Ġstar ts
ĠComment ary
I ST
g a
i j
ĠC ut
Ġp ilot
ĠB enefits
Ġh our
Ġst ation
ĠRe f
ĠÐ¢ ÑĥÑĢ
ĠBr it
Ġdec ades
ĠComp et
enef it
ĠColum n
Ġfact ors
Ġcaus ed
S P
l og
r esp
Ĩ į
ĠS ections
Ġs ense
ĠM ac
Ġp ers
ent o
ĠW ATCH
Ð°ÑĤ Ñĭ
ĠÐ½ Ð°Ð³
ĠÐ´ Ð½ÐµÐ¹
ĠBu ild
ĠAP M
à¥ ĩ
ĠìĨĮì Ĩį
D F
H C
it able
ĠL at
Ġd og
Ġh opes
Ġy oung
Ġsc reen
ÑģÑĤÐ² ÐµÐ½
ribut ed
go ing
ĠChar ts
ĠMc C
Ð³ÑĢ Ð°Ð´
ĠDev a
ÐºÐ°Ñĩ Ð°ÑĤÑĮ
f ect
i as
ĠA viation
Ð» ÐµÑĤ
Ñı Ð²
ĠÐ¿ Ð¾Ð¿
Ġr oll
ĠRe veal
ĠÑĢ ÐµÑĪ
ĠÐ¾ÑĤ Ð¼
ĠIm print
ific ation
ĠÐŁÑĢ Ð¾
ĠÐĺÐ²Ð°Ð½ Ð¾Ð²Ð¸Ñĩ
Ġindivid ual
ĠStep hen
N I
T ulsa
b s
e ign
Ġt ro
ĠT uesday
ĠF ield
ĠPr edict
und red
Ġà´ ķ
ĠNo ida
Ġcontin ued
ĠWN YC
Ġoper ations
ĠStudio Tulsa
Ġìł Ģì
ĠSched ules
ĠìłĢì ŀĲ
b aij
à ¦
ĠC amp
ĠI reland
Ġth ousands
Ġcom m
Ġcom mon
ik es
ra ight
iz ations
Ð°Ð»ÑĮ Ð½ÑĭÐµ
Ġair port
Ġrespond ers
ĠWell ness
b ard
m akers
Ġa ward
op h
ĠÐŁ ÐµÑĤ
àµ ĭ
ĠAnd rew
Ġgo al
ER S
ĠNot icias
Ġread ing
ĠGe org
zer baij
´ìĦ ¤
Ġíķ ´ìĦ¤
ĠZeal and
ÑĢ ÐµÐ´
ĠM id
Ð» Ðµ
ĠR og
Ġm iddle
ĠL ah
Ġl oan
ĠU r
ĠÐ½ Ð¾
ĠÐł Ð¤
ram ento
Ġnot hing
ĠÐĵ Ð¾Ð²
Ġen forcement
ĠHealth care
Ġact ions
rough t
Ġcons um
ĠKP BS
ĠKoh li
7 6
at ives
ar ian
ĠP ur
le ashing
ĠB ah
ĠB alt
ĠE ST
av en
ĠÐ¡ Ð¾
ov ers
Ð¸ÑĢ Ð¾Ð²Ð°ÑĤÑĮ
ĠMus k
ED IA
Ġab s
ĠAm id
Ġbec ame
ĠÐ§ ÐµÐ¼Ð¿Ð¸Ð¾Ð½Ð°ÑĤ
Ġtrans port
Ġve hicles
ĠSac ramento
ĠPict ures
al ition
Ġf irm
ĠB ull
Ð¼ Ñĥ
Ġst rugg
ire ment
ĠEx pert
ĠEng ine
ĠIntern s
Ġprom ote
Ġmod ern
ĠProf ess
ĠClos ings
w ell
or ge
ĠS om
ĠP erson
Ġn ecess
ÐµÐ½ Ð½
Ġe ight
ĠÐ¿ Ð¾Ð¼
ill a
ri an
ab les
Ð¾Ð½ Ð°
Ġ0 8
ik a
ov a
hen s
ĠAl i
ĠLe avitt
Ġeven ing
Ġown er
EM ENT
Ġgirl s
ĠPerform ance
sy ch
ĠLah ore
Ġb ench
ol a
âĢĻ :
Ð°Ð½ ÑĤ
Ð³ Ð¾ÑĢ
ĠSign al
ĠQu iz
ĠVir at
ĠSI GN
Ġexc iting
ĠUnlock ed
ease fire
ķ í
ĠS A
ĠA zerbaij
ir it
ĠK PR
Ġan alysis
Ġsp ot
ĠDe als
ĠAs pen
Ġse em
ÑĢÑĥ Ð´
Ġinclud ed
ĠRec ipes
Ðľ Ðĺ
ĠPar liament
ĠÐ¼Ð¸ÑĢ Ð°
Ġsaf e
ĠHind ustan
ĠCylind er
ĠRaid ers
U n
d om
er ed
Ġa ge
ĠR ES
Ġm ill
ĠH on
ĠH al
Ġl a
ĠV eg
Ġpr im
ĠCom mercial
gh an
ĠÐ± Ð¾Ð»ÑĮÑĪ
Ġsc ient
Ð°Ð¶ Ðµ
ĠGr and
ĠÐ¿ÐµÑĢ Ð²
Ġincre ased
ĠSust ainer
ĠNiger ia
ĠDisclaim er
4 2
k en
ĠB iz
ĠR ound
ĠW ebs
ĠÐ´ ÑĢÑĥÐ³
ĠPl ace
Ġad ditional
ĠÑģÑĤ Ð¾
ÐµÐ³ Ð¸ÑģÑĤÑĢ
Ġcol lege
Ġsystem s
p oint
ĠC atch
ĠB ureau
Ġan ti
Ð¸Ð» Ð¾
Ð¾Ñģ ÑĮ
Ġsp ok
ult ural
ĠRec ords
uc ed
ES S
Ġtar iff
Ġrequ est
Ġlink ed
ĠKV PR
raz il
Ġded icated
5 1
Ġs av
Ġo v
ĠR ic
Ġv ot
Ð½Ñĭ Ð¼Ð¸
ack ed
Ġk ids
Ġsp eed
ĠProgram ming
ĠPet e
Ġinfl u
ĠBrown s
ÃŃ a
ĠÐ¾ÑĤÐº ÑĢÑĭ
ĠBalt im
C AR
H e
Ġ ill
ĠS ett
ĠP oll
ĠM ade
ĠIn to
ĠIn novation
end ra
ank a
ĠQu otes
ĠGold en
ĠAssoci ation
ĠÐ¿Ð¾Ð´Ð¿Ð¸ÑģÑĩ Ð¸ÐºÐ¾Ð²
Ġfavor ite
ĠÐ½Ð°Ð³ ÑĢÐ°Ð´
ĠBaltim ore
h ouse
t e
Ġc oun
Ġm other
ot i
Ġfor ces
Ð³ ÑĢÑĭ
ical s
own a
ĠFor ce
ĠÑĩ Ð°ÑģÑĤ
ĠÑĩ ÑĤÐ¾Ð±Ñĭ
ĠCol lection
ĠRec ord
uck y
Ġlong er
ĠCent re
Ġpur ch
ĠMad uro
ĠKel owna
ĠCart oons
8 9
ĠM any
ĠM ets
ĠI ts
ĠK im
ÑĨ ÐµÐ½
ĠTr ail
ĠÐĶ Ð¾Ð½
Ð¾Ñĩ ÐµÐ¼Ñĥ
Ġpol icies
Ġbl ocks
ĠHer oes
Ġsk y
off s
P H
b ell
x iety
± ķí
Ġ es
Ħ °
Ġto wn
ĠÑģ Ð¾Ð²
ce ed
ĠÐł ÐŁÐĽ
àµ ĩ
Ġcan cer
Ġì ±ķí
Ð°Ð¿ Ð¸ÑĤ
ĠGall ery
Ġì±ķí Ħ°
I F
a uty
Ġ ê
ĠF ed
ĠG ener
ĠO s
ĠÐŁ ÑĥÑĤ
aw a
ĠIm age
Ġgo es
Ð¡ Ð¢
Ġsub scribe
Ġact ress
idd en
I L
ĠC ast
ent ure
ch i
un ning
ill age
ri e
Ð¾Ñģ Ð¿
Ġad min
form s
Ġ8 00
Ġstart ing
ĠPet er
ĠÐ²Ð¾Ð· Ð¼Ð¾Ð¶
ĠÐļÑĥÐ± Ð¾Ðº
u z
ĠS ince
Ġc lean
ĠB order
Ġth r
Ġn atural
Ġl akh
ag ues
ill ing
ĠÐ· Ð°Ð´
Ġcomp lex
Ġdo or
ĠSpons ored
ĠRed dit
ĠKar la
ĠT weet
ĠR h
Ġm ax
Ġd raft
ĠE V
ĠH i
id ers
us es
ÑģÑĤ Ð¾ÑĢ
end ations
ĠTr av
ĠÐłÐ¾ÑģÑģ Ð¸Ñİ
Ġlaw yer
10 5
ĠArt ificial
Ġcer emony
Ġseek ing
ĠD NA
ĠSt ill
Ġint ers
Ġsub scription
ĠPress wire
Ġmov ing
acks on
Ġcover age
ĠExper ts
ĠExper ience
Ġfight ing
ĠRest aur
Ġdoll ars
ĠÐĲÐ· ÐµÑĢÐ±Ð°Ð¹Ð´Ð¶
log o
m ail
p x
r act
r ick
Ġt ouch
ĠC P
ĠN FC
Ð´ ÐµÑĢÐ¶
ĠÑģ ÐµÑĢ
pp ed
ĠÐĶ Ð¶
ourn ament
ĠVal ent
Ġrout e
Ġshop ping
ĠLG BT
ĠBAN K
6 6
7 4
b an
c os
ĠS ave
ÐµÐ½ÑĤ ÑĢ
ys ter
Ġwrit er
ĠLI F
ĠDemocr atic
Ġarrest ed
ĠTR END
ĠWr ite
Ġser ious
ĠTREND ING
Ã ¡
Ġc ir
ĠB razil
Ġr isks
op er
Ð°ÑĤ Ð°ÑģÑĤ
ĠK ent
ĠÐ¡ ÐµÑĢÐ³
ĠÐ¼ ÐµÑģÑĤ
ĠÐĹ Ð°
Ġrel ief
ĠÐ£ÐºÑĢÐ° Ð¸Ð½Ñĭ
ÐµÑĢÑĤ Ð¾Ð»
Ġmass ive
Ð°ÐºÑģ Ð¸Ð¼
P A
r is
Ġa viation
ic ult
Ġp le
Ġp odc
ĠB an
ĠR a
ĠW arm
Ġd ro
Ġfor eign
ĠK e
ĠAr ab
20 24
Ġbr ands
Ġmov ie
Ġmark ing
ĠSpring field
Ð°ÑĤÐ°ÑģÑĤ ÑĢÐ¾ÑĦ
G PT
c ont
ĠS essions
ĠC ateg
ĠB ald
ĠD iv
el and
ĠÐŁ Ð¾Ð»
ÐµÐ² Ð°
ÐµÐ¹ ÑĤ
ĠCan ucks
Ġfl u
Ġmin ister
Ġeff ort
ĠPrem ier
Ġincre asing
Ġmom ents
ĠSn ap
resp ond
n ite
Ġ ends
Ð½ Ð°ÑĢ
ĠU l
ĠJ enn
ĠK enn
ÐµÑĢ Ð¾Ð²
Ð¸Ð» Ð¾Ð¶
ĠInst itute
Ġatt empt
IC S
Ġins p
Ġtrad ing
ĠShar es
ĠRequ est
h an
i ams
ĠP ast
Ġw or
ĠH arr
Ġr ise
ear ing
ĠÐ¾ Ñĩ
pl es
Ġsh ock
und er
Ġint ended
OR IES
ĠDem and
Ġmiss ile
ÑģÑĭ Ð»
Ġpasseng ers
Ġfoot age
ĠNAS CAR
Ġtro ops
ĠS ystem
ĠS ession
re hens
Ġh app
Ġn e
ÐµÐ½ Ð½Ð¾ÑģÑĤÐ¸
Ġst ated
ĠCont rast
ĠÑĤ Ð¾ÑĢÐ³
Ġpart ners
ĠOr igin
ĠCap tion
Ġins urance
ĠSo f
ĠDist ribution
ĠGard en
Ġsing le
Ġunl imited
Ġconflic t
ĠGand hi
Ñģ Ð¸Ð¸
ĠF ame
ĠL ab
Ġd oct
Ñĭ ÑĪ
ĠJ un
ag on
ĠK eep
ĠÑĤ Ñĭ
Ġqu ality
ims elf
ĠPart nership
Ġpar ents
ĠCrypt ocurrency
Ġschool s
ĠS ens
Ġs ource
ĠJ o
por ary
ud d
ĠDis cuss
Ġgr ant
ĠAt l
Ġsecond s
ĠMot ley
Ġann ual
sel ves
ĠEsp aÃ±ol
B L
U M
n et
in y
ĠW all
ĠJ et
ĠJ ackson
im ately
all as
ĠÐĴ Ð°ÑĪ
let ters
ĠEx t
Ġun ique
Ġover all
Ġev idence
Ġsub st
Ġthrough out
ĠIntern et
ĠBank ing
ĠTele vision
ĠÐĵÐ¾Ð³ Ð¾Ð»ÐµÐ²
ĠWU WF
u le
Ġp ull
Ġm ix
Ġd aughter
ĠK ings
ÑĨ Ð°
all ed
Ð¸Ð½ Ð¾Ð²
ĠÐĴ Ð»Ð°Ð´
ĠCap e
esh a
ĠWill iams
ÑĥÐ±Ð» Ð¸Ðº
Ġdam age
itiz ens
ĠS ri
an ish
al o
ou ble
Ġb al
Ðº Ð¾Ð¹
ĠÐ´ ÐµÑĤ
ĠFr ance
Ġatt acks
Ġpat ient
Ġclos ings
Ġcommun ities
Ġnet work
ĠInj ury
Ġinters ection
p et
r ont
Ħ ì
it ional
Ġs oci
Ġs ales
Ġin augur
ĠR av
Ġst re
Ġst orm
ÑĪ Ð¸Ñħ
ĠSa udi
ĠÐ°Ð² ÑĤ
Ġilleg al
ĠS her
ĠB ul
ĠB all
il s
ĠD omin
ĠE ff
ĠÐ² Ð°ÑĪ
ĠK am
Ð¸Ð½ Ð¾
Ġtr ue
ĠÐĵ Ð¾Ð²Ð¾ÑĢ
Ð°Ð»ÑĮ Ð½ÑĭÐ¹
duc ed
ug u
Ġreturn s
ĠÐ£ÐºÑĢÐ° Ð¸Ð½Ð°
k g
n g
p age
v id
om ac
ĠG uru
Ġn amed
st e
em ic
ĠÐ» ÑİÐ±
ft ware
Ġab laze
Ġchar acter
ĠPart ners
ĠChat GPT
w ide
Ġw alk
Ġp ark
ĠW a
id ance
Ġ1 50
ear ed
à´ £
ĠRe veals
Ð³ Ð°Ð½
Ġyou th
ĠÐ¼ Ð¾Ð³
Ġad dition
ĠÐºÐ¾ÑĤÐ¾ÑĢ ÑĭÐ¹
AR E
Ġph one
Ġpos itive
RE E
wh ile
ĠSP ORTS
ĠConsider ed
C h
v ention
it ch
ĠT itle
ĠL td
ĠE r
ĠG ot
Ġl anguage
ĠÐĴ Ð¾
Ġse par
ish es
ĠUp coming
Ġind ic
Ġbel ie
ĠHind i
ĠLouis iana
ĠFore ign
ĠOP IN
undred s
U p
_ _
i y
s s
Ð¸ Ñī
ĠI HC
Ġm ot
Ġh uge
ow ell
ĠG ov
ÑģÑĤ ÑĮ
Ġv oice
Ġex act
ump s
Ġun s
ĠEv en
ĠEv ening
uck er
Ġdirect ed
TS B
ĠPal estin
ĠSing h
fol io
ĠOPIN ION
Ġa p
ĠN OW
ĠD allas
ĠH old
ers ey
ĠJ ones
ĠSt adium
ĠTr ading
Ð°Ð» ÑİÑĤ
ĠCom mittee
ire ction
Ġcan cel
inn ing
ĠInter active
Ġfac ing
ĠUkrain ian
Ġturn ed
Ġappear ed
ĠHam as
ĠSab ha
ĠGrow th
del ays
G A
J P
Ġt ele
Ġs ources
Ġc as
Ġc ell
ĠN eg
Ġd ark
ĠSt yle
ĠOn ly
Ġ4 5
Ġnews letters
ift ing
ĠAgain st
er c
Ġc ateg
ĠB und
ĠK S
ĠÐĵ ÐµÑĢ
ĠIns ider
Ġret ail
ĠCrash es
US D
Ġfri end
Re view
ĠCaption ing
8 5
N o
T IS
Y ear
r os
Ġ ult
Ġa thlet
Ġc ards
ĠM o
om s
ĠH o
ad or
ĠNews room
im als
ĠÑģ Ð¾Ð±
ĠTh an
Ġà´ µ
go ogle
ĠStr ategy
Ġest ab
ĠFO X
Ġcou ple
ĠWebs ite
O D
W G
X I
Ð½ Ð¸ÑĢ
Ġf ast
Ġp ic
ĠW ant
ĠD espite
ĠG D
ĠÐ² ÐµÑĢÑĤÐ¾Ð»
Ġwh ite
ik i
Ġcr itic
Ġgr adu
ĠCO DE
Ġdiff icult
Ġvide os
ĠSy nd
ĠCy ber
Ġenc our
ĠOlymp ics
ĠC ould
ĠA L
ĠB ored
ĠF un
ĠR EL
ĠW he
ĠD eath
Ġd iversity
ĠE ye
ĠG ri
Ġl inks
ĠJ ava
Ð°Ð» ÑģÑı
ĠBl ues
Ġapp oint
uth ors
ĠReg ul
ĠHigh lights
ĠBu ff
Ġgrow ing
ĠÐ¼Ð¸ÑĢ Ðµ
ĠÐ°Ð² Ð¸
itut ion
ĠSpok esman
Ġinform ed
ĠEM I
rehens ive
c ell
ĠS ide
Ġs elf
Ġw ife
Ġf elt
Ġp ath
ĠR ail
il ly
Ġd est
ĠH ill
Ġr ank
Ġr ace
un s
Ð°ÑĤ Ð°
ĠSub st
Ġch ance
ĠÐ± Ð¾Ð»
ict ion
ĠFr anc
ĠRes cue
Ġdet erm
ÑĢÑĭ Ð²
ĠSw ed
ĠVi ews
ĠMart in
ĠKore an
Ġfig ure
Ġconvers ation
ĠClar ita
ĠAzerbaij an
b on
re l
ĠI I
ul ner
Ġpro b
Ġsp ent
ru it
ĠIns ight
ĠShop ping
Ġrun ning
eter ans
Ð¸ÑĤÐµÐ» ÐµÐ¹
O n
U K
o ose
Ġ àª
ÑĢ Ñı
Ġc ities
ĠB eat
Ġh istor
ut ual
ĠSp ec
Ġsh ooting
Ġ4 3
Ð¾Ðº Ñģ
ib ly
Ġcl ub
cer tain
ÐµÐ· ÑĥÐ»ÑĮÑĤ
Ġbl ood
ĠOr der
ĠSu ccess
ĠBang l
ĠSett ings
G E
i ative
m ys
o il
o ft
ou ds
ĠN eighborhood
Ġb and
Ġm ig
ĠO T
ĠK A
ĠV ia
à´ Ļ
har d
Ð¾Ð» Ð»
ial ly
ĠAn sw
tt y
app ed
Ġph ys
Ġdead ly
Ð¸Ð½Ð³ ÑĤ
ĠHear t
Ġprem ium
ĠOsc ar
ĠÑĢÐ°ÑģÑģÐºÐ°Ð· Ð°Ð»
B R
N BC
b a
Ġ x
an o
ĠA N
ĠM oh
il ing
Ġh um
Ð² Ð¾ÑĢ
ÑĪ Ð¸Ð±
Ġcan not
ÑĢÑĥ ÑĪ
ann er
ÑĥÐ´ ÑĮ
Ġlook s
ĠAD VER
ĠÑįÐº ÑģÐ¿
ĠFort nite
ĠEN G
ĠÑĢÑĭÐ½ Ð¾Ñĩ
Ġmeas ures
ÐµÐ·Ð¸Ð´ ÐµÐ½ÑĤ
ĠADVER TIS
. )
f ri
Ä ģ
ĠL yn
ĠG round
ĠO thers
Ð¾Ð² ÑĭÐµ
ell o
anc ing
Ġinst ruct
ĠAc adem
ĠS qu
ĠP ut
Ġb i
Ġb ro
ĠW alk
ĠL ind
Ð°ÑĤ Ð¾ÑĢ
ont o
har m
àµ »
ĠSub scrib
Ġch ief
ck now
Ġins ide
ĠProject ions
estin ation
ĠContin ue
R N
g s
Ð½ Ð¸
Ġs ell
Ġp ict
ĠB oth
Ġb ur
ĠG on
Ġe asy
Ð² ÐµÐ´
ĠÐ² ÐµÐ´
Ġst ore
Ġpro jects
à¤ Ĥ
ĠIm migration
Ġhow ever
Ġac qu
IT Y
Ġsup er
iat ives
Ġhappen ing
Ġsect ors
ĠGram mys
ĠTor onto
d r
e pt
u x
Ġt w
ĠM EX
Ġto ward
il iate
Ð¾Ð² ÑĭÑħ
ÐµÐ½ Ñİ
ĠÐľ Ð°ÑĢ
ra ud
ah o
yn am
Ġob s
ĠÐľÐ¾ÑģÐºÐ² Ðµ
Ġtreat ment
ĠRelations hips
ë¬ ¸
ĠÐĿÐ¸Ðº Ð¾Ð»
D S
e qu
m ir
Ġt itle
en ed
it c
ed its
Ġc ourts
ol ine
Ġg ather
Ġr ul
ce an
ist ics
em ail
Ð¾Ð» Ð¾ÑĤ
Ġar gu
land s
OM E
ĠCo ach
Ġpat tern
ĠÑģÐ°Ð¼Ð¾Ð» ÐµÑĤÐ°
ĠCF B
E x
c asts
Ġ >
ÑĢ Ð°Ð²
Ġs ets
Ġs ale
ĠT est
ĠA ction
ĠA LL
Ġw ants
ĠB i
ĠF itness
ĠO K
Ġre venue
Ð¾ÑĢ Ð¾ÑĤ
ÑĪ Ð¸Ð¹
Ġex ample
Ġle aving
over ed
ph as
Ġmin ing
Ġhelp ing
ĠÑĢÐµÐº Ð»Ð°Ð¼
writ ten
ĠCamer a
Ġmid air
ĠÐĲÐ² ÑĤÐ¾ÑĢ
ĠÐĲÐ½Ð´ÑĢ ÐµÐ¹
9 5
m at
Ð Ń
Ġa void
ic ut
ic ient
Ġf ail
Ġf iscal
ĠB a
ĠB road
ow ers
Ġg ave
ĠV ICE
Ġan xiety
Ð¾Ñģ Ð¼Ð¾ÑĤ
ÐĿ ÐĲ
ĠInc rease
ĠBut t
Ġstate ments
ĠÐ¶ Ð¸Ð²
ÐµÑģÑĤÐ² Ð¸Ñı
Ġstud ent
ĠRw anda
ĠCapit ol
Ġmill ions
ĠT ea
is a
Ġf ired
ĠR ac
il ty
ĠH ul
Ġr ain
ĠK umar
ĠÐ¾ Ðº
ĠY ad
ĠÐľ Ð¸Ñħ
ÐµÐº ÑĥÑī
Ġcr iminal
Ġde g
ĠSp anish
Ð½Ð¸Ðº Ð¸
Ġatt ention
Ġcall ing
ath an
ĠCap ital
ĠAust ria
Ġsup ply
Ġpar ts
ĠId aho
Ġlar gest
Ġref lect
ĠAdd ress
ici ency
inter est
Ġprosecut ors
Ġsust ain
ĠPot omac
C R
or a
it age
Ġre pl
ĠÐŁ Ð¾ÑģÐ»
ÐµÑĤ ÑģÑı
sc ape
Ðĺ ÐĶ
IN E
ĠCar l
ĠAf ghan
Ġaff ected
augh t
Ġpotential ly
ĠAtt ack
Ġprop osed
ĠThom as
ĠMa har
d a
p ay
Ġ eth
ĠA v
Ġm iles
ÐµÑĤ Ðµ
ĠÐ¡ ÐľÐĺ
ÐµÐ¹ ÑģÑĤÐ²
ĠÐ± Ð¾
Ġwho le
Ġì Ĺ
ĠSe lect
Ġam ount
Ġhigh light
ĠÐ·Ð° Ñī
ĠConnect icut
Ðĵ Ð¾Ð³
ĠBh op
Ġwinn ers
Ġreveal ed
ĠED IT
ĠWL RN
ĠKenn edy
t witter
ĠP ack
ĠM ail
ĠM ental
Ġb ott
Ġto ols
Ġh y
ec urity
Ġl imited
Ġfor ced
Ġe ither
Ġr ules
ĠV er
ist ance
ĠÐ¡ ÐºÐ°ÑĩÐ°ÑĤÑĮ
àµ Ģ
ĠDe al
ĠUn leashing
ÑĢÐ°Ð½ Ñģ
ĠPar am
ĠConnect ions
Ġactiv ities
ĠFAQ s
Ġste ps
ĠColumb ia
respond ent
B l
g ery
r ics
ar io
Ð» ÑĥÐ±
Ġb rought
ĠW al
Ġd ied
Ġh imself
ĠH ospital
el ine
Ġg ambling
ĠÐ´ Ð¾Ð»Ð¶
Ġcl ouds
Ġits elf
Ġapp ears
ĠCar ib
yl an
Ðķ ÐĿ
EC T
Ġshort ly
y es
Ġc old
ĠR umors
Ġm ult
ow d
Ġre porter
ĠÑģ ÐµÐ³Ð¾Ð´Ð½Ñı
Ð°Ð½ Ðµ
Ġ3 7
ÑĪ ÐµÐ³Ð¾
du ce
Ġem p
AT E
Ġread y
ĠOr gan
ÐµÐ¶ Ð´Ñĥ
Ð½Ð° Ñĩ
rup tion
Ġrele ases
Ġinfl ation
ĠContribut e
Ġprofess ional
ĠGeorg ia
vid ia
P L
g ment
p apers
t ies
Ġs olutions
Ġc amp
ĠI R
ĠE ll
ĠE mergency
um a
Ð¾ÑĢ ÑĤÐ°
Ġ3 4
ant ic
Ġpro gress
Ġde ploy
ens es
Ð¸Ð¼ Ð¸ÑĢ
ĠMe an
The y
ĠÐ¿ÐµÑĢ ÐµÐ´
Ġred ist
ĠÑĪ Ðº
ÐµÑĢÑģ Ð¸Ñı
ĠParam ount
m ary
r ant
w ith
ĠP C
ĠB us
ĠB oy
ĠE at
ĠÐ¸ Ð¼
Ġpr ison
Ġle ague
ĠCon vers
ĠÐ± Ð»
ĠÐ» Ð¸
Ġdis play
ĠYou th
Ġsm art
ĠRo om
ĠÑĨ ÐµÐ½Ð°
ĠBre ak
Ġchall enge
Ġinj ury
Ġrecover ed
Ġclick ing
ĠN TSB
ĠR ub
ĠG M
Ġre place
Ð°ÑĢ Ð¾Ð²
Ð¸Ð½ Ñĥ
ĠSh ould
ĠAd ditional
Ġj obs
ĠÐ¼ ÐµÐ½Ñı
ĠEx press
Ġar row
Ġì Ī
IC K
Ġred uce
ĠIr an
2 00
H ER
b eat
Ð½ Ð¸ÑĨ
Ġp an
Ġp iec
ĠF REE
ay an
Ġg old
ĠTh rough
oun ge
Ġ0 9
ĠÐ· Ð°Ð±
Ġpol itics
ep th
ott e
ĠÐĺÐ· Ð¼ÐµÐ½ÐµÐ½Ð¸Ðµ
be an
Ġfeat ure
A C
F A
ĠC ou
ĠA z
Ġf est
ĠB L
ĠF air
il i
Ġd om
ĠG ad
ĠJ ul
Ð¾Ð½ Ñĩ
Ġ5 00
Ġ6 5
ĠÑĩ ÐµÐ¼
com es
ÑĢÐ° Ñī
Ġgr and
ĠCo alition
Ġupd ate
ĠRet ail
Ġpress ure
Ġident ity
Ġcal cul
ĠBet ter
ĠKR WG
ĠVeg as
o z
ĠP ri
ĠR oster
et imes
ĠL anka
ĠH OME
Ġre veals
Ñĩ Ðµ
Ġr ap
ĠÐ½ ÐµÐ´
Ġbe h
Ġcom mitted
ĠSc oop
ĠCl utch
ĠAl ready
ÑĥÑİ ÑĤ
Ġcoll ided
Ġcover ing
Ġplan et
Ġpract ice
Ġcustom ers
Ġassist ance
ĠCanc er
ĠAy esha
ĠAh med
Ġpodc ast
ĠAcadem y
i est
Ġt er
ÑĤ ÐµÑģÑĮ
Ġs end
ĠT OP
ĠN vidia
ĠD ylan
ĠL ic
Ġn umbers
Ġl ocation
Ġre ached
Ġre written
est ic
od d
Ð°ÑĤ Ð¾Ð²
ĠÐ½ ÑĥÐ¶
ÐµÑĤ ÑĮ
qu e
Ġal t
Ġcr icket
Ð¡ ÐļÐĲ
ott en
Ġbu ilt
ĠIN R
Ġfund s
Ġwin ter
Ġthreat s
ĠÐ¾Ð¿ ÐµÑĢ
Ġrecover y
Ġperm ission
ĠÐ³Ð¾Ð´ Ñĥ
fri end
Ġf iled
Ġo vers
Ġ202 6
Ġst ars
ĠÐ¾ ÑĪÐ¸Ð±
ĠPro duct
ĠÐĶ Ð»Ñı
ĠClass ic
Ġtyp e
ĠBro ok
ĠÐ²ÑĢÐµÐ¼ Ñı
ĠAstr ology
ĠHarr is
ĠMEX C
ĠCarib bean
Ġredist ributed
O U
b ody
t own
it ation
Ġs al
ĠW V
el ic
ĠThe n
ĠIn clusion
Ġst ep
à´ ³
ĠY oung
ĠÐ¿ÑĢ Ð¾ÑĤÐ¸Ð²
ĠÑĥ Ð±
Ġcr ime
Ġâ Ĩ
Ġeff ects
Ġph oto
Ġadv oc
ĠMay or
ĠTar iff
ĠExpect ations
at o
at ures
ĠS ex
Ġs ens
ĠP ers
ĠN ick
Ġp ause
ĠSt at
ĠK umbh
ÐµÑĢ Ðº
ĠRe b
ip board
ee ps
ÑģÐº Ð°
Ġex ist
ĠÐĵ Ð¾ÑĢ
Ġinvest ing
ĠÐºÐ¾Ð½ ÑĤÑĢ
ĠEl ite
St ar
ĠRE G
ĠÐ¡ÐµÑĢÐ³ ÐµÐ¹
ĠBangl adesh
0 9
i ar
ĠS olutions
ĠC ars
re al
ĠM and
Ð» ÐµÐ½Ð¸Ðµ
ĠB ey
Ġm ission
ĠD iversity
us ion
ĠJ ew
ak ed
ĠÐº Ð°Ð¿Ð¸ÑĤ
Ð¾Ð» Ð½
ĠÐ· Ð°Ð²
Ð¸Ñģ ÑĪ
ons in
Ġhelp ed
ĠUnd erst
isc onsin
ĠGerm any
Ð¸Ð½Ð°Ð½ ÑģÑĭ
d on
or i
an mar
ĠT ucker
ĠA uction
ĠM ultiple
Ġb ase
Ġh ol
Ġh urt
Ġh usband
Ð°Ð½ Ð°Ð»
ĠRe pr
ast ic
Ġ4 1
à¤ ¨
ÑĥÑĢ Ð³
ĠReg ister
eth od
ĠÐĿÐ° ÑĥÐºÐ°
Ġspe ak
Ġeng ine
Ġsex ual
ĠSens ex
ĠBuff alo
ĠADVERTIS EMENT
ĠP anda
Ġw eb
Ġb atter
ĠF ly
um es
pl it
Ġde partment
ang ing
wit ch
ĠMy anmar
ĠColl ins
Ġwinn ing
ĠÐ¿Ð¾Ðº Ð°Ð·
ÑĢÑĥÐ¿ Ð¿
ĠTel ugu
ĠConst ruction
Ġphot os
ĠÐĴÐ»Ð°Ð´ Ð¸Ð¼Ð¸ÑĢ
P r
S h
c ut
h ot
Ġa cknow
as c
il ia
Ġl ane
ĠU z
Ġg ives
ĠÐ´ ÐµÐ½
Ġtr ail
ĠÐļ ÑĥÐ»ÑĮÑĤÑĥÑĢ
Ġbr and
ĠÐ¿ÑĢÐ¾ ÐµÐºÑĤ
Ġpost ed
ĠLeg acy
ĠAnnoun ces
ĠGe orge
ĠQuest ion
Ġpasseng er
Ġprevious ly
Ð°Ð´Ð¸ Ð¾
àµĭ âĢĭ
ĠGon z
Ð¸ ÐµÐ¹
ĠS em
Ġw ords
le ep
ĠB O
ĠW EM
ĠL ady
Ġh ands
ir o
Ġre views
Ð¼ Ð°Ð½
Ð¼ Ð¸Ð½
Ġ( $
Ġ3 9
Ġcon v
ĠRec e
ĠGo es
omin ated
ĠLead er
Ġdesign ed
level and
r ated
w an
Ġ et
Ġt en
he w
ed ge
Ġc atch
le ans
Ġp oor
ĠR as
ĠW restling
ĠD R
os ure
ĠSt op
Ð¾Ð´ Ñĭ
aw ays
Ġacc ur
ict ed
Ġsub ject
Ġtrans fer
Ð¸Ð»ÑĮ Ð¼
ĠÐ¡Ð¿ ÐµÑĨ
ĠInf rastructure
Ġra ised
ĠAnn iversary
Ġspec ific
ĠSpok ane
ĠGram my
igar h
F F
g ins
i ya
ar ant
ĠP ets
ĠP interest
ĠM other
Ġb ike
Ġr ather
ĠÐļ Ð¸ÐµÐ²
ĠÑĤ ÐµÐ¼
ĠAg ree
ĠÐ§ Ð¸ÑĤ
Ġlook ed
ĠLinked in
Ġprom ot
Ġpop ulation
Ġmean ing
reg on
ĠÐ·Ð°ÑıÐ² Ð¸Ð»
ĠRecomm ended
ĠValent ine
b ers
f in
f ight
ĠT A
Ġf atal
ĠF aith
ur ch
Ġon going
Ġim press
Ġwe ight
ÑĥÑĢ Ñģ
ĠDel ays
Ġmov es
ĠProm o
ĠÐ¦ Ð¡ÐļÐĲ
Ġcor por
ĠSal es
Ġvict ory
Ġinj ured
error ism
ĠVict or
ĠAthlet ics
ĠChand igarh
D ay
S cript
m s
Ġs il
ĠP BS
ĠM s
ĠW isconsin
ĠG ro
Ġst age
Ð°Ð½ Ð¾Ð²
Ġse lect
Ð¸Ð¼ Ð¾ÑģÑĤÑĮ
ĠCol leges
ĠÐ¾Ð± Ð½Ð¾Ð²
ĠFeat ure
Ġpresident ial
Ġart ificial
Ġdeb ut
Ġsol id
Ġrad io
Ġtemper ature
ĠÐ²Ð¾Ð¿ ÑĢÐ¾Ñģ
ĠGuru gram
F M
d eep
j ar
» ł
ĠS us
ĠS ir
ĠB ills
ĠO regon
Ġst raight
ak i
ĠÐ½ Ð¸Ðº
Ð¸Ðº Ð°Ð½
lic ation
Ġal tern
ĠQ ur
ĠÐĹ ÐµÐ»ÐµÐ½
Ġem phas
Ġadd ing
Ġsign ing
Ġcap abilities
Ġlog o
Ġjournal ist
Ġpract ices
Ð¾Ð¶Ð´ ÐµÐ½Ð¸Ñı
ĠTrav is
ĠÐ±Ð¾Ð» ÐµÐµ
k har
ÑĤ Ð²
Ġs ave
ĠC ub
ĠT re
am in
Ġn ames
Ð² Ð°Ð»
ÐµÑĢ Ðµ
ip ur
ĠPro perty
ÐµÐ¹ ÑĩÐ°Ñģ
anc y
osp ects
Ġinf o
ĠSw ift
Ġmod els
Ġfr esh
ÉĻ r
ĠPrint able
Ġpat ients
ĠHom eland
ĠSH ARE
Ġlim it
do ors
àµĩ âĢĭ
ĠJava Script
g ar
s elf
Ġa verage
at ers
Ġs erve
Ġb an
Ġb irth
ĠF OR
ĠR enew
ĠÑģ Ð¼
ĠV oice
ĠÐ¡ Ðº
ĠCom mun
Ð¸Ð» Ð°Ð´
Ġcon duct
Ð°Ðº Ñĥ
ick ing
ĠBr on
Ġà´ ħ
ĠAm y
Ġsk ip
yp e
Ġearn ings
Ġsold iers
ĠGovern ance
ĠVik ings
ĠSwed en
5 2
6 9
C or
D aily
W hat
à ±
al am
ĠM ir
ĠB rian
ĠD ue
ĠL uck
Ġon es
ĠJ ersey
ĠÐ¿ Ð¾Ð±ÐµÐ´
Ġst atus
ĠÐ´ Ð½Ñı
ÐµÐº ÑĢÐµÑĤ
ĠÐ¼ Ñĭ
ort ion
orn er
Ġdr ive
Ġchar ged
Ġexpect ations
Ġcor re
ĠMah a
ĠÐļÑĢ Ð°Ñģ
ĠBhop al
Ð¸ÑģÑĪ ÐµÑģÑĤÐ²Ð¸Ñı
h b
h tm
m as
t ual
re pr
Ġf air
ĠN atural
ĠF Y
ĠI S
Ġd ream
Ġl ock
Ġr umors
ri al
ĠCom b
Ð¸Ð» Ð°ÑģÑĮ
ĠÐ³ Ð¾Ð»
Ð½Ð¸Ðº Ð°
Ð¢ Ðŀ
ĠHol y
Ġwant ed
Ġkill ing
be ing
ĠDevelop er
ograp hy
ĠKn icks
Ġquarter back
Ġfriends hip
miss ions
ĠDisc over
ĠHul u
ĠYad av
ĠBL OG
ĠWEM U
K F
v ant
in ts
ÑĢ Ð°ÑģÑĤ
Ġf uel
Ġm all
Ġd isease
Ġ20 00
Ġex am
ĠAl leg
amp ion
Ġreg ime
ĠProm otions
Ġoper ating
Ġtri al
ĠMot ors
Ġroad s
Ġmen u
Ġvir al
ĠFranc is
k ar
Ġ ut
Ðµ ÐµÐ²Ð¸Ñĩ
ĠP oints
ĠF ord
ĠF oot
ĠR od
Ġm ention
Ġd ram
Ġd ividend
ĠH a
Ġ1 25
if er
Ġv ote
ram er
ĠAl ber
Ġ9 9
Ġdef ence
ĠStar ts
ask a
ĠIr ish
ĠEqu ity
```````` ````````
prof it
E A
g en
k er
Ġ ver
Ġp aper
ĠR acing
ĠW ings
ĠD ream
ĠL ake
ĠL ounge
ac he
ig ion
ĠPr icing
ĠCont rol
Ð¾Ñģ ÑĥÐ´
ĠAd s
Ġup on
ĠBr ows
ribut e
Ġmarket ing
ĠComm od
Ġcompl aints
oub les
ĠHur ric
ĠÐĴÐ°ÑĪ Ð¸Ð½Ð³ÑĤ
ĠEDIT OR
N S
m ore
p ens
Ġt on
an agan
ĠC ur
ĠA venue
Ġm ins
ĠL ow
th ough
ĠÐ² Ð¸Ð´
ri ors
ip ment
Ð¹ ÑĤÐµ
Ġpro perty
ĠÑĢ Ð°Ð¹
Ġsp ark
oy al
Ġun certain
ĠLe agues
Ġâ ľ
Ġsur round
Ġcol lection
ĠSpecial ist
ĠCanc el
Ġrelations hip
imed ia
Ġregard ing
ĠProfess or
Ð¾ÑģÑĥÐ´ Ð°ÑĢ
A K
I f
c ol
u it
Ð ¬
ĠW Y
ĠD og
Ñı Ð´
ĠE ric
ag ged
ĠRe uters
Ð¾Ð» Ð¸
Ð¾Ð¼ Ð½
og i
ĠSc reen
Ġpre g
Ġsur vey
Ġà¤ ®
Ġ201 5
Ġop inion
Ġcook ie
Ġhold s
Ġrecogn ised
Ġviol ence
ĠÐļÐ°ÑĢ Ð¿
Ġstri ke
Ġcommit ment
Ġes c
ÐµÐ¹ÑĤ Ð¸Ð½Ð³
ĠMean while
ĠÐ´ÐµÐ½ ÐµÐ³
A ll
B B
Ð½ Ð¸Ñĩ
Ġs ection
ĠP and
ĠB Y
Ġm il
ĠL as
Ġl if
ĠJ ason
ĠâĢ º
un a
ast y
Ġpl anning
ĠPl ans
ov ic
Ġà´ ¨
Ġreg ional
Ġmon it
ĠAm ong
ĠSec ond
Ġinst ead
ĠÐµ ÑīÐµ
Ġaff ord
inc ip
Ġfun ction
Ġalleg ed
% )
A id
m ont
ĠM ULT
ĠB ru
ĠR at
ĠW E
Ġh undreds
Ð² Ð¸Ð¶
ĠÑģ ÑĥÐ´
ia z
ist r
Ġv ers
ash tra
inn er
Ġcontin uing
Ġsupport ed
ðŁ ¤
ĠPat ri
ĠWN I
Ġdist rict
Ġcor respondent
Ġexpress ed
ĠIslam abad
ĠKent ucky
Ġsoci ety
A nd
ĠM r
Ñĥ Ð¼ÐµÐ½ÑĤ
ĠL and
Ñĭ Ð¼Ð¸
ĠÑģ Ð¾ÑĤ
ul a
Ġ5 2
ĠÐ¾ÑĤ Ð²ÐµÑĤÑģÑĤÐ²
Ġact ive
Ġlead s
Ġsent ences
ĠMal ik
Ġlearn ing
ĠNav igation
ĠCompl iance
Ð°Ñİ Ñī
ĠSubscrib er
o en
ĠA p
ĠA uthors
Ġf ram
ĠR and
ĠL ittle
Ġl ack
ĠJ en
ĠJ ose
Ġr ose
st on
ĠÑĥ Ð¶Ðµ
ĠÐ¼ Ð»
ĠEx clusive
ivers al
Ġrem ark
Ġknow ledge
Ġdec isions
Ġoffic er
Ð¸Ð³ ÑĢÐ°Ð½
ĠOk anagan
ĠWed ding
Ġident ify
Ġpurp oses
ĠÐŁÑĢÐ¾ Ð¸ÑģÑĪÐµÑģÑĤÐ²Ð¸Ñı
ĠUnderst anding
N L
l o
m u
n o
p ed
ĠC R
ĠC ramer
ĠP T
Ġf le
Ñĥ Ð¿Ð»
ur ities
ĠÑģ ÐµÐ±
Ġwh ose
ĠAn ime
ĠEx change
ĠÑģÑĤ Ð¾Ð»
Ġcomp rehensive
ÐµÐ»ÑĮ ÑĦ
ĠSign up
ĠGu ides
ĠDis ney
Ġhealth care
Ġdr iver
ĠHer itage
ĠPet rol
war eness
Ġaff ect
Ġmov ed
ĠSte ve
Ġwr ong
ĠAff airs
ĠHub bard
ĠMA H
ÑĦÐ¸ÑĨ Ð¸
Ð¸Ð»Ð°Ð´ ÐµÐ»ÑĮÑĦ
8 6
S p
Ġs em
ĠM or
Ġto wards
Ñı ÑİÑĤ
ÐµÐ½ Ñģ
ĠÐ¿ Ð¾Ð·
à´ ·
ĠRe porter
ĠÐł Ð°Ð·
Ð°Ð· ÐµÑĤÐ°
ĠEm ilia
ĠMed Tech
ĠPre ferences
Ġinc red
ĠInvest ors
ĠÐ½Ð¾Ð² Ð¾ÑģÑĤ
scri ptions
Ġmove ment
Ġident ified
ĠColl abor
ÐĹ Ð¾Ð»Ð¾ÑĤ
ĠON E
ĠÐ¢ÑĢÐ°Ð¼Ð¿ Ð°
Ġopp osition
ĠÐ¾Ð½ Ð¸
Ġwild fires
ĠTrack er
ĠInterns hips
o om
u ild
z a
à °
ĠC odes
ol ic
Ġh ousing
ĠG w
ĠJ as
ĠJ ay
ĠV an
ĠV IP
Ð¾Ð¼ Ñĥ
ÑĪ ÑĤ
ĠÐ· Ð°Ð¼
ĠCr ore
ov id
ĠAg enda
Ġstr anded
Ġeffect ive
ĠInj uries
Ġcoordin ator
ĠGad gets
ĠREG IST
f ree
i ation
Ġ els
in os
ĠC leveland
re z
Ġc itizens
as o
Ġp urs
Ġm ountain
Ġd rop
Ġh ospital
Ġn orm
ĠJ er
ĠIn it
ub scribe
Ġex ecut
ĠAr ound
ĠPol itical
Ġsc r
ĠÐ° Ðº
ĠBe auty
Ġany one
urr ed
ĠÐ§ ÑĤÐ¾
ĠFire Aid
Ġà¤ ¹
Ġadv ice
Ġext ra
DA Y
Ġaut om
ĠÐ²ÑĢÐµÐ¼ ÐµÐ½Ð¸
ĠMahar ashtra
I s
V E
Ġa id
ĠS ound
ÑĢ Ð¸
ed om
ĠP ed
ĠP Ã©
Ġp ages
Ġb ow
Ġb enefit
ĠR T
ĠW orks
Ġl oud
Ð´ ÐµÑĤ
Ð· Ðµ
ab led
ĠÐ¿ÑĢ Ð¸Ð·Ð²
Ð¸Ð» Ð¾ÑĤ
aw n
ĠAl bum
Ġse asons
ond er
ĠRes et
ĠÐµ ÑģÑĤÑĮ
ĠÑĨ ÐµÐ½
Ġreturn ed
Ġtrad itional
Ð°Ð»Ð¸Ð· Ð°ÑĨÐ¸Ñı
Ġconfirm ation
Ġwarn ing
ĠÑģÑĤÑĢÐ°Ð½ Ñĭ
ĠÐ³Ð¾ÑĢ Ð¾Ð´
ĠKash mir
M B
ĺ ģ
Ðµ ÑģÑı
ĠH eat
ow ed
iv ors
end ers
ĠÐŁ Ð¾ÑĩÐµÐ¼Ñĥ
Ġan t
ÐµÐ» Ð°
ĠÐļ Ð¸ÑĤ
Ġres idential
Ġj ourney
ĠÑĩ ÐµÑĢ
Ġserv es
Ġhigh ly
Ġdef in
ĠRel ief
ĠOut doors
ĠStr ateg
eigh b
Ġdead line
Ġsim ply
ĠShah id
ĠCharl ie
ĠSpec ials
V I
t ed
on ents
ĠC ool
ĠC reat
ĠT ECH
is ades
ĠL ibrary
ĠÐ¿ Ð¾Ð»Ð¸ÑĤ
Ġr ising
ul ance
Ġcom mission
let on
ĠInd ex
Ġse ems
CC O
Ġmin imum
IT H
arr ant
mig rants
Ġconsider ed
ĠÐ²Ñģ ÐµÑħ
Tr ump
ĠÐ¿ÑĢÐ¾Ð³ ÑĢÐ°Ð¼
Ġalt itude
ĠREGIST ER
C L
l s
l ike
Ĥ ¬
ĠS out
ar on
ĠA S
ĠN ations
Ġd ies
ĠÑģ ÐµÐ·
ĠTr aining
ĠÐľ Ð½Ð¾Ð³Ð¾
ĠSh ap
Ð°Ðº ÑĤ
Ġsp ons
ĠFr ank
OR S
ĠIns ights
Ġgr ants
ĠSup reme
ĠDav is
ĠId ent
ĠPal isades
Ġest im
Ġoffer ed
Ġve hicle
ĠFar ah
Ġtransform ing
8 7
C on
h ere
m i
s et
in als
am med
Ġg iving
ĠSt ars
Ġst at
Ð°ÑĤ Ðµ
Ġ3 3
ĠÑĢ ÐµÐ³
Ð¸Ð» Ð»Ð¸
âĢĿ .
ĠÐ³ ÑĢÑĥÐ¿Ð¿
ĠFin al
oth ers
Ġreal ity
Ġsuccess fully
Ġbring ing
ĠHom eless
Ġcapt ured
ĠTS X
ĠÑĤÐ¾ÑĢÐ³ Ð¾Ð²
ĠÐľÐ¸Ñħ Ð°
Y LE
ì ĸ
Ġ letter
Ġt ip
on i
ar row
Ð½ ÑĥÐ»
ÑĢ Ð°Ð±Ð¾ÑĤ
ĠM ob
Ðº Ð¸Ð½
Ġd i
ir ation
Ġfor ce
od ing
ain ers
ill er
Ð¾ÑģÑĤ Ð¾Ð²
ĠPl us
Ġnot ice
Ġle aves
ous ly
Ġsc ore
Ð¡ Ð¡
Ġrem aining
Ġthem selves
Ð¾Ð²Ð°Ð½ Ð¸Ðµ
ĠEl on
ĠWild fires
Ġstand ard
Ġinit iatives
Ġbus y
ĠÐ¿ÑĢÐµÐ´Ð»Ð¾Ð¶ ÐµÐ½Ð¸Ðµ
ĠButt ler
Ġbott om
" .
5 3
B r
d ef
h ub
i ences
ľ ë
ĠS aints
Ð½ ÐµÐ½Ð¸Ñı
ĠT akes
ĠR onald
ĠL akh
Ġre act
Ð°Ð½ Ð¾
har at
ĠTr ad
Ð°ÑĤÑĮ Ð¸
ell ed
Ġcr uc
Ġnot e
als e
ĠÑģÐ¿ Ð¾ÑĢÑĤ
ĠAdv anced
ĠTenn ess
Ġproblem s
ĠÐ¿ÑĢÐ¾Ð´ Ð¾Ð»Ð¶
Ġpe ace
ĠÐ¸Ð·Ð²ÐµÑģÑĤ Ð½Ð¾
repr ene
f ace
Ġt it
re ed
Ġp o
Ġp aid
ĠÐ² Ð½
Ġv ulner
ĠÐ´ ÐµÐ¹ÑģÑĤÐ²
ĠÑĥ ÑģÑĤÐ°Ð½Ð¾Ð²
ĠCr ashed
Ġpart nership
ĠCar et
gy pt
ĠIns p
ĠFire ball
Ġadv ance
Ġchar ges
Ġopen ing
ĠKar oline
ĠSte el
ĠCharl otte
ĠPu zz
ublish ing
ĠDies el
hb az
ĠWY SU
t able
w ater
Ġs eat
ĠT AT
ic ious
Ġf an
ĠM I
om p
ĠL akers
Ġd anger
ĠNews day
ĠNews cast
Ġr at
ĠK ul
ok u
ÐµÐ´ Ð¸Ð½
Ġres c
ĠFor ward
ĠÐĲ ÑĦ
Ġapp ly
ĠGu y
ĠSe a
Ġpass ports
ĠÐ¶ Ð¸Ð·Ð½
Ġmiss ing
li est
ĠÐ¿Ð¾Ð´Ð¿Ð¸ÑģÑĩ Ð¸ÐºÐ°
IM EDIA
ĠWrit ers
ÑĥÑħ Ð¸Ð½
ĠAk bar
Ġcontrovers y
ĠÐĴÐ°Ñģ Ð¸Ð»
ĠÐ¡Ð» ÐµÐ´
ĠMULT IMEDIA
h ire
l ife
Ġs an
is ation
ĠA x
Ġf raud
ĠR O
ĠI M
ĠW iki
Ġm ethod
Ġ20 14
Ð± Ð°
ĠÑĤ Ð¾Ð»ÑĮÐºÐ¾
ĠShe hbaz
ĠÐŃ ÑĤÐ¾
Ġfollow ed
ĠRepublic an
ĠðŁ Ķ
atter ed
ĠIss ue
Ð¸Ð¿ ÑĤÐ¾Ð²
Ð¥ ÐĽ
Ġadvert ise
Ġmax imum
ĠAhmed abad
. âĢĭ
O ld
j ay
in ary
ĠS ection
ĠC old
ĠC any
Ġc op
Ġw a
Ġto ol
ĠR ew
ĠE SP
id ency
ad ar
us hed
ig ibility
ĠG etting
Ġl ab
Ð°Ð½ Ðº
ĠY e
og g
ĠÑĥ Ñĩ
ĠÐĿ Ðµ
Ġad op
ĠFr ont
ĠMan chester
Ġsec retary
ĠFin ally
ĠGr en
Ġgu idance
Ġgu ilty
IA L
Ġfire ball
Ñĳ ÑĤ
Ġmov ies
ĠSen ate
Ġdem on
ĠMatch ing
ĠPass word
ĠAc ross
ĠWX XI
Ġcreat ing
ĠLook ing
ĠÑĤÑĥÑĢ Ð½Ð¸ÑĢ
ĠSportsbook s
Ġsy m
ÑĩÐ°Ñģ Ð¾Ð²Ð¾Ð¹
ĠSud ha
Ġloc ated
ĠClin ical
j ust
í Ļ
ĠP IC
ĠM ach
ĠF ac
ĠL isa
ĠE pisode
Ġe as
Ġe pisode
im b
ĠÑģ Ð´ÐµÐ»
Ð¾ÑĢ Ð´
ip e
ell ite
ĠÐ· Ð°ÑĢ
ĠEx cell
cl ass
ĠÐĽ Ð¸Ð³Ð°
Ġ9 1
ĠSe khar
ĠMan ager
Ġro b
Ġrem ov
ĠHol mes
ĠOb ama
Ġdevelop ing
Ġext rem
ĠStory Cor
ĠWar riors
Ġorgan izations
ĠSpe ech
ĠFre qu
Ġtell s
ĠSever e
ĠÐķÐ²ÑĢÐ¾Ð¿ Ñĭ
ĠÐĵÐµÑĢ Ð¼
ĠQur an
ĠStoryCor ps
H S
ÑĢ Ð¾Ð±
ĠT ur
Ġc andid
ĠM atters
ĠF e
ĠL aur
ĠÐ¾ Ð½Ð°
ÑĪ Ðµ
Ġpl aces
oll ar
ĠSp r
àµ Ĥ
ĠÐ³ Ð¾ÑĤÐ¾Ð²
Ġyour self
Ġsc ience
ST R
Ġpre tty
Ġfin ally
Ġman age
ĠÑįÑĤ Ð¾Ð³Ð¾
Ġgood s
ĠMet la
Ġfour th
ĠAtt orney
ĠÐºÑĢ Ð¸Ð¿ÑĤÐ¾Ð²
ĠLet ter
oust on
Ġcollabor ative
ĠNor thern
ĠRah ul
iplom atic
ĠÐŁÐµÑĤ ÑĢ
Ġap olog
ĠPÃ© rez
Ġcruc ial
M ar
j udge
n y
Ã §
Ðµ Ñī
ĠP oint
Ġb reat
ĠW S
ad ir
Ġl ay
ag ar
Ð¾ÑĢ Ðµ
Ð¾ÑĢ Ð¾Ð½Ñĭ
ĠRe forms
Ġex change
Ġint egr
Ġpart ies
Ð°Ð»Ð¸ ÑģÑĤ
Ġbr ings
ret ch
press ion
Ġrespons ible
Ġìł Ħ
Ġstand ards
Ġorgan ization
ĠFund s
Ġimmed iate
Ġcontroll ers
Ġstrateg ies
ĠSof ÃŃa
ĠGren ell
ĠÐºÑĢÐ¸Ð¿ÑĤÐ¾Ð² Ð°Ð»ÑİÑĤ
6 00
9 7
H D
o og
r d
u h
ar ity
Ġp et
ĠW ich
Ġm ag
ĠD am
Ġd ogs
ir us
ĠV eterans
Ð¾ÑĢ Ð¾Ð¶
ĠTh ink
ĠY ank
ĠÐ¡ ÐµÐ¼
Ð°Ðº Ð¾Ð¼
Ð°Ñģ Ð¾Ð²
Ġacc ounts
ĠÐ¢ ÐµÐºÑĥÑī
ĠÐ¸Ð½ ÑĤÐµÑĢ
ĠReg ion
Ġgr ab
Ġread ers
ĠÐ¿ÑĢÐ¾ ÑĪ
ĠSur v
Ð°ÑĤÐµÐ» Ð¸
Ġprof ession
Ġrespons ibility
Ġperson nel
Ġagree ment
Ġcommun ications
Ġterm in
rec ated
ĠAsk ed
ĠRespond s
Ġrequire ments
ĠEngine ering
Ġnecess ary
ĠLind a
F K
M S
a is
f aced
s k
Ġ {
Ġs ites
ĠC er
Ġo ption
ĠR om
ĠR ain
ĠD ining
id ity
ĠSt umps
ÐµÑĢ ÑĮ
ab in
Ġv eter
ĠÐł ÐµÐ¹ÑĤÐ¸Ð½Ð³
ĠÑĤ Ð¾
Ġcr owd
ĠAl t
à¤ ¦
ann e
Ġro ck
Ġbr ain
ĠÐ¾Ñģ Ð²
Ġob tain
Ġsl ow
ĠProf ile
Ġcaus es
ĠÐ¼Ð¾Ð¶ Ð½Ð¾
ĠCost co
ÐµÐ½Ð½ Ð¸Ñģ
ĠHi jab
Ġphys ical
ĠÐºÐ°Ð¿Ð¸ÑĤ Ð°Ð»Ð¸Ð·Ð°ÑĨÐ¸Ñı
oen ix
ìĸ ´
i ac
s upport
Ġs port
Ġs ound
ĠM P
Ġin clusion
ĠD ur
ĠG al
ĠO tt
ĠJ ag
ĠÐ¿ ÑĥÐ±Ð»Ð¸Ðº
if ul
ĠTh under
ĠPr adesh
av our
Ġup gr
ĠÐ³ Ð´Ðµ
Ġim age
ĠÐ¾ÑĤ Ð¿ÑĢÐ°Ð²
ĠMus l
Ġind epend
Ġrem ove
ĠConnect ion
ĠðŁ ĵ
Ġcomplet es
Ġ36 5
Ġsus pect
Im age
ĠÐļÑĥÐ»ÑĮÑĤÑĥÑĢ Ð°
ĠAgree ment
b orn
p ot
Ļ ı
it ure
ĠA G
ent y
ĠW A
ĠL ily
ĠH IV
Ġg one
ĠSt age
ĠK r
ĠCh air
ĠInd ore
Ġun c
Ð¸Ð¼ Ð¾
ĠBl ock
Ġper fect
ĠNational s
ele b
ĠBut ton
Ġsign s
Ġbas eball
Ġinj uries
Ġaut o
ĠWin ter
ĠShort cut
ĠLu x
ĠFrancis co
ĠESP N
6 8
k o
z ad
Ã ¼
Ġt alks
Ġa ud
he im
Ð½ Ð¾Ð·
ĠL ively
Ġl oved
ÑĨ Ð¸Ð¹
ap y
ab ama
ĠÐł ÐµÐ´Ð°Ðº
Ġpl ays
ĠAd am
Ġch air
Ġ9 7
ĠÐ° ÑĤÐ°Ðº
ĠSk oog
ĠDo es
af e
ĠBu zz
Ġhealth y
Ġsk in
ĠPart ner
Ġpresent ed
Ġjournal ists
ĠCop ied
Ġlinked in
ĠYank ees
" :
Q adir
n ab
p ur
t ech
ĠS E
ĠC ards
ĠC alls
ou l
Ġc uts
Ġin novation
ĠI CE
Ðº Ð¾Ð¼
ĠL ag
Ġh appy
ĠH S
ĠH ouston
Ñĭ Ðº
ĠG lob
ÐµÐ½ ÐµÑĢ
est ones
ly n
Ġr enew
ist ent
Ġbe at
ĠÑĢ ÑĥÑģ
Ġal bum
Ġsh own
ĠPh oenix
Ġim ports
ĠÐĹ Ð¸Ð¼Ð½
ĠÐ¢ ÐµÐ»
ĠNot ices
ĠPre view
ier y
Ġresearch ers
Ġ201 2
Ġfeel ing
ĠÐļÐ¾Ð½ ÑĤÐ°Ðº
ĠBirth day
Ġdescrib ed
ĠÐ·Ð°Ð´ ÐµÑĢÐ¶
Ġinaugur ates
ĠTenness ee
O pens
n ama
u ation
u ter
ĺ ħ
Ġt able
ou g
Ð» Ð¾Ð½
ĠF IN
ad s
ĠJ ess
ch ie
our ke
Ð¾Ñģ ÑģÑĤÐ°Ð½Ð¾Ð²
Ġres ign
Ġde part
Ġus es
ict on
air y
ix el
app ing
AN CE
ĠChar itable
Ġdevelop ed
Ġexp ansion
Ġ199 9
Ġallow s
Ġhon ey
ĠÐ¾ÑĢ Ð³Ð°Ð½
ĠÑĩÐµÑĢ ÐµÐ·
ĠPIC KS
b ikes
k h
z ing
on av
ĠS ino
Ġc ool
ĠM utual
ĠB aby
ĠF ont
ĠW ine
ĠW BO
ĠD i
ĠE astern
ĠE gypt
ĠJ ud
ĠÐ¿ Ð¾Ð¶
ut ures
ĠK eral
ÐµÐ» Ñı
ĠÐ¿ÑĢ Ð¸Ð²
mit s
Ġserv ed
ann els
ĠDis asters
Ġass ess
Ġass ists
Ġgr ap
ĠÐºÐ¾Ð½ ÑĨ
Ġexpl ained
Ġadv is
ĠDirect ors
ĠAct ress
Ġfac es
ĠÐ±Ñĭ Ð»Ð¾
ĠPal m
merg ing
Ġeduc ational
ĠMary am
ĠOl of
Ġfre qu
Ġsusp ends
ĠWR KF
Ġgovern or
Ġdisapp eared
ĠMult imedia
ste in
ĠÑģÐ¾ÑĤ ÑĢÑĥÐ´
K ings
d es
e en
l ig
r an
r ig
ĠP os
ĠP sych
Ġw arm
Ġp icks
ĠR ay
ĠR iaz
ĠPr im
ĠSc reens
ĠÐ¡ Ð°Ð¼
Ġpl ant
ĠAr rest
ens us
Ġsp ring
ĠAl abama
Ġsc ores
Ðŀ ÐĴÐŀ
ĠOr leans
ath y
Ġinst itut
Ġgu arant
ðŁ Ļı
Ġlist en
ĠPakistan is
co e
ĠCook ies
ìĿ ĺ
ĠÑĤÑĢ Ð°Ð³
Ġdrug s
ĠPent icton
ĠOtt awa
I O
P ak
l ass
n oon
¸ ı
ï ¸ı
al ore
ĠF ires
ĠR DA
ĠR ourke
ad i
Ġst ands
Ð¾Ð³ Ð¸
Ð¾Ð´ Ð°ÑĢ
aw ks
OR T
ĠÐ¿Ð¾Ð´ Ð´ÐµÑĢÐ¶
ĠÐ¯ ÐºÐ¾Ð²
EX T
Ġexperi ences
ĠBuild ing
ĠÐ¼Ð¾Ð³ ÑĥÑĤ
àµĢ âĢĭ
ĠWich ita
O K
W NI
g ener
y m
z i
Ð¾ ÑģÐº
Ġs qu
ĠC easefire
Ġc ough
ĠM OT
ĠM Äģ
ĠI RA
ĠG re
Ġn ine
ĠU WF
Ġcom fort
ÑģÐº ÑĥÑİ
ack et
ors hip
Ġsp oke
Ġch ampions
ĠÐŁÑĢ Ð¾Ð³
Ġdr ink
Ġdr ivers
Ð¾ÑĢÑĤ Ñĥ
Ġleg isl
ĠÑģÐ» ÐµÐ´
ĠAnn ual
Ġjournal ism
Ð¸ÑĢÐ¾Ð² Ð°Ð»
ĠRelations hip
Ġwel come
ĠÐ¿Ð¾ÑģÐ»ÐµÐ´Ð½ Ð¸Ðµ
Ð¡Ð¢ Ðĺ
ĠLuck now
ĠÐľÐ¸ÑħÐ° Ð¸Ð»
ĠÐĴÐ°ÑģÐ¸Ð» Ð¸Ð¹
onav irus
ĠKeral a
' ,
p ers
or ry
at ched
Ġc opyright
Ġp and
ĠD od
ĠD ave
Ñı Ñģ
iv ia
ĠV ID
Ð°Ð½ Ñĭ
ĠPr esent
ĠÐĴ Ð°Ð»
ĠSp irit
ĠEx am
Ġout door
ĠLe ft
ĠÐĺ ÑģÑĤÐ¾ÑĢ
Ġsc en
ĠRead ing
ron ics
pert ies
Ġtrad ers
Ġsom etimes
iven ess
ĠMic ros
Ġchang ing
ĠPark er
ĠGl en
ĠVict ims
ĠRespond ing
ĠJa ipur
Ġpurch ase
Ð¸Ð»Ð¾Ð¶ ÐµÐ½Ð¸Ñı
itc oin
ĠÐ§Ð¸ÑĤ Ð°Ð¹ÑĤÐµ
ĠTAT A
c ing
g ary
i us
ł ì
at ar
ÑĢ ÐµÐ±
Ġc raft
ĠB ike
Ġb ull
ĠU A
ĠU tt
ĠK G
ist ons
ĠTr uth
ÑĪ ÐµÐ½
ra h
ĠCl oud
ĠPro jects
ĠEx tra
Ġch at
ph one
ĠBl ake
Ġ7 6
ÐµÐ³ Ð¾Ð²Ð¾ÑĢ
ĠWe alth
ÐºÐ° Ñħ
Ġcons ent
ĠScience Daily
Ðĵ Ð¾Ð´
Ġfilm s
Ġrele vant
ĠMer ck
Ġra ise
ĠShah zad
Ġburn t
ĠÐĹÐ°Ð¿ Ð°Ð´
K hel
Ê »
à ®
Ġ ê³
Ġt im
Ġa udio
Ð¸ ÐµÐ¼
Ġf ather
ĠN AT
le ft
Ġp ack
ĠB ell
ĠB itcoin
ĠW TA
Ġd ig
ĠE ach
us ter
ĠG ogi
Ð¾Ð² ÑģÐºÐ°Ñı
Ġg ains
Ġ3 00
ÑĨ Ñĭ
ĠÐº ÑĥÑĢÑģÐµ
Ð¾Ð» Ð¾Ð´
act ers
ĠCh rome
Ð¾Ñĩ Ð¸Ðµ
Ġar ch
ĠIns urance
Ġpass ing
ĠRo chester
Ġdel ay
Ġown ers
ĠDraft Kings
ipp ers
Ġtri ed
ĠNCAA F
ĠCy cle
ĠChrist ian
ĠÐ¿ÑĢÐ°Ð² Ð°
Ġalleg edly
Ġdocument ary
ĠAfghan istan
ĠGw adar
ĠMÄģ ori
ĠMicros oft
Khel ta
1 50
d ate
i ors
k ins
w orth
ê ¸
Ġ î
ĠS el
ed e
ic ial
ĠP eb
ĠP ics
Ġf ailed
ĠB ears
ĠW J
ĠW aste
ĠD h
Ġd omin
Ġh or
Ð¾Ð² Ð¸Ñı
ust ody
ĠÐ¿ÑĢ Ð¾ÑģÐ¼Ð¾ÑĤ
ĠCom ing
ĠÐ¼ Ð½
ĠAn th
Ġ6 4
ĠAl ph
pr ising
ĠCal gary
ĠChe at
Ġspe aking
ĠAut om
Ġallow ing
ipp ed
ipp ets
ĠMer c
Ġ36 36
ĠMur mu
ĠOffic er
ĠÐ¿Ð¾Ð³ Ð¸Ð±
ĠRic hard
Ð½Ð°ÑĢ Ð¾Ð´
ĠGD P
Ġpattern s
ĠÐ¾ÑĤÐ²ÐµÑĤÑģÑĤÐ² ÐµÐ½Ð½Ð¾ÑģÑĤÐ¸
6 1
8 3
9 0
r imin
² ½
Ġ ]
Ġt ips
ĠS EC
ĠT rib
ĠP istons
Ġc aught
et her
ĠL ew
Ñı Ð¼Ð¸
Ð² Ð¸Ð½
ÐµÑĢ Ð´
Ġy ards
and el
ĠÐº Ð¾Ð³Ð´Ð°
Ġhe avy
ĠÐŀ Ð½
ĠSh ock
ĠSh orts
Ġ4 7
Ġ5 3
Ġar g
ÑĥÑĢ Ð½
ĠÐ²Ñĭ Ñģ
Ġà¤ ķ
Ġrequ ires
ĠWild fire
Ġfocus ed
OL OG
ĠMatt hew
ĠÑģÐ°Ð¼Ð¾Ð» ÐµÑĤ
ĠÐ¾Ð±ÑĬ ÐµÐ¼
Ġenvironment al
Ġsurv ivors
ynam ic
ĠBey ond
ĠÐ¾ÑģÐ² Ð¾Ð±
ĠWBO I
7 00
I LL
S O
a e
´ Ģ
í ĺ
ĠT ok
Ġf emale
Ġb aby
ĠW ITH
ĠL ar
ĠL aun
Ġh aven
ĠG AM
Ġe ye
ip eg
ook ie
ĠSc ions
âĢĿ ,
ĠInd ust
ĠÐĿ Ð°ÑĪ
ĠAn ton
ber t
Ġch a
Ġch oice
Ġcomp ly
ÑĢÑĥ Ð¶
Ð»Ð¸ Ð²
Ġrec ords
iff er
Ġsm oke
Ġtem porary
Ġlaun ched
Ġjoin ed
Ġte ach
Ġcontrovers ial
ĠWarn er
ĠPres ents
ĠLoad ing
htm l
ĠNAT O
ĠPeb ble
% ,
P ost
P DF
ĠA ge
re ll
Ġc ash
le c
il ience
ĠI CC
ĠE UR
id i
ĠG od
ĠSt ew
ÑĨ Ð¸Ð¾Ð½
ell ers
Ġup coming
ĠDe S
Ð¾Ð± Ð¸Ð»
Ġcomp ared
Ġwe ap
Ð°Ð¹ Ð½
pr ises
ĠÐĳ ÑĢ
ĠZ ak
Ġinvest ments
Ġlaw s
ĠAdv enture
Ġaccess ing
ĠMex ican
Ġreported ly
ipp ing
ĠÐ¼Ð°ÑĤ ÐµÑĢÐ¸Ð°Ð»
ĠMot or
ĠSch ol
ĠAlex a
ĠGard ening
Ð¼ÐµÑĢ Ð¸ÐºÐ°Ð½
ĠWinn ipeg
anch ise
ĠÐ¾ÑĤÐ¼ ÐµÑĤ
ĠBund le
ĠRas coe
ĠBron cos
6 5
A l
n i
p ublic
in clud
ĠC ovid
ĠA head
Ġw ins
Ġf ix
ĠN C
ĠI ra
Ġm ental
Ġh arm
ĠH its
Ġn ature
Ð°Ð½ ÐµÐµ
à´ Ĺ
og ue
ĠÐ¿ÑĢ ÐµÐ¼
ĠUs er
ĠÑĤ ÐµÐ¿
Ġk eeps
Ġsh ut
... '
ĠÐĳ ÐµÐ·
Ġdo z
Ġ9 3
ĠDel iver
ĠDr iver
Ġlaw makers
Ġadv anced
Ġchar ge
ĠPower ful
Ġpower ful
Ġspe aks
ìĿ ¸
Ġask ing
Ġearn ed
ĠSn ippets
ograp hics
ĠBang alore
ĠSum mer
Ġstrateg ic
Ġansw er
Ġvacc ines
Ġcas ual
ĠREL ATED
ĠÐ¼Ð» Ð½
support ed
ĠÐ¿ÑĢÐ¾ÑģÐ¼Ð¾ÑĤ ÑĢÐ°
, '
. âĢĻ
C opyright
R P
c hen
Ĭ ¤
Ġt alent
an th
ĠC oin
ĠT odd
ĠN a
ĠM un
om et
Ġm aterials
ĠL ost
Ġh its
Ġh iring
ĠSt an
Ġst ruct
Ġst reet
ĠÐ¸ Ð³
.. ..
Ġpr ivacy
Ġpro per
ĠÐľ Ð±
Ġag ent
Ġad s
ort g
ĠUS E
ĠÐ¸Ð· Ð¼ÐµÐ½
ĠÐ¸Ð½ÑĦÐ¾ÑĢÐ¼ Ð°ÑĨÐ¸Ñı
Ġoffic ers
Ð¸Ð³ ÑĥÑĢ
ION S
ĠRock y
Ġalong side
Ġprop os
ĠTw in
ĠEarn ings
Ġexact ly
ĠRail way
Ġpict ure
ĠGM T
ĠAlber ta
ĠUtt ar
e ers
u ly
ĠS BI
Ġs ize
ĠC ott
ĠT y
ĠT icket
Ġw ord
as a
ĠM ove
Ð» Ð¸Ðº
ĠB omb
Ġb oy
et own
Ġfor um
ĠÑģ Ð¾ÑģÑĤÐ¾
Ð¾Ð½ Ð¾Ð²
Ð¸Ð» Ð¸ÑģÑĮ
ign s
ps hire
Ġì ķ
ĠMin ing
Ġind ust
min ton
Ġstr ategy
Ġend ed
ĠÐ½Ð¾Ð² ÑĭÐµ
ĠComm anders
ĠSund ance
Ġrest aur
ĠÑĪ ÑĤ
Ġequ ipment
ĠTri p
ĠÑĥÐ´ Ð°ÑĢ
Ġclaim ed
ĠCross word
ĠÐłÑĥÑģ ÑģÐºÐ¸Ð¹
pay ers
Ġdemon str
ĠÐļÐ¾Ð½ÑĤÐ°Ðº ÑĤÑĭ
Ê» i
' d
U C
m ond
n ight
Ġ ign
en al
ĠS etting
Ð½ ÐµÐµ
it z
al g
ĠC ams
Ġc ast
Ġw ide
ĠM uch
Ġp air
ĠB SE
Ġb anks
Ġm ic
Ġm and
ĠD ocuments
ac er
ĠG ender
Ġl osing
ĠJ ac
ÐµÐ½ Ð¸Ñİ
ch ang
ĠK at
ĠÐº Ð¸Ð½
ĠÐº Ð»ÑĥÐ±
ĠÐŁ Ð°Ð²
ĠTr uck
ĠTh ough
ĠAl aska
Â» :
ĠÐĲ Ð¼
ĠÐ¤ Ð¸Ð»Ð°Ð´ÐµÐ»ÑĮÑĦ
ĠEmail s
ĠChe ats
Ġhigh est
Ġdr iving
ĠInf ographics
ĠHam pshire
ÑĢÑĥÐ¿ Ð½ÐµÐ¹
Ġocc urred
iab ility
ĠSon ia
ĠKing dom
ĠHawai Ê»i
ĠArab ia
ĠShap iro
ĠVID EO
+ )
n ominated
t ics
ê ´Ģ
Ġf ile
ĠR oman
ĠL iber
ĠU PR
im ent
Ġg ain
Ð¼ Ñĭ
un ction
Ð°ÑĤ ÑĥÑĢ
igh ter
ve ment
end ants
Ð°Ð» Ð¸ÑģÑĮ
erv ation
ĠÐ· Ð²
Ð°Ðº Ð°ÑĤÐ°ÑģÑĤÑĢÐ¾ÑĦ
Ġwe alth
ĠÐĳ ÑĥÐ´ÑĮ
ĠÐĳ Ð°ÐºÑĥ
ĠGu jar
ĠBe en
Ġâ Ĺ
ĠÐķ Ð¡
Ġthem e
ĠSur ge
Ġshar ing
Ġed ited
ĠJoh ns
ĠLear ning
Ġtri p
Ġsuccess ful
Ġi Ph
ĠConf irm
ĠKore a
ĠBad minton
ĠWM UK
ĠChall enge
ĠBald oni
ĠMo ore
google logo
Ġprob ably
ĠBLOG S
) ?
c ons
l ies
m und
n ew
ë ¡
Ġ ?
Ġa im
Ð° ÐµÐ¼
it an
ot ic
Ð¾Ð² Ð¾
ĠÐ² ÐµÑĢÑģÐ¸Ñı
ĠK y
ĠÐº Ð¾ÑĢ
ĠÐº ÑĥÐ»ÑĮÑĤÑĥÑĢ
Ġan aly
ĠEn erg
ra ham
Ġcr ypt
ie v
und own
Ð¾Ð± ÑĢ
ĠÐĺ Ð³ÑĢÑĭ
ĠÐĳ Ð¸Ð·Ð½ÐµÑģ
Ġì ŀĲ
ĠClass ics
Ġjust ice
Ġrem ained
ĠOp inions
Ġshow ing
Ġpass ed
ĠGo al
Ġelect ions
Ð¸ÑĩÐµ ÑģÐºÐ°Ñı
Ðĳ Ðļ
ĠMer ch
Ġchang ed
Ġpredict ions
Ġcreat ive
Ġansw ers
ĠAR T
Ġstre ak
àµĤ âĢĭ
eleb ration
ĠâĹ ı
H L
p ower
£ Į
§ Į
² ĺ
ë £Į
Ġ æ
Ġt ack
ĠS ox
ĠS anders
Ñģ Ð¾Ð½
ĠC inc
ĠT ig
ĠT errorism
Ġc at
Ġw id
Ġf lying
Ġo ptim
Ġb orn
Ġ2 50
ĠO ri
Ġn or
ĠJ al
ĠÑģ Ð½
ia h
ĠÐļ Ð°ÑĤ
ĠÑĤ ÐµÐ»
Ġres ur
ĠOn t
ĠCon ference
tic ip
inn ati
Ġbec oming
ĠÐ¿ÑĢÐ¾ Ð¸Ð·
Ð¸Ð³ Ð¾ÑĢ
ĠTrans l
Ġsk ills
ĠVal ue
Ġexp and
ĠInf l
Ġprot est
Ġfac ility
ĠRet irement
ĠìĿ ĳ
RI ES
wh ere
ĠCard inals
ê³ ł
ĠReturn s
Ġassoci ated
Ġdoct or
Ġbal ance
Ġdom estic
M ed
l on
° ë
ķ ë
ļ Ķ
Ġt ight
on ed
es is
ou th
ĠB AJ
ĠF all
ĠF alls
ĠR ug
Ġm ourn
ĠD ish
ol ves
Ġd estination
Ñı Ñī
Ñĭ Ñĩ
Ġn ative
Ġl oyal
ÐµÐ½ Ð½Ð¾Ðµ
ĠIn nov
ut rit
ĠÐ¾ ÑģÑĤ
Ġex it
ĠÑĢ Ð¾Ð»Ð¸
Ġtr uth
ĠOn ce
ĠPro gress
Ġus ually
uc lear
ĠÑģÐ°Ð¹ ÑĤÐµ
Ġë ³´
olut ely
ĠðŁ ļ
Ġcent ral
Ġappear ance
Ġcontribut ed
Ġcal endar
ĠCart oon
oust ic
ĠWel come
unn y
Ġnomin ated
Ġneg oti
Ġí Ļ
Ġlo ans
nab is
Ġìķ ½
p ut
½ ì
ľ ê³
Ġa wards
ar cer
Ġs itting
ĠP ad
Ġf ell
ĠN ature
ĠM u
Ð» ÐµÐ¶
ĠB ab
Ġin nov
ĠR ap
ĠR undown
et ts
ĠL ocation
ĠH ello
Ð°ÑĤ Ð¸Ð²
ĠK D
ab h
ĠÐĴ Ð¾Ð»
ĠÐŀ Ðŀ
Ð¾Ñģ Ð¾Ð±
Ġpl us
ĠÑĥ Ð¿
Ð¸Ñģ Ñģ
cl ing
Ġcl in
Ġcl im
Ð¸ÑĨ Ð°
Ġem b
ĠSe an
we ets
ĠDis cussion
Ġdef ensive
Ġorder ed
ĠEnvironment al
Ġreturn ing
ĠÐ±Ñĭ Ð»Ð°
Ġcover ed
ê° Ģ
ĠIND UST
Ġi OS
ĠSpe akers
ĠCorpor ation
ĠÑģÐ¾Ð¾Ð±Ñī Ð¸Ð»
ĠCON N
ĠÐ³ÑĢ Ð°Ð¶Ð´
IND RA
Ġprim arily
ĠÐ±Ð¾Ð»ÑĮÑĪ Ðµ
Ġcir c
Ħì Ĺ
bers ecurity
ĠMAH INDRA
Ġels e
ĠCinc innati
ĠBAJ AJ
9 18
E m
f ast
Ĺ Ī
Ġs leep
ĠC OM
ĠT ata
ic ed
ĠM ind
ĠM ode
ĠB at
ĠF at
ĠD rug
ĠH idden
ad ed
ig en
ur a
ir ates
ĠJ ob
Ð² Ð°ÑĤ
ĠÑģ ÑĢ
ul ly
ÐµÑĢ ÐµÐ½
Ð· Ð¾ÑĢ
Ġ3 8
ant age
Ġtr ends
aw ay
Ġim ages
ĠÐ¢ Ð°Ðº
ĠRes ult
ĠRes erve
Ġì ĥģ
ĠÐ¸Ð· Ð¼ÐµÐ½ÐµÐ½Ð¸Ðµ
Ġserv ing
Ġab ortion
Ġins ight
´ì Ĥ¬
Ġbas ic
Ġbas is
ĠìĿ ´ì
ĠCelebr ities
ĠSy ria
Ġìł ķë
Ġìł ľê³
ĠJim my
Ġrep eat
ĠHD FC
Ph oto
ĠCompl aint
Ġrecomm endations
ĠDaniel le
ĠProduc ts
Ġí ĹĪ
ĠNar ayan
Ġê ²½
ĠDiv ision
Ġter rit
ê¸ ī
íĺ ¸
ĠIra q
ë¡ ľë
ĠìĿĳ ê¸ī
ĠINDUST RIES
Ġìłľê³ µ
I LE
¼ ìĿ
ì ĺģ
ì ļĶ
Ŀ ½ì
Ŀ ¼ìĿ
ĠS ant
ĠP otential
Ġc ylind
ĠR os
Ðº Ð°Ñı
el er
ig ate
ÐµÐ½ Ñī
Ð¾ÑĢ Ð¾ÑĪ
ĠÐº Ð°ÑĢÑĤ
ĠÐŁ Ð¾Ð±ÐµÐ´
ee per
Ġpr ote
ÑĪ ÐµÐµ
ks h
Ġpro perties
Ġtr ig
Ġtr ending
ĠÐļ ÑĢÑĥÐ¿Ð½ÐµÐ¹
let e
Ġk id
Ð°ÑĨ Ð¸Ñİ
ĠPh one
ĠMar vel
ĠFor g
ĠLe on
ĠDon ations
ĠÐ¢ ÐĴ
Ġ7 41
ĠÐ²Ñĭ Ð·
Ġrem ember
Ġeff iciency
Ġass ets
ĠÑįÑĤ Ð¾ÑĤ
Ġë Ŀ¼ìĿ
Ġop inions
ĠAb laze
ĠSU P
ĠConcer ts
Ġactiv ity
ĠRan chi
Ġgener ation
Ġdev ices
ĠCas inos
ĺìĿ ĺíķĻ
Ġì£¼ ìĿĺ
´ìĦ łì
Ð°ÑĢÑĮ Ð³ÑĢÐ°Ð´
ĠSav ed
ĠRah way
se ason
ĠMcD owell
Ġê°ľ ìĿ¸
Ġê°ľ ìļĶ
ĠìĹ °ë
ĠìĪ ĺìĿĺíķĻ
ĠMs d
ĠHurric ane
ĠPatri ots
íĻ ©
ìĸ´ ë¡ľë
Ġindepend ence
Ġhoney pot
Ġê³ ĦìĹ
ĠìŀĲ ë£Į
ĠÐ¿ÑĢÐ¾Ð¸Ð· Ð¾ÑĪ
ê³ł ë¬¸
Ġë³´ íĺ¸
ĠíĻ Ī
Ġìķ½ ê´Ģ
ĠCONN ECT
Ġìĥģ íĻ©
ĠìĿ´ì ļ©
Ġìłķë ³´
ĠíĹĪ ê°Ģ
Ġê²½ ê³łë¬¸
ìĺģ ìĸ´ë¡ľë
Ŀ½ì ²ĺ
ĠëĿ¼ìĿ ´ìĦłì
ĠìĹ°ë Ŀ½ì²ĺ
Ġê³ĦìĹ ´ìĤ¬
ìĺģìĸ´ë¡ľë §Į
ĠëĿ¼ìĿ´ìĦłì Ĭ¤
D epth
G etty
T C
Ġt ournament
ĠS K
ÑĤ Ð¸Ñı
is her
ĠM illion
ĠB E
ĠR FK
il o
ĠD ol
Ġd ocuments
ĠH ad
ĠH istor
op her
ĠÐŁ Ð°ÑĢ
eb ack
ell er
ra f
Ġ5 1
ĠEx clus
Ġ6 31
ru ck
Ġen able
Ġapp eal
ĠRec ogn
ĠMan ufact
Ġstr ict
Ġbec omes
ÐµÐ¶ Ð¸Ð¼
Ġsee ing
ĠCor onavirus
ĠÐ¦ ÐµÐ½Ð°
ĠÐ¦ Ð°ÑĢÑĮÐ³ÑĢÐ°Ð´
ĠRem ember
bur g
Ġfamil iar
ĠTour ism
ĠÐ¼Ð°ÑĤÑĩ ÐµÐ¹
ocket s
ĠBrit ish
ĠOT T
Ġfest ival
ĠGonz aga
ĠSout heast
r ay
r un
Ġt om
al yst
ÑĢ Ð¸Ð¹
ĠC am
Ġw ww
Ġf ish
Ð» ÐµÐ¼
Ġd oub
ac her
Ġst ake
ĠV I
ĠCh ang
ĠÐ¿ÑĢ Ð¾Ð¹
ĠÑĢ ÑĥÐ±Ð»
ĠÐ· Ð´
ĠCr edits
ĠÐ¼ Ð¸Ð»Ð»Ð¸
Ġsp end
ĠÐ³ Ð¾ÑģÑĥÐ´Ð°ÑĢ
ĠDe h
ĠCol omb
Ġen v
ĠPre v
ĠOff beat
ĠÐ½Ðµ Ð¾Ð±
Ġsupport ing
ĠÐ±ÑĥÐ´ ÑĥÑĤ
Ġlist ener
aged y
dition ally
ĠÑģÐ¾ÑģÑĤÐ°Ð² Ð¸Ð»Ð¾
Ġconnect ion
ĠMil estones
Ġdecl ares
ĠÐ´Ð¾Ð¼ Ð°
Ġconcern ed
ĠTechn ologies
ĠChall eng
ĠRestaur ant
ĠÑĢÐµÐºÐ»Ð°Ð¼ Ñĭ
Ġaccur acy
arcer ated
) ;
p ool
z y
Ġa part
ĠC C
Ġw ait
ĠN ative
Ġd irection
us etts
im a
ri age
ĠÐº ÑĤÐ¾
ĠTh er
ĠPr ince
ine a
ĠAr ena
ach usetts
à¤ ¸
ĠÐĳ Ð¾ÐºÑģ
ĠHealth y
Ġsc ored
25 77
Ġdis miss
Ð¸ÑĨ Ð¸Ð¸
Ġpre c
Ġso ftware
ĠGr ays
Ġins ights
Ġche m
Ġfe es
Ġfe els
ĠPat na
Ġform at
Ġwatch ing
ĠRoy als
Ġens uring
Ġdev ice
Ġtrack ing
ĠOsc ars
ĠMS D
ĠCateg ories
ĠRegul atory
ĠÑĢÑĭÐ½Ð¾Ñĩ Ð½Ð°Ñı
Ġrul ing
Ġâľ ķ
ĠHomeless ness
H ow
M an
W hen
f air
r um
ĠS ams
ĠP en
ĠD J
ĠH E
ul ed
ĠÐ² Ð¾Ð´
Ð¾ÑĢ Ð¾Ð½
Ġv ast
Ġv ision
ĠY ellow
ÑģÐº Ð¸Ð¼
ost alg
ÐµÐº ÑģÑĤ
ĠÐ¼ Ð°ÑģÑģ
Ġch annel
ĠÐ± ÑĢÐ¾Ñģ
iss ions
Ġind ependent
ĠMarket place
ĠÐŁÑĢ ÐµÐ´
Ġgu ard
ĠÐµ ÑģÐ»Ð¸
àµģ à´Ĥ
Ġpos itions
Ġkn ew
rad un
ĠColumn ists
ÐµÐ¶Ð´Ñĥ Ð½Ð°ÑĢÐ¾Ð´
Ġ741 04
D uel
o os
w ise
w orks
Ġt re
at aka
ĠC ST
ĠT er
ĠT iger
re ck
as ion
ĠB illion
ĠR ut
ĠD ogs
Ñĥ ÐºÐ¾Ð²
ĠH ab
Ġr ich
Ð¼ Ð¸ÑĤ
ĠK arn
ĠÐ¸ ÑģÐº
ĠÐ¡ ÐµÐ³Ð¾Ð´Ð½Ñı
ĠAr m
ĠCr isis
Ġsh ift
Ġse es
ĠÐºÐ¾Ð¼ Ð¼ÐµÐ½ÑĤÐ°ÑĢ
ĠRead s
Ġsec ure
ĠElect ric
ĠÐ¡ÑĤ ÐµÐ¿
Ð´Ñĥ Ñħ
ĠIND IA
ĠCamer on
ĠWhats app
ĠTrust ees
ĠEag le
ĠMa ver
Ġtechn ical
ĠJeff erson
Ġpark ing
ĠPers pect
Ġcorre ct
ĠiPh one
ĠDeh radun
6 7
S W
a ire
l ay
Ð ¦
ĠS and
an es
ĠC lean
ĠF amil
ĠD ub
ĠL am
ĠL ee
Ñĩ Ð¸
Ġr ule
ĠK iss
ĠK UN
ÐµÑĢ Ð²
and an
ĠTh ose
art ers
ĠÐ¿ÑĢ Ð¾Ð±
av an
cc ane
ind ed
ĠÐł Ð°Ð´Ð¸Ð¾
enc ing
Ð°Ð»ÑĮ Ð½Ð¾Ð¼
ĠÐ¸Ð· Ð±
ĠGu inea
ĠSe ven
Ġsec ret
ĠZ ero
uc ing
ĠHigh way
esp erson
Ġprof ile
ĠMap s
Ġart ists
Ġest ate
Ġrecord ed
ĠLI ST
Ġbook s
Ġcustom er
ĠOffic ial
ĠMass achusetts
Ġloc ations
ĠÐĴÐ°Ñģ Ð¸Ð»ÑĮ
ĠNeg ative
ĠAnsw ers
ĠStew art
ĠGujar at
ĠJohns on
ccane ers
p ic
r ac
Ð° Ñī
ĠP GA
ĠF i
ĠF uel
Ġm er
Ġm ach
ĠL iter
ot ed
ĠThe me
ĠÑģ Ð¸Ð»
à´ ¡
ĠÑĢ ÐµÐ·ÑĥÐ»ÑĮÑĤ
Ġal one
erv es
ĠÐ» ÑĥÑĩÑĪ
erm an
ĠÑį ÑĦ
ĠSign ific
ÑĤÐ¸ ÑģÑĤ
Ġact ing
Ġhigh lights
ĠDis rupt
AN I
Ġwhere ver
ĠPat rick
iat ric
Ġcomplet ely
Ġval ues
ĠTom orrow
Ġsignificant ly
ĠCD C
ĠÐ¼Ð¸Ð½ ÑĥÑĤ
ĠFan Duel
ĠLIF E
Ġsepar ate
rel ated
ĠÐ¢ÐµÐºÑĥÑī Ð°Ñı
abin et
ĠÐ¤Ð¸Ð»Ð°Ð´ÐµÐ»ÑĮÑĦ Ð¸Ð¸
ĠART IC
igen ous
ĠÑĢÑĥÐ±Ð» ÐµÐ¹
O ur
V e
Ġw ickets
Ġf ear
ĠB RE
ĠR ash
Ġm ail
ew ork
Ġd uty
ĠH u
Ġth er
ĠG R
Ġre asons
Ġg lob
Ġst uff
ĠV illage
Ð°Ð½ ÑĮ
ak sh
Ð¸ÑĤ Ñĥ
ĠTh r
ack i
ĠAd ditionally
ign ment
ĠCl ark
mer ce
ĠSub scriptions
Ð°Ð´ Ð»ÐµÐ¶
ĠÐĳ ÐµÐ»
Ġreport ers
ĠStud y
Ðķ Ðł
back s
Ġopen ed
ĠÐ±Ñĭ ÑĤÑĮ
Ġob ject
Ð¸Ð± Ð¸ÑĢ
Ġ200 9
Ġcent ury
ĠWork ers
ĠMagaz ines
ĠChrist mas
ĠDemocr ats
Ġdev ast
ĠMary land
ĠÐ¿Ð¾Ð»ÑĥÑĩ Ð¸Ð»
amm u
Ġdeep ly
aut iful
ĠOrigin als
Ġbelie ves
Ġathlet es
? âĢĿ
L INE
P al
S he
U D
d em
k ey
z es
Å Ł
ä ¸
Ġ Î
in um
Ð½ Ñĥ
it uary
Ġw all
Ġf oster
ĠB urn
Ġb att
ĠW ere
ĠD oug
ĠD iffer
ĠL O
Ġh ur
Ġh alt
am am
ĠH ouses
ĠâĢ ĭ
Ð°ÑĤ ÐµÑĢ
ĠEn joy
ĠÐ· ÐµÐ¼
Ġcr ed
ĠEx act
ĠPh ill
ĠÑĩ ÐµÐ¼Ð¿Ð¸Ð¾Ð½Ð°ÑĤ
ĠÐ¤ ÑĢÐ°Ð½
Ð¸Ð· Ð¼
oss ible
Ġdis abilities
ĠNot e
Ġthan ks
Ġmar ks
urr encies
Ġatt end
Ġfin ance
ĠRep ly
ĠBu ccaneers
ĠÐ¶ Ðµ
ĠMemb ers
ĠBar ry
Ġprom pt
ĠBec ause
ĠDef ence
estin ations
Ġtarget s
Ġtalk ing
ĠMem or
Ġorigin ally
ĠÐ½Ð°Ð· Ð²Ð°Ð»
Ġexperi enced
Ġintro duced
ĠÐĵÑĢ Ð¸Ð³Ð¾ÑĢ
Ġargu ments
ĠCott man
Y S
c ale
h ome
m ine
Ġ âĢĻ
in ers
es y
ĠS ims
ĠC S
ĠN D
ĠN I
ĠF il
ĠH orn
ac ity
Ġth ank
ĠO ak
Ġe g
ĠÐ² Ðº
ĠV ice
st an
ĠÐľ Ð°ÐºÑģÐ¸Ð¼
ĠÑĢ Ð°ÑģÐº
ĠCl ippers
cl oud
ĠQ ue
ĠEm ily
Ġar med
ĠÐĿÐ¾Ð² Ð¾Ñģ
Ġsub mit
ĠÐķ Ðº
ĠEconom ics
Ġshow c
ĠRed uced
Ġappro ved
ĠProf it
Ġfre edom
Ġtechn ologies
Ġorigin al
Ġsat ellite
ĠBon us
ĠÐĶÐ¾Ð½ Ð°Ð»ÑĮ
ĠÐ°Ð²Ð¸ Ð°ÐºÐ°ÑĤÐ°ÑģÑĤÑĢÐ¾ÑĦ
Ve hicle
) {
v a
or age
ar re
it ely
Ġs un
ĠN on
ĠN ug
ĠB B
Ġin n
ĠW CCO
Ġm obile
ĠD ocument
ol is
ĠO cean
ro c
ul ate
ĠK iley
Ð¾ÑĢ ÑĥÐ¶
st one
st ream
à´ ¬
Ġit ems
ĠÂ £
ĠÐł ÐĳÐļ
ĠSh r
Ġpl enty
ĠÑĥ Ð¿ÑĢÐ°Ð²
Ġch oose
ĠBr unch
ĠBe ast
ĠTop ic
ĠIm pro
ÑģÑĤÐ² Ðµ
Ð°ÑĪ Ð¸Ð½
Ġfl ood
int end
ĠIntern al
arr en
Ġop ens
ĠÐ´ÐµÐ» Ð¾
Ġdead liest
ĠTim ber
Ġhon est
ĠFri ends
ĠAlex ander
Ġpoll ut
ĠSar ah
ĠNE PM
Ġdro pped
Ġinstruct ed
Ð¾ÑĢÐ¾ÑĤ Ð½Ð¾Ðµ
Ġdeg ree
Ġbatter y
ĠÐ¡Ð¿ÐµÑĨ Ð¿ÑĢÐ¾ÐµÐºÑĤ
Ġimpress ive
col or
ĠÑģÐµÐ± Ñı
Ġprofession als
ĠDod gers
ĠOnt ario
ĠRug by
ĠKarn ataka
M G
d ays
g ame
k n
æ ľ
Ġa imed
Ð½ ÐµÐ²
ĠA FP
ĠN ic
ĠN omin
Ġb attle
ĠR ose
ĠL anguage
ol id
el le
Ð¾Ð² ÐµÑĢ
ĠJ ammu
ĠÐ¿ Ð¸Ñģ
Ñĩ Ð¸ÑĤ
Ġst yle
ia ble
ĠK urt
ve ill
ĠRe action
ĠÑĢ ÐµÐ¶Ð¸Ð¼
ĠAd mission
ĠÐ· Ð°Ð²ÐµÑĢ
ĠInd ians
amil ton
ĠPh ys
cl es
Ð°Ð´ Ñĭ
we alth
Ġinc arcerated
ĠAg ri
Ġtrans l
Ġadd s
ĠOr ange
ĠDec rease
ĠIN F
Ġnear by
Ġtake off
Ð¿Ð» Ð°ÑĤ
Ġ201 3
ĠTar get
Ġdiffer ence
Ġfocus es
ĠCM S
ĠUnderwrit ers
Ġplatform s
bre aking
ĠGh az
Ġdiv ision
ĠCompet itive
Ġinflu ence
ĠÑĤÑĭ ÑģÑı
ĠÑįÐºÑģÐ¿ ÐµÑĢÑĤ
Ġgather ing
ĠCommod ities
ĠÑģÑĤÐ¾Ð» Ðº
ĠSteel ers
ĠLux ury
ĠLew is
Ġtom orrow
ĠGrays cale
7 2
N EW
P V
P ro
in al
Ġa ims
at hi
ĠT es
ĠT reat
ĠA ksh
re ts
Ġc art
Ġw restling
as ley
ĠI L
ĠD u
ĠL ig
Ġd raw
am as
ĠH art
ĠH ER
ĠH amilton
ĠSt ub
Ġr ush
od ies
à´ ¹
ri ate
ash es
ĠÐĿ ÐŀÐĴÐŀ
ĠBe asley
eng th
land o
ĠNot ifications
Ġqu ite
ĠChe m
Ġcons equ
ĠCo le
EN TS
Ġpass ion
Ġmonth ly
Ġ201 1
Ġred uced
Ġcomplet ed
Ġclass es
ĠPass port
Ġloss es
Ġreb els
Ġur gent
Ġcontroll er
Ġsav ed
Ġdoor bell
Ġreplace ment
ĠÑĢÐµÐ³ Ð¸Ð¾Ð½
utrit ion
ĠÐ³ÑĢÐ°Ð¶Ð´ Ð°Ð½
Ġenv oy
ĠAksh ay
G S
c y
r ate
r ange
Ġ ice
Ðµ ÑĦ
Ġs it
ĠC ITY
ĠP U
Ġw arrant
ĠB er
ĠB ern
ĠF our
ĠD ro
ĠE X
ÑģÐº Ð¸
Ġtr uly
ĠÐĿ ÐµÐ´
Ġun ion
Ġsu it
Ġfl ow
ĠFin anc
Ġfin ished
Ð²Ð°ÑĢ Ð´
ĠSm ack
els on
ĠOr lando
ĠNorth west
ern ame
Ġfr anchise
Ġ199 8
Ð¸ÑĩÐµ ÑģÐºÐ¸Ð¹
ĠHar v
Ġinvestig ations
Ġelectric ity
Ġfeed back
ĠÐ²Ð· ÑĢÑĭÐ²
Ġannounce ment
à¦ ¾
Ġcoun ter
ĠLyn n
Ġmention ed
Ġpand emic
ĠNug gets
ĠÐĿÐŀÐĴÐŀ Ð¡Ð¢Ðĺ
L e
m ax
Ġa ver
ic it
Ġc ore
ĠN A
le ball
Ġo pt
ĠF emale
ĠW il
ĠW orth
am ous
ect or
ÑģÐº Ðµ
ĠÐ¡ ÑĥÐ´
ĠCont rovers
Ġpl ume
ign ed
ens ed
ĠÑģÑĤ Ð°Ð»Ð¾
ÐĲ ÐĴ
Ġdis cl
Ġdis cussion
Ġco oper
ĠStud ents
ĠMag ic
Ġthink ing
ĠÐ±Ñĭ Ð»
ĠBack ground
ĠRE AD
ograp h
ĠBo ost
Ġdeb ris
ĠSim ilar
Ġrecogn ized
ĠÐ¿Ð¾Ð´Ð¿Ð¸ÑģÑĩ Ð¸Ðº
Ð¸ÑĤÐµÐ» Ð¸
ĠBox ing
Ġcompet ition
ĠWel don
ĠBal i
ĠÐĺÐ½ ÑĦÐ¾ÑĢÐ¼
Ġbeh av
ĠÐ¿ÑĥÐ±Ð»Ð¸Ðº Ð°ÑĨÐ¸Ð¸
ĠScreens hot
ĠÐ¡Ð¿ÐµÑĨÐ¿ÑĢÐ¾ÐµÐºÑĤ Ñĭ
veill ance
, âĢĻ
6 3
B OR
c r
er osp
es ents
al i
et es
Ġd er
ĠG il
ĠU pl
Ġe lev
ĠK ir
ĠV ern
Ð¸ÑĤ ÐµÑģÑĮ
ĠÐ¿ÑĢ Ð¸Ð·Ð½
Ġres istance
ĠÐĵ Ð°Ð·ÐµÑĤÐ°
ĠWh it
Ġsp aces
ĠMar ine
ĠAl um
tern al
Ġsc hed
Ð°Ð»ÑĮ Ð½ÑĭÑħ
ÑĢÐ° Ñħ
ĠÐ° Ð¼ÐµÑĢÐ¸ÐºÐ°Ð½
Ġsub s
ĠÐŁÑĢ Ð¾ÑĩÐ¸Ðµ
Ġac adem
AN D
Ġdef eat
ĠÐ±Ñĭ Ð»Ð¸
ĠPort folio
ĠÑĢÐ°Ñģ Ñģ
Ġpay ments
ĠChrist opher
Ġcaus ing
Ġsubscrib ed
ĠGovern or
ĠPalestin ian
Ġcateg ory
ÑĢÐ°Ð½Ñģ ÑĦ
Ġhol iday
Ð²Ð¸Ð¶ Ð¸Ð¼Ð¾ÑģÑĤÑĮ
ĠÐ¶Ð¸Ð·Ð½ Ð¸
ĠTig ers
ĠManufact uring
ĠÐ½ÐµÐ¾Ð± ÑħÐ¾Ð´
ĠÐķÐº Ð°ÑĤÐµÑĢ
erosp ace
B G
W M
r av
ing er
Ġf ashion
Ġb oys
ĠR ush
am ber
Ġre in
ĠTr ig
Ġtr end
Ġcon dition
ĠÐ· Ð°Ñģ
ĠÐĿ Ð¾
Ġacc ident
ĠÐ¢ Ð¾Ð¿
ĠÐĳ Ð¾ÑĢ
ĠÐ¸Ð½ Ð²ÐµÑģÑĤ
Ġdis p
Ġact ual
ĠAI R
Ġcons ecutive
ĠÐ¿Ð¾ Ñħ
ĠShe et
ĠNet her
Ġleg acy
Ġsup pl
Ġsim ple
Ġland scape
ĠGar age
ĠForum s
ĠÐ¿ÑĢÐ¸Ð½ Ð°Ð´Ð»ÐµÐ¶
ĠÐ´Ð² Ð°
ĠSever al
Ġbroad er
ĠSay ings
Ġhapp ens
Ġindic ates
ÑĥÐ¿Ð» ÐµÐ½Ð¸Ñı
J an
b el
Ð ®
ĠC AI
ĠT RA
ĠT alent
ĠP harm
Ġc ultural
Ġf iery
ĠB ry
ĠB JP
ĠF urther
ĠR isk
ĠG ib
ĠO w
ÑģÑĤ ÑĢÑĥ
ĠJ ama
Ġe yes
ment al
Ġst ructure
ĠK ia
if ies
ĠPr ivate
Ġv ersion
oun ter
Ð¸Ð½ Ð³ÑĢÐ°Ð´
qu ake
ĠÐľ Ð½ÐµÐ½Ð¸Ñı
ĠInd y
Ġk il
Ġsh ip
ech an
Ġwe ak
ĠÐ¢ ÐµÐ½Ð½Ð¸Ñģ
ĠPlay offs
ĠWith out
ĠÑĦ ÑĥÑĤÐ±Ð¾Ð»
ĠInst ant
Ġass ault
ĠRel igion
ten ance
Th at
ony m
ĠWork ing
Ð¸ÑĩÐµ ÑģÐºÐ¾Ð¹
ĠCelebr ations
ĠST E
Ġput ting
Ġpoint ed
ĠHam m
Ð¸ÑĤÐµÐ» Ñı
Ð½Ð¾ÑģÑĤÑĮ Ñİ
ĠPan ama
iab ad
Ġstreng th
Ġsum mer
ĠMont real
ĠÐ·Ð°Ðº Ð¾Ð½
Ġtemper atures
ĠRog ers
ÐĿÐĲ Ð¯
ĠMerc ury
ĠLIST EN
C N
b it
d y
h aps
l ers
p ir
r ich
er en
Ġt v
ĠC at
Ð» Ð¾Ð²
ĠB ou
Ġm yster
ĠL o
Ġd iet
ĠE ss
ur st
ĠO uts
ÑģÑĤ ÑĢÐ¾
ĠÑģ ÑģÑĭÐ»
oc a
ul ated
ÑĨ ÐµÐ½ÑĤÑĢ
ect ure
Ð°Ð² Ð¸Ð»
ĠCom es
ĠSh aun
Ġag reed
ĠCon g
ĠÐ± ÑĢ
ĠFor est
ĠÐ¢ ÐµÑħ
ĠApp ro
Ġdis rupt
ĠÐ¾Ð± Ñī
ĠZ one
ĠFl ag
ĠSec urities
Ġstud ies
ÑĨÐ¸ Ñİ
Ġprom ises
AS H
Ġclos er
Ġcoach ing
Ġrepr esents
Ġmoment um
ĠWrit er
ĠTem per
Ġmanufact uring
Ġcoun sel
ĠSher iff
ĠÐŁÐ¾ÑģÐ» Ðµ
ĠÐ·Ð°Ñī Ð¸Ñī
ĠâĨ Ĵ
Ġton ight
ĠJose ph
ĠAnth ony
ĠÑĤÐµÐ¿ ÐµÑĢÑĮ
9 1
Ġ ing
at ia
ĠC av
ĠC ampaign
ĠT N
ĠT ut
ĠP o
ĠM akes
Ð» Ð¾Ð²Ð¸Ñĩ
ĠB arn
ĠR am
Ġd ivid
ay a
Ñĭ Ð³ÑĢ
Ġn arr
Ġl iber
Ð´ Ð¾
Ġr ural
ĠÐ½ Ð¸Ð·
ĠRe ese
og a
Ġex erc
ĠÐ´ Ð¾Ð¿
Ð°Ð² ÐºÐ°Ð·
ĠÐł ÐµÐ³Ð¸ÑģÑĤÑĢ
ĠÐļ ÐŁ
ĠAn imals
Ð¾Ñĩ ÑĮ
ĠÐ¤ Ð¸Ð½Ð°Ð½ÑģÑĭ
ĠHealth Watch
cer y
Ġpol itic
OR D
ĠAg ents
Ġrem oved
ĠÐ¡ÑĤ Ð°ÑĤÑĮÐ¸
Ġfire fight
ĠÐ¿ÐµÑĢ ÐµÐ²
ĠÐ¿ÐµÑĢ ÐµÑħ
ĠOver view
Ġfac ilities
Ġfeat uring
Ġevent ually
ĠSa if
ĠSu z
Ġra ising
ĠCamer oon
Ġinit ially
ĠÐ¿Ð¾ÑĢ Ð°Ð¶Ðµ
ĠÐļÐ°Ðº Ð¾Ð²Ð°
ĠÐ¼Ð°ÑĤÑĩ Ðµ
ĠBah rain
ĠMoh ammed
Ġincred ible
ĠGuy ana
ĠCany on
ĠÐļÑĢÑĥÐ¿Ð½ÐµÐ¹ ÑĪÐµÐµ
ostalg ia
7 8
K A
S c
e z
Ð Ļ
ĠS now
ĠS au
ĠC L
Ġc ars
ĠB ars
ĠR ockets
ĠD O
Ñı Ð»
Ġh ab
ig ious
ĠG O
Ġon to
ĠÐ¿ Ð¾Ð½
oc ol
ĠV el
Ġan alys
Ġan ticip
Ð¾ÑģÑĤ ÑĢÐ°Ð½
ĠÐł ÐµÐ³
ĠÐĶ Ð¼Ð¸ÑĤ
ĠMar c
hen tic
ach al
à¤ ¤
ĠBr ad
Ð¸Ð² Ð°ÑĤÑĮ
vers e
ĠÐ¶ ÐµÐ½Ñī
Ġfound er
Ġide as
Ġperform ed
ĠTex ans
ĠÐ¤ÐµÐ´ Ð¾ÑĢ
Ġinvol ving
Ġra ises
Ġlog in
Ġfield s
Ġjoin ing
Ġconnect ed
ĠDead ly
Ð°ÑģÑģ Ð°Ð¶
Ġcollabor ation
ĠÐĵÐ¾Ð² Ð¾ÑĢÐ¾Ð²
Ġremov al
Ð ĸ
Ġ !
an Ã§
Ġs ad
ĠC BC
ĠP ush
ĠP aso
Ġw onder
ĠM ount
âĢ į
ĠW OR
ĠW FP
ol en
ĠE du
am i
ec k
os m
Ġn orth
ÐµÐ½ Ð¾
ch ar
ut ies
ag h
Ġbe ach
à´ ľ
ĠCh ad
Ð¾ÑĤ Ñĭ
ĠÐ¼ Ð°ÐºÑģÐ¸Ð¼
ĠUn iverse
oy d
Ġar en
Ð¿ÑĢ ÐµÐ´
ĠQu inn
Ð¿Ð¸Ñģ Ð°Ð½Ð¸Ðµ
Ġbl ue
ĠX fin
ĠInst ead
ĠInvest ment
ÑĥÐ» Ð°
ĠOb ituary
iam ond
ĠBook mark
ĠPR ESS
Ġmod er
ĠÐ¾Ð±Ð»Ð°ÑģÑĤ ÑĮ
Ð¤ ÐĲ
ĠEd ge
Ġhon or
ĠLight ning
ĠHom etown
Ġprior ity
Ġestab lish
Ġdest roy
ĠBroad way
ĠÐ²ÑĭÑģ Ð¾Ðº
Ġresur faced
ĠFi ji
ĠGhaz iabad
ĠVern on
ĠXfin ity
A r
Ġa wa
ĠA aron
Ġc orner
ĠB ucks
ĠF ell
ĠI C
ĠW ould
Ġm ode
ĠD ash
Ġh ouses
ĠH uff
ĠG ators
ĠO pp
ĠJ ord
ÐµÐ½ Ð½ÑĭÐµ
Ð¼ Ð°ÑĤ
Ġst ores
ĠÐ½ Ð¾Ð¼
ast ing
Ġv ac
ĠCh uck
Ð³ Ð»
ĠÐļ Ð¸ÑĢ
ĠAr gent
Ġk ick
ens ions
Ġcont ain
over y
Ġim ag
Ġim migrants
ÐµÑģÑĤ Ð¸
Ð°Ð»ÑĮ Ð½Ð¾Ð¹
ĠListen ing
ĠWeek ender
Ġgu y
Ðķ Ð¢
back ground
Ġown ership
Ġfac ed
ĠMad hy
Ġvict im
itut ional
Ġrad ar
Ġdoll ar
ÐµÐ½Ð¸ ÐµÐ¼
ĠMcD onald
Ġsuff ering
ĠUl t
ĠDomin ican
Ġpiec e
ĠÐ¸Ð½ÑĤÐµÑĢ ÐµÑģ
ÐµÐ³Ð¾Ð²Ð¾ÑĢ Ñĭ
mund o
ĠðŁļ ¨
ĠMadhy amam
E TS
M y
b ut
p ass
s ub
} }
es ter
ĠS ix
Ġf alse
ĠR ish
ĠR iley
Ġh osts
ĠNews casts
Ġl ots
ÐµÐ½ Ð½ÑĭÑħ
ĠV ot
Ð°Ð» Ð°ÑģÑĮ
ĠÐ¿ÑĢ ÐµÐ·Ð¸Ð´ÐµÐ½ÑĤ
Ġj oint
ĠÐ³ Ð¾Ð²Ð¾ÑĢ
ÐµÐ½ÑĤ Ð¾Ð²
ĠÐĺ ÑģÐ¿
ĠÐĲ Ðº
Ð¢ ÐĲ
Ġà´ Ĩ
Ġact or
Ġstr ing
Ġman ager
ĠÐµ Ðµ
Ġfollow s
ĠCor p
Ġperform ances
Ġclass ical
ude au
ĠNCAA B
ĠEd mont
Ġunderst anding
Ġcelebr ate
ĠSH OP
ĠÐľÐ¾ÑģÐºÐ² Ð°
ĠÑĢÑĭÐ½ ÐºÐµ
Ġsuggest ions
ĠMont ana
ĠÐļÑĢÐ°Ñģ Ð½
ĠÐļÐ°ÑĢÐ¿ Ð¾Ð²Ð°
ĠÐĲÐ¼ Ð°ÑĢÐ°
ĠEdmont on
l ong
Ġs ir
ing ly
ĠT ype
Ġc ustody
Ġb ureau
âĢ ľ
il a
Ġm ist
ĠD ollar
ĠL AT
ĠG ets
Ð² Ð°Ð»Ð¸
ĠK an
Ð¾ÑĢ Ð°
ĠÐ½ Ð¸
à´ §
ĠÐ¿ÑĢ Ð¸Ð³
ĠAd ams
ĠEx tr
ĠMar iners
ĠEm ma
ĠÐ¾ÑĤ Ð²ÐµÑĤ
Ġapp lic
ĠÐ° Ð´
ÑĥÐ¶ Ð±
Ġcons ult
Ðł ÐĲ
ÐŁ ÑĢ
ĠStart ed
Ġear th
Ġ199 5
Ġpay ing
ĠÑħ Ð¾ÑĢÐ¾ÑĪ
ici ary
ĠSim ul
ĠRequ ests
Ġsum mary
Ġcertain ly
ĠRestaur ants
ĠÐ¾Ñĩ ÐµÐ½ÑĮ
Ġfail ure
Ġrap id
Ġnorm al
ĠSignific ance
L ive
S I
f s
u ise
Ġ %
Ġt rib
Ġa vail
ĠS ask
Ġs ch
Ġf ully
Ġp aram
Ð» Ð°ÑģÑģ
ĠW ire
ĠL in
Ġh op
ow a
ĠO MB
Ġl it
est one
Ġe mer
ĠÐ¿ Ð¾Ð¼Ð¾ÑīÑĮ
Ð² Ð¸Ð´
ĠThe m
ĠÑģ ÑĨÐµÐ½
od ed
ak umbh
ist ed
ĠTr udeau
àµ ¾
own ed
ĠÐ¼ ÑĥÐ¶
aw are
ich acki
ĠÐ± ÐµÑģÐ¿
Ġoff ense
Ġcl ients
Ð°Ð´ Ð°
ĠFr anÃ§
ĠÐ²Ñĭ Ð´
Ġapp s
ĠAcc idents
inn y
ĠShe l
ĠÐºÐ¾Ð½ Ðº
ĠCap t
Ġcap acity
ĠChar t
Ð¾Ð³Ð» Ð°Ñģ
Ġdet ailed
Ġchar acters
ĠExpl ained
Ġcar bon
ĠHel ic
AI L
ĠHor ror
ĠColl ision
ĠMah akumbh
Ġdeb ate
ĠIsland s
ĠKel ly
ÐµÑĢÐ± ÑĥÑĢÐ³
ĠEN TER
ĠFore x
ĠNe ur
ĠRev ised
Ġvacc ine
ĠHard ik
ĠLat in
Ġadmin istr
Ġgrant ed
ĠAtl antic
ĠWall papers
ĠÐ°Ð²ÑĤ Ð¾Ð¼
ĠÐºÐ¾Ð½ÑĤÑĢ Ð¾Ð»
ĠExcell ence
Ġmourn s
ĠTut or
K g
R L
p are
Ġt ies
Ġt elling
ĠS W
ĠS elf
ĠC andid
ĠT NA
ĠT ournament
ĠA ur
ĠN ever
ĠW CS
ĠD ates
ad ena
Ñĭ Ð¶
Ġg olf
Ð² Ð¸Ð»Ð¸
Ġr ough
if th
end ment
Ð¾Ð» Ð´
ĠÐŁ Ð¾Ð³
Ð¸Ðº Ðµ
ĠY et
ĠCh urch
ĠÐ¿ÑĢ Ð¾Ðº
av ity
ĠÐľ ÐĺÐĶ
ĠÐŀ Ð»
Ġpl anned
ie g
ĠÑģÑĤ Ð°ÑĤ
ph p
ĠÐ²Ñĭ Ð±Ð¾ÑĢ
ĠÑĦ Ð¸Ð»ÑĮ
Ġcons umer
ĠReg istration
ĠÐ±ÑĥÐ´ ÑĥÑī
ĠOut look
ÐµÑģÑĤÐ² Ðµ
ĠBre w
sp ace
àª ¾
ĠHar ry
Ġcommun ication
Ġblock ing
Ġrestrict ed
Un iversal
Ġspok esperson
Ġpan el
Ġet c
Ġdanger ous
ĠRew ards
Ġaud ience
ĠÐ·Ð°Ð²ÐµÑĢ ÑĪ
ĠArgent ina
m atch
w olves
Ġt error
Ð° ÐµÐ²
Ġs ort
ĠC ichacki
ĠA BO
ĠP ST
ĠM ix
Ġp itch
Ġb ear
ĠF acts
ĠR ams
ĠJ aw
th m
Ġe astern
Ġr an
Ð°ÑĤ Ð°ÑĢ
ĠK Y
ĠK a
Ġpr ay
ust rated
ĠÐ´ Ð¾ÑĢ
Ġpro duce
pl aced
ÐµÐ¼ Ð¾Ð½
Ġch ampion
ah awks
ĠÑĩ ÐµÐ¼Ð¿Ð¸Ð¾Ð½
ĠAs ian
Ġun its
Ġnews paper
20 9
Ð¸Ð· Ð°ÑĨÐ¸Ñı
Ġafter noon
Ġsc ri
ĠRead able
Ġmin or
ĠEconom ist
Ġweek ly
Ġret irement
ÐµÐ¿ ÑĢ
Ġconf idence
ĠUnder line
Ġappro val
ĠÐºÐ¾Ð½ÑĦ Ð»Ð¸Ðº
Ġoper ation
Ġclos ely
Ġintern al
ĠSav ings
Ġjud ges
Ġincreasing ly
ĠConvers ations
Ġobtain ed
ĠTimber wolves
ĠTes la
ĠÐĿÐµÐ´ Ð²Ð¸Ð¶Ð¸Ð¼Ð¾ÑģÑĤÑĮ
% .
D et
U G
d og
g ests
h l
h u
j u
o a
x imately
en ov
Ġs ides
ĠA chieve
ĠP ublishing
ĠM ick
Ġp ill
ĠB rief
Ðº Ð¸Ð¹
ĠD oct
ĠL oc
ĠL eb
Ġd ouble
ÑĮ ÐµÐ²Ð¸Ñĩ
ig ins
Ġn ortheast
Ġr oles
ĠRe ach
har ma
Ð°Ð» Ð¾ÑģÑĮ
pp ing
Ġsh all
Ð¸Ñģ ÑģÐºÐ°Ñı
ĠÑģÑĤ Ð°Ð½
à¤ ²
aff icking
ÐµÐ³ Ð¾ÑĢ
ĠBe ing
ĠSe ahawks
ĠInc ident
ĠGr ap
Ġinst all
Ġcre ates
Ġdr one
Ġche ap
ĠCent ury
Ġred ucing
Ġprot ection
gin al
Ġgreat er
ĠÑĤÑĢ ÐµÐ½
ĠÑĢÐ¾ÑģÑģ Ð¸Ñı
ĠÐŁÑĢÐ°Ð² Ð¸Ð»Ð°
Ġbeg ins
ĠRw andan
Ġsche dule
Ġinsp ired
elic ans
ĠBrows e
Ġcasual ties
ĠABO UT
D own
e k
y o
on ly
at ab
ar ison
ĠC ash
ĠT E
ĠA ve
ĠF utures
ĠL iver
ĠE z
Ġn ull
ÑģÑĤ ÑĢÐµÐ¼
ÐµÐ½ Ð¾Ð²
Ġre ject
Ġst retch
ĠK EL
ĠÐ½ Ð°Ð¼
à´ ¶
ĠÐº ÑĢÑĥÑĪ
ĠTh ing
Ġv ital
ĠCh ap
ĠÐ´ Ð¾Ð±
ĠCon cussion
ĠAll en
Ġsp am
ise ases
az ing
orn ings
Ð¾Ð· Ð¸ÑĤ
OR Y
ĠEdit ions
Ġinc ent
Ġdec ade
ĠÐ¿ÑĢÐ¾ ÑĨ
ÐµÐ¶ Ð´
yl er
Ð¾ÑģÐ» ÑĥÐ¶
ĠNBC Universal
Ġlist ening
ĠAct ions
àµģ .
ĠDav os
Ġfind s
Ġmeet ings
ĠÐ¥ Ð°Ð±
Ð¸ÑĤÐµÐ»ÑĮ Ð½Ð¾
Ġmajor ity
ĠAc oustic
Ġnum er
ĠAff iliate
ĠNov ak
look ing
ĠHim achal
Ġsou th
ĠLGBT Q
ĠCateg ory
ĠÐĵÐ¾Ð²Ð¾ÑĢ ÑĥÑħÐ¸Ð½
ĠPalestin ians
ĠSubst ack
ĠPut in
ĠÑĥÑģÑĤÐ°Ð½Ð¾Ð² ÐºÐ¸
ĠPuzz les
WNI J
ĠNI H
ĠÐĿÐ¾Ð²Ð¾Ñģ Ð¸Ð±Ð¸ÑĢ
Ġsir ens
ĠSask at
= "
N ew
P N
S o
W h
b ol
ĠT alks
ĠP ART
Ġf alls
ĠN SE
ĠM Y
le ments
ĠR ich
ĠW on
Ñĥ Ð³
ot al
ĠO d
Ġr ail
ist ant
Ġbe autiful
Ð°Ð» Ðµ
Ġan imals
Ġtr agedy
ÐµÐº ÑĨÐ¸Ð¸
Ġk ept
ĠSp urs
ĠÐ¾ÑĤ Ð¼ÐµÐ½
ĠBr id
ĠApp lication
ĠAnd re
Ġfl o
ĠTrans port
ĠÐµ Ð²
ĠCor re
Ġrece iving
ĠÑģÐ°Ð¼ ÑĭÐ¼
Ġaff iliate
ĠPer th
iqu es
ĠÐ¸ÑģÐ¿Ð¾Ð»ÑĮÐ·Ñĥ Ð¹ÑĤÐµ
mar ks
ĠST ORIES
ĠÐ¼Ð°ÑĤ ÐµÑĢÐ¸Ð°Ð»Ñĭ
ĠSing le
Ġkeep ing
Ð»ÐµÐ½ Ð¾
Ġexc ited
EX AS
Ġconst ruction
Ġcrew s
ĠÐ¿Ð°ÑĢ Ð¾Ð»ÑĮ
ĠÐ°ÑĢ Ð¼
ĠProduc er
ĠÐ¿Ð» Ð°Ð½
ĠAmb ani
ĠÐ¿Ð¾Ð¼ Ð¾Ð³
ĠÐĲÐ·ÐµÑĢÐ±Ð°Ð¹Ð´Ð¶ Ð°Ð½
lec ts
ĠWOR LD
m art
r esh
Ġt ough
Ġt weets
on ia
ĠS eed
it als
ĠT EXAS
ĠP or
ĠN ey
ĠW P
ĠW ife
ĠL im
ĠL oss
Ġd ress
Ġh all
ĠH ills
Ġn eighb
Ġl ov
ĠU dit
em on
ap olis
ant is
ĠÐļ Ð°Ð»
Ġcont est
Ġnot ifications
Ġad apt
Ġoff ices
ĠÐĳ Ð¾Ð»ÑĮÑĪ
ĠBr un
Ġ9 5
IN K
eng er
ĠÐŁÑĢ ÐµÑģÑģ
ĠÐķ ÑīÐµ
inn ers
ĠÑıÐ½ Ð²
Ġbu ying
ĠÑģÐ°Ð¼ Ð°Ñı
ĠLead ers
Ġ36 0
Ġnon profit
Ġinterest ed
ĠEar lier
ĠÐ¿Ð¾ÑĢ Ð°Ð¶
Ġdam aged
ĠTw ins
ĠRecomm endations
Ġlic ense
Ġmanufact ur
ĠÐ¢ÑĥÑĢ Ð¸Ð·Ð¼
Ġconsum ption
ĠSnap sh
ĠÐ²ÐµÑĢÑĤÐ¾Ð» ÐµÑĤ
ĠFun eral
Ġsustain able
ĠÐłÐµÐ´Ð°Ðº ÑĨÐ¸Ñı
Ġinstitut ions
Ġguarant ee
B ut
F eb
h igh
Ġ ir
ĠS witch
ÑĢ ÐµÑĪ
Ġs ending
ĠT ICK
Ġf aith
ĠB M
Ġb alls
ĠR u
ĠR apt
ĠI l
Ġm ilit
Ġh ike
Ġr are
ag ic
ĠÐ¾ Ð³
Ġpr ime
ĠÐľ ÐµÐ½Ñİ
Ð¾ÑĤ Ð²Ð¾ÑĢ
ign ity
Ġcr ack
Ġde pression
ord ers
ĠSp arks
Ð¾Ð± Ð¸Ð»ÑĮ
Ġcl oud
Ġcl arity
ĠÐĽ ÐµÐ½
ĠLe af
ĠBr ain
ĠBr ight
Ġsc or
ĠAcc ident
ric ts
Ð°Ð± Ð»Ð¸
ĠDown town
ott ed
ĠSur prise
ĠML S
ĠAust in
Ġcar ry
Ñĳ Ð»
Ġprogram ming
ĠStand ard
ĠSen ator
Ġcent re
Ġdist ribution
ĠCelebr ates
Ġdeliver y
Ġlearn ed
ĠKel ce
Ġsol ar
Ġpros pect
ĠTe ach
ĠOffic ials
ĠÐĲÐ² ÑĤÐ¾
EST YLE
hold ers
ĠOper a
ĠNar endra
Ġconsum ers
ĠBull s
ĠÑģÑĤÐ¾ Ð¸ÑĤ
ĠLIF ESTYLE
ĠJun ior
Ġcalcul ator
Ġsurround ing
def ending
ĠÐ¿Ð¾Ð¶ Ð°ÑĢ
ĠÐĴÐ°ÑģÐ¸Ð»ÑĮ ÐµÐ²Ð¸Ñĩ
A W
F ree
or ation
ar ch
Ð» ÐµÐ½Ð°
ĠB ase
ĠB ody
Ġb odies
ĠF E
ĠI owa
ĠW itness
ĠD al
ĠD ed
ol ute
Ġd ry
ĠH and
Ġ20 10
ĠO R
Ġl anding
Ġl abor
ĠJ ump
ĠSt ri
ĠÐ² Ð°Ð¶
ĠV ar
ĠÐ¿ÑĢ Ð¸Ñĩ
ĠÐ´ Ð¾ÑģÑĤ
ant ly
pl ane
ob b
ĠAn t
ber ry
ĠFor ces
ĠUn c
ĠÑģÑĤ Ð°ÑĢ
Ġ7 7
oot h
Ġme ant
ĠEnter prise
ins on
Ġfl oor
enn is
Ðľ ÐĲ
ĠVir tual
AP K
ÐµÑĢÑĤ Ð²
Ġdem ocr
ĠFind er
ĠExp ansion
ĠSI P
Ġvisit ors
à´Ĥ âĢĭ
Ġinit iative
ĠPan thers
iab etes
ĠSum mit
ĠMass ive
Ġbeg inning
ĠÐ¢ÑĢ ÐµÐ±
Ġregul ations
Ġden ied
ĠÑĪÐº Ð¾Ð»
ĠWNI J
ĠSpr ings
Ġapolog izes
sk inny
ĠÐŁÑĢÐ¾Ð³ Ð½Ð¾Ð·
ĠTransl ators
ĠKUN M
ĠÐłÐµÐ³Ð¸ÑģÑĤÑĢ Ð°ÑĨÐ¸Ñı
ĠLAT EST
6 4
F ri
G R
g ate
Ġa ware
Ġc easefire
ĠF ive
ĠI ce
Ñĥ ÑĤÐ°
ĠH it
ĠG az
th i
ĠÐ¿ Ð°ÑģÑģÐ°Ð¶
Ġr ow
Ġ( -
ĠÐ¾ ÐºÐ°Ð·
ect ive
ĠÐļ Ð¾Ð»Ð»
ra j
mun e
Ġwe igh
à¤ ®
ĠBr ing
Ġapp ar
Ð°Ð»ÑĮ Ð½Ð¾
Ġshe l
Ġdec ided
Ġmost ly
Ðł Ðŀ
Ġexpl oding
Ġsee ks
Ġsk ating
Ġchar ter
Ġext ended
ĠTele mundo
ĠMoney Watch
LL OW
Ġproduc ed
Ġwr ite
Ġart ist
ĠSing ing
ĠMic hel
VID S
ĠFO LLOW
ĠBro ken
ĠOper ations
Ġport folio
Ġfarm ers
lev ard
Ġscient ists
ĠGri ham
Ġappoint ment
Ġbro ke
ĠWalk er
ĠÐ±Ð¾ ÐµÐ²
ĠLic ens
ĠðŁĵ º
ĠÐ¾ÑĢÐ³Ð°Ð½ Ð¸Ð·
ÑıÑģ Ð½
ĠUA E
ĠRut gers
ĠUpl ift
ĠFell ows
ĠFranÃ§ ais
ĠNey mar
O ne
a P
h anna
l cc
ĠS D
ĠT en
ĠT it
ic ine
ĠP N
ĠP elicans
as ure
ĠN ets
ĠF irm
ĠD iplomatic
ĠH un
ir ts
Ġre pro
Ð¼ ÐµÑģÑĤ
Ð· Ð½
ill ain
ri ers
ĠÐº Ð¾Ð»
ÐµÐ» ÐµÐ·
ÑĪ Ð¸Ðµ
Ġex hib
ĠÐĴ Ð¾Ð·
ĠPl anning
Ġhas n
ĠÐ¼ Ð°ÑĢ
ÐµÐ¹ Ð±Ð¾Ð»
ĠÐ³ Ð°Ð·
ĠÑģÑĤ ÑĢ
ĠÐ¢ ÐµÐ¼
ĠÐĲ ÐºÑĤ
anc he
org an
Ġqu iet
ĠAg o
Ġimp ose
Ġknow s
Ġeff icient
Ġco ast
ĠGr ant
ÐĴ Ð¾Ð·
Ġpublic ly
ĠÐĵÐ¾Ð³ Ñĥ
Ġexc ell
Ġpres ence
Ġsuggest ed
ĠEnt ry
ĠRound up
ĠFly ers
Ġafford able
ĠStrateg ies
Ġvulner able
Ġrat io
heim er
Ġloyal ty
ĠÐŀÐŀ Ðŀ
ĠColomb ia
ĠJama ica
ĠTutor ials
. '
E dition
N ow
h ab
y ers
er a
Ġa chie
re y
ĠP OL
Ġf at
ĠN RI
ĠN adu
ĠM asters
le ts
ĠF ine
et a
Ð´ ÑĭÑħ
ĠV s
ĠV en
ĠV ert
ĠV ote
ri el
ĠPr act
ail and
ĠCom edy
ĠÐ· Ð°Ð½
Ġ4 4
ĠÐĽ ÑİÐ±
Ġun lock
ĠLe vel
ĠÐĺ ÑĤ
ĠÐĹ Ð°Ñħ
ru iting
ĠÐ¾Ð± ÐµÑģÐ¿
ĠQu al
ĠPhot ography
ES E
ĠStud ies
ĠEl igibility
FS C
Ġleg it
ĠAct ing
ĠÑĢÐ°Ð· Ð²
Ġsug ar
Ġintern et
Ġinterest ing
ĠÐľÐ¾ÑģÐºÐ² Ñĭ
udi ences
ĠÐ¾Ð±ÑĬ ÑıÐ²
ĠPack ers
Ġfle w
ĠGAM ES
ĠChalleng es
ĠÐ¼Ð°ÐºÑģÐ¸Ð¼ ÑĥÐ¼
7 3
A A
C an
C al
T M
b en
re p
ĠP F
ĠM ock
ĠM EN
Ġb on
ĠF al
ĠF aces
âĢ ĺ
ĠR ilo
ĠI FSC
ĠD EL
Ġh ar
ĠH orse
Ð¾Ð² Ð°Ð»Ð¸
Ñĩ ÐµÑĢÐ°
ĠÐ¸ Ð³ÑĢÑĭ
Ð¿ Ð¾Ð´
ĠÐ½ Ð¸Ñħ
ard o
Ð¾Ð´ Ð¸
Ġpro hib
ind ra
Ġ5 7
ian o
ĠHow ard
ĠSe en
ĠPre par
ĠZ a
ual ity
ĠOff ers
Ġinter ests
ÐµÐ¿ ÑĥÑĤ
ÐµÑģÑĤÐ² Ð¾
ĠÑģÐ¿ Ð¾ÑĢÑĤÐ°
Ġcol or
ĠGive aways
Ġaff ili
ĠTar an
Ġ199 4
eer a
ĠInt ro
Ġeffect iveness
ĠSaf ari
ĠÐĲÑĢ Ñħ
ĠBo il
ĠSpe aking
ĠAuthor ity
Ġinit ial
ĠÐ²Ñģ ÐµÐ³Ð¾
Ġcompl aint
ĠOper ation
Ġpush ing
ĠÐ¾ÑĢ Ð»Ð°
ĠPick leball
Ð°Ð¶Ð´ ÑĭÐ¹
ĠÐ½Ð°Ð· Ð°Ð´
Ġhot el
bre ak
Ġsche me
Ġhy d
Ġmult i
ĠBO B
ĠPand ya
ÐĹÐ¾Ð»Ð¾ÑĤ Ð¾Ð³Ð¾
ĠÐ¡ÑĤÐµÐ¿ Ð°Ð½
ĠNether lands
ĠÐļÑĢÐ°ÑģÐ½ Ð¾Ð´Ð°ÑĢ
ĠLeb an
A m
R O
T ip
r im
w hel
Ġ Ø
Ġ ç
ĠS eek
ÑĢ Ð°Ñģ
ĠC orn
ĠP ier
Ð» ÐµÐº
ĠR un
ĠW ars
ĠD j
ĠD iamond
ĠL un
ĠL ives
Ġd iverse
Ñı Ð¶
Ġ20 01
ÑģÑĤ Ð¾
Ġre ply
ch at
ĠÐ² Ð»Ð°ÑģÑĤ
ist ol
st ate
ial ogue
ĠTh ailand
ĠCh a
ĠÐ´ Ð¾Ðº
ĠÐł Ð°Ð½ÐµÐµ
ĠSh a
ass ador
und ai
Ġad just
ĠAll iance
Ġ5 8
ÐµÐ¹ ÑĤÐ¸
iz ers
Ġcomp uter
ĠQ B
ĠQ atar
ĠÐĺ ÑĢ
Ġ7 8
ER T
ys elf
ĠJaz eera
ĠTrans actions
Ġbre aks
Ġappro ximately
Ġicon ic
ĠShar ma
ĠInt egr
Ġlog ged
Ġview ing
IG H
ĠGener ation
ĠÐ´ÐµÑĤ Ð°Ð»Ð¸
ĠRepr esent
Ġsan ctions
Mar ket
ĠAnton io
ortg age
Ġpropos al
ĠVI EW
Ġconsequ ences
ĠBou levard
ĠSau ce
ĠHelic opter
atab ase
ĠTaran aki
9 8
I nd
M e
M obile
m aker
y ew
ĠS ight
ĠT aking
Ġf ake
ĠN L
Ġb ound
Ġto w
ent als
ol ve
ce ption
ĠK Z
ĠK ann
ĠÐ¸ Ð¼Ðµ
if ically
ak k
ab bed
ÐµÐ» Ð¸ÑĤÑĮÑģÑı
Ð¾Ð´ Ð¸ÑĤ
Ġex em
Ġex cept
Ð¾Ð½ Ñģ
Ġpro ceed
qu arters
ĠÐ¡ Ðļ
Ð³ ÐµÐ½ÑĤ
ÐµÐº ÑģÐµ
ĠPl atform
ĠSub mission
ÐµÑģÑĤ ÑĮ
ang a
ĠÐ²Ñĭ ÑĪ
Ġem br
pect ed
Ġà´ İ
ĠAcc ounts
Ġqu al
Ð¸Ð² ÑĪÐ¸Ñħ
Ġdec line
ĠÐ¿Ð¾ ÑıÐ²
ĠDo or
ĠÐ¶ ÐµÑĢÑĤÐ²
ĠVol ume
ĠÐĲÐ» ÐµÐºÑģÐµ
ĠCN BC
Ġhold ing
Ġimpro ved
Ġvar iety
Ġconst ruct
ĠPac ers
Ġcompl iance
ĠLu is
ĠSac re
ĠÐļÑĥÐ± ÐºÐ°
ĠGerm an
ĠÐŀÐ´ Ð½
Ġpurp ose
Ġcy ber
ĠCamp bell
ĠFed er
ĠÐŁÑĥÑĤ Ð¸Ð½Ð°
ĠAtl anta
Ġmig rants
ĠÑĪÐº Ð¾Ð»ÑĮ
ĠÐ¿ÑĢÐ¾ÐµÐºÑĤ Ñĭ
à± ģ
Ġveter an
Ġunc lear
Ġtrig ger
ĠMaver icks
ĠFamil ies
ĠHuff Post
E E
M ENT
f ront
h our
h op
v ar
Ġa udiences
Ð¾ ÑĦ
al u
ĠC J
ĠT un
is f
is wal
ĠP ere
Ġf ine
Ð» ÐµÑĩ
ĠF U
ĠF ax
Ġm atters
Ġd iplom
ĠE C
ĠE s
Ġl ose
Ġl oad
ĠSt re
ĠK O
ĠK i
ÑĨ Ðµ
Ġan c
ĠÐ¡ ÐĴÐŀ
Ð³ Ð°
ĠÐļ Ð°Ð·
ĠCl are
Ġag riculture
Ġ4 00
... ':
Ð¸ÑĢ ÑĥÐµÑĤ
ĠUn it
ĠPublic ations
ÐµÑģÑĤ ÑĥÐ¿Ð»ÐµÐ½Ð¸Ñı
Ġar my
ĠÑģÐ² Ð¾Ð¹
OR P
au k
ĠCar rying
ug g
Ġmay be
Ġman aged
ĠDec or
Ġexpl o
Ġadv antage
Ðĵ Ð¾Ð²Ð¾ÑĢ
ĠLeg isl
ĠAb b
ĠSong s
Ð¸ÑĩÐµ ÑģÐºÐ¸Ðµ
Ġhost ing
ĠÑħ Ð¾ÑĤ
Ġsug gests
Ġdisc ounts
Ġcontribut e
ĠMur der
ĠVenezuel an
Ġrelations hips
ĠJa iswal
Ġmaintain ing
ĠBR O
Ġhom eless
ĠPredict ions
Ġemp athy
Ġexist ing
Ġacknow ledge
Ġcorpor ate
Ġwa iting
Ð¸ÑģÑģ Ð¸Ñı
ĠBRE AK
ĠSimul ator
ĠKEL LY
ÐĴÐ¾Ð· Ð´ÑĥÑħ
ĠÐ¾Ð±ÐµÑģÐ¿ ÐµÑĩ
. &
B e
G C
I B
e ff
e ason
f unction
n am
p y
Ó Ļ
Ġ __
ĠP ub
ĠP ilot
Ġf avour
ĠN W
ĠN EXT
ĠM yster
Ġp ri
Ġb id
ĠR ising
Ðº ÐµÐ¹
ew ay
et ime
Ñĥ ÑģÐº
Ñı Ð»Ð¸
ĠH op
ĠO m
ĠJ am
ÐµÐ½ Ð½ÑĭÐ¹
Ġg ro
Ġg un
Ġg rew
ĠÐ¿ Ð»Ð°ÑĤÑĦÐ¾ÑĢÐ¼
ĠÐ¿ Ð¸ÑĪ
ĠÑģ ÐµÐ¹ÑĩÐ°Ñģ
ĠIn g
od ia
ĠK C
ĠK en
ap a
ĠÐ¾ ÑĨÐµÐ½
ff ee
Ġpr oud
ard en
ĠÑĤ Ð¾Ð¼
ĠÑĥ ÑĢÐ¾Ð²
ĠHe avy
ĠÐĿ Ðĳ
pt on
Ġag enda
Ġad mits
ĠÐ» Ð¸Ð´
erm ont
Ġse a
ĠÐĺ Ð»Ð¸
ĠCol lect
Ġsc oring
ĠÑĦ Ð¸Ð³ÑĥÑĢ
Ġcould n
Ġtrans par
ĠComp are
Ð¸ÑģÑĤ Ñĭ
br idge
Ġdef end
ĠÐ¡ÑĤ Ð°Ð»Ð¾
ĠChar ity
Ġsur prise
ĠSo ftware
Ġcre ation
ĠÑģÐ¿ ÐµÑĨ
ĠInter view
Ġcol leges
ĠMonth ly
ĠÑĢÐ°Ð· Ð´ÐµÐ»
ĠAb s
Ġtrad em
Ġsl ight
ĠMod el
mon th
ĠHy undai
Ġproduc er
ĠÑģÐ» Ð¾Ð²
ĠÐŃÐº ÑģÐº
Ġfood s
Ġel imin
cri ption
ĠÐ¾Ð´ Ð½Ð¾Ð¹
Ġwarn s
Ġcivil ians
ĠDid n
ĠJon athan
Ġadvert ising
ĠObs erv
ĠRog er
Ġscient ific
ĠÐ½Ð°Ð³ÑĢÐ°Ð´ Ð¸Ð»Ð¸
ĠTrail er
ĠCP B
ĠJenn ifer
BR Z
Ġmonit oring
ĠLag os
ĠLeaf s
A d
E Y
M E
N ot
f aces
l aw
ĠS aint
ĠM E
ĠM at
ĠR ot
ĠW ins
ĠW BRZ
ad ise
ĠG reg
ĠJ udge
ĠJ umble
ut ur
ĠÐ² Ð¸Ð´ÐµÐ¾
Ġst ruck
em an
ap ing
Ð¾Ð» Ð¾Ð²
Ġwh om
ĠCom ics
Ġj ump
Ġj ets
Ġsh ook
ĠÐ¼ ÐµÐ½Ñİ
Ġ5 6
ĠAn aly
Ġch oices
Ð°Ñģ Ð¿
Ð¾Ðº ÐºÐµÐ¹
Ġall ocation
ĠÐ» ÐµÐ³
com p
ÑĢÐ°Ð½ Ð°
Ġso le
Ġother wise
Ġwould n
Ġrem arks
Ġprov ince
Ġbr other
ĠDo ing
Ġprogram me
Ġsup p
AL S
ĠMap le
Ġ200 2
Ġdem ands
ĠMeet ing
ĠSpot ify
ĠÐ½Ð°Ð´ Ð¾
ĠLouis ville
itiz en
ĠJapan ese
Pl ane
ĠÑĩÐ°ÑģÑĤ Ð¸
ĠÐĿÐ¸ÐºÐ¾Ð» Ð°Ð¹
ĠVictor ia
Ġdefin itely
ĠFIN ANCE
ĠSant os
ĠForg ot
9 6
F i
I AN
w i
â ľ
ar ing
it arian
al ing
Ġs plit
ĠT M
ĠT iny
ĠA AP
ĠM it
Ð» ÐµÐºÑĤ
ĠF IR
ĠR EC
ĠW C
ĠD I
ĠD airy
us ing
ec asts
Ġ20 30
Ġn uclear
ÑģÑĤ ÑĥÐ¿
ch ain
Ġg ifts
Ġst anding
Ġst ability
ĠÐ½ ÐµÐ±
ĠÑĢ Ð¾Ð¶Ð´ÐµÐ½Ð¸Ñı
Ġcon clud
ĠÑĥ ÑĩÐ°ÑģÑĤ
Ġres ident
Ġnot es
Ġch annels
ĠÐĲ Ð½ÑĤ
ĠCan al
ĠTV s
Ġab use
ĠPre c
ug in
ĠDr agon
Ð½Ð¾Ð² Ð°
Ġph ase
Ġelect ronic
Ð¾ÑģÐ» Ð°Ð²
ĠVal ues
ĠInvestig ative
ĠPat rol
rest le
ĠAct ivate
Ġext ension
ple ment
ĠSte ph
Ġenter ing
ĠRob erts
Ġmiss ed
ĠSpe aker
Ġdisc overed
ÑĥÐ½ Ðº
Ġte en
bl u
Ġdecl ined
Ġvol unt
ĠWood s
ĠGab riel
ĠCompet itions
Ġprim ary
ĠPoll s
cont ent
ĠKam lo
Ġestab lished
Ġacknow led
ĠPT I
oom berg
ĠÑģÐ¾ÑĤÑĢÑĥÐ´ Ð½Ð¸Ñĩ
ðŁĻı ðŁĻı
ÑĥÑĢÐ½ Ð°Ð»Ð¸ÑģÑĤ
raf ts
ĠJord an
ĠTICK ETS
ĠÐļÐ¾Ð»Ð» ÐµÐºÑĨÐ¸Ð¸
ĠFellows hip
ĠKamlo ops
O ff
P ress
P oints
T D
f o
in ery
Ġs weet
ĠC z
Ġc ert
le ading
Ġp un
Ġb ed
Ġb ird
ĠR ing
ĠW ords
ĠD ick
ĠH az
id th
Ñĭ Ð±
ĠG ST
im ize
Ġg ues
op ia
ĠK ate
ĠK erry
ĠÐ¸ ÑĤ
ĠRe ason
Ð¾Ð» Ð¾
ok ovic
ĠÐ¾ Ð¶
Ð¸Ðº Ñĥ
Ġpr ospects
Ġcom mittee
ĠPr ay
Ġtr ucks
Ð¾ÑģÑĤ Ð¾Ð²Ð°
oll ah
ĠÑĤ Ð¾Ñĩ
Ġde pr
Ð°Ðº Ð¾
ĠÐĵ Ð¾Ð¹
Ġsp irit
ĠÐĶ Ð°
ĠTo o
Ġun it
ann y
Ġmin i
ĠÐ½Ðµ ÑģÐº
AR Y
ĠÐŁÐ¾Ð´ ÐµÐ»Ð¸ÑĤÑĮÑģÑı
Ġbel ong
Ðķ Ðŀ
ĠPet aP
Ð´Ñĥ ÑĪ
ÐĽ Ð¯
ĠWeb in
ÐµÑĩ Ð°ÑĤ
ĠTH ESE
Ġfac ts
ĠSust ain
Ġmemb ership
ĠPass ing
ĠLine up
ĠÐ¿ÑĢÐ°Ð² Ð´Ð°
Ð¸ÑĢÐ¾Ð² Ð°Ð»Ð¸
ĠSab ally
ĠBet ween
cri pts
Ġchalleng ing
ĠÑı Ð²
Ġrespect ively
ĠÐ¿Ð¾ÑĤ ÐµÑĢ
ĠÐ¿Ð¾ÑĤ ÑĢÐµÐ±
à¥ĩ à¤Ĥ
ĠUr ban
Ġsav ings
ĠEff ects
Ġult imately
Ġhistor ic
ĠRac hel
ĠTOP ICS
ĠÐĴÐ°ÑĪÐ¸Ð½Ð³ÑĤ Ð¾Ð½Ðµ
ĠInit iative
Ġgrab bing
ĠCer emony
gener ated
ĠEnerg ies
Ġclim bing
ĠGaz ette
ĠSacre blu
auk ee
âľ ´
Ġgues ts
ĠPetaP ixel
B IT
F ar
N Y
O ST
S C
T ime
d p
k in
k ing
l oss
z b
Ð° ÑİÑĤÑģÑı
an ie
ar th
Ġs ac
ĠT on
ĠP DF
Ġc elebration
Ġf ifth
ĠM C
Ġp uts
ĠR oss
ĠW olf
Ġm ath
ĠD isease
Ñĥ Ð²
ol itan
am ps
ch a
ĠÐ² ÑĢ
od iac
ĠK inn
igh th
Ð°Ð½ Ñĩ
Ð°Ð» Ð¸ÑĤ
Ġan onym
ĠÐľ ÐµÐ¶Ð´ÑĥÐ½Ð°ÑĢÐ¾Ð´
ik h
ĠÐĵ Ð¾Ñģ
ÐµÐ¹ Ð¼
ĠDe uts
ĠÐ» Ð¸ÑĪ
Ð°Ð¹ ÑĤ
à¤ ¯
à¤ ķ
olog ist
ĠÐ²Ñĭ Ð¿
Ġapp lications
ĠÐ¾Ð± ÑĢÐ°ÑĤ
OR K
Ġbl ank
ĠFl ipboard
ug ins
Ġmar riage
fer red
Ġcontin u
osp itals
ĠChar les
Ġexpl ore
Ġà¤ ¸
Ġed ition
ĠJoh anne
ĠComm on
Ġpower ed
ĠMet al
Ġfind ing
Ġclass ic
Ġimpact ed
Ġhon ored
Ġopp onents
Ġtest ing
che ll
Ġrecomm end
Ġfall ing
ĠÐ¸Ð³ÑĢ Ð¾Ðº
Ġprepar ed
ĠPH OT
Ġtour ism
Ġrestrict ions
Ġsubst itute
ĠÐ±Ð» Ð¾Ðº
ĠJew ett
ĠRepr ints
Ġcop ied
ĠÑĤÑĥÑĢÐ½Ð¸ÑĢ Ñĭ
Med ia
rac use
kn own
ĠKurt z
ĠÐ·Ð°ÑīÐ¸Ñī ÐµÐ½Ñĭ
ĠCav al
Ġsch ol
ĠEz ell
ĠDj okovic
8 2
G AM
N IA
S L
T ON
b c
b es
b ury
c ks
d is
l ash
w aukee
Ġ ÑıÐ·
Ĳ ì
Ġt ask
or ized
at ility
ĠT oll
ĠT ony
Ġc ouncil
ĠN id
ĠM ornings
Ġp ool
ĠB attle
âĢ ¢
ĠD irection
Ñı Ð±
ig or
ers en
ir a
ĠJ SW
ĠIn clud
ce pts
Ġst arr
st age
Ġcom edy
ĠCh ip
ĠÐ¿ÑĢ ÐµÐ²
ĠÐĴ Ñģ
ĠÐļ Ð¾Ð»
ĠÐļ Ð°Ð²ÐºÐ°Ð·
pt y
ĠÐĶ ÑĢÑĥÐ³
Ġim m
ĠÐĽ ÐµÐ½ÑĤÐ°
Ġun f
ĠEm b
Ġbut ton
amp ed
Ð°Ð»ÑĮ Ð½Ð¾Ðµ
ĠÐ¸Ð· Ð´
ĠGu am
ĠGu est
ĠÐ£ Ñĩ
Ðĺ ÐĲ
ÑĥÐ¶ Ð½Ð¾
ĠRead y
we ight
ĠCar ter
ĠInst all
ĠÐ¿Ð¾Ð´ Ð²
ĠÐºÐ¾ÑĤÐ¾ÑĢ Ð¾Ð¹
IT AN
ĠBow man
ĠÑĢÐ°Ð· Ð±
ĠST AT
ĠSch ia
ĠMal ay
ĠPa ani
Ġmet ers
Ġtyp es
Ġwinn er
ĠMil waukee
Ġmark ed
Ġdeath s
ĠWH O
Ġsy rup
ĠArrow For
ĠAN D
ÐĺÐĶ ÐķÐŀ
ĠRT X
Ġgrap hics
ĠMOT ORS
ĠKG OU
rimin ation
OLOG Y
Ġterrit ory
Ġsched uled
ĠBars a
ĠÐ±ÐµÑģÐ¿ Ð¸Ð»Ð¾ÑĤ
. -
E n
m el
p re
Ġ error
at ively
ĠC ath
Ġc ult
ĠM ast
ĠM EDIA
Ġp il
ĠB enefit
ĠW ait
ĠE ri
ĠE ating
ĠH oss
iv ated
ĠG un
Ġn an
Ġl iter
ĠÑģ Ð¸Ñħ
Ġr ing
Ġr om
Ġr oster
Ġst ations
Ġst olen
ĠÐº Ð°ÑĤ
ud a
ĠÐŁ Ð¾ÑĤ
Ñİ Ðº
Ġpr incip
ĠPr ospects
og ether
Ð¸Ð½ Ðµ
Ð¸Ð½ ÑģÐºÐ¸Ð¹
ĠÐŀ Ð½Ð°
ĠUs ing
ĠSh ifting
Ġcr imes
Ġcont ests
Ġcont ained
ĠÐ» Ð¸Ð³Ð°
ph ins
ĠEv gen
Ðļ Ð¾Ð¼
ĠQu ant
Ġà´ ¤
ĠAcc used
ÑģÑĤÐ² Ð¾Ð¼
AT ORIES
Ġâ ļ
Ġatt r
Ġair space
ĠCo zi
Ġsm arter
ĠSur y
Ġdevelop ments
ĠCor ruption
ĠÑĨ ÐµÐ½ÑĤÑĢ
Ġfe ud
ĠInvestig ation
Ġincre ases
Ġtax es
yn th
ĠðŁ ı
Ġob vious
Ġval u
ĠSy racuse
Ġfar mer
Ġbrows e
zer o
ĠEnd s
Ġprior it
Ġamb ulance
Ġmix ed
Ð²ÐµÐ´ Ð¸ÑĤÐµ
ĠÐ´Ð¾Ð»Ð¶ Ð½Ñĭ
Ġaltern ative
ĠÐ²Ð¸Ð´ Ñĭ
ĠKiss ing
ĠHarv ard
ĠControvers y
ĠSTE EL
ĠArrowFor ward
9 3
Ġ å
er als
Ġs elling
ĠC elt
ĠT yler
ĠA ud
Ġf antasy
le ben
Ð» Ð°Ð¹Ð½
Ġb enef
ĠR ED
il al
Ġm eat
Ġm echan
ol ved
ĠH IND
ad im
ĠO UT
im on
ĠSt uck
ĠÑģ ÐºÐ°Ð·
Ġst able
eb u
Ñİ Ñī
Ð¾Ð´ Ðµ
ĠCh ronic
ans on
ell i
ĠÐł ÐµÐ·ÑĥÐ»ÑĮÑĤ
ĠAd min
ĠÑĤ Ð°Ð¼
ĠAr r
ĠMar ia
ĠAl though
aff le
ĠGu illain
Ġà´ ľ
ĠX box
ĠX RP
Ġmar ried
ÐµÐ½Ð´ Ñĭ
Ġtop ic
ĠSo ft
Ġdet ention
Ġph r
Ġdon ation
ĠÐŁÐµÑĢ ÐµÐ¹ÑĤÐ¸
UN T
Ġappro p
Ġrespond ed
ĠHaw ks
rop olitan
ĠKnow ledge
ĠSaf e
Ġmatch es
Ġtyp ically
Ġold er
ĠLA BOR
Ġreb ounds
Ġassist ant
ĠÐĴÑĭ ÑģÑĤÐ°Ð²
ĠSum mary
rec iation
Ġcritical ly
Ġcontroll ed
Ġrev ised
ĠKit chen
ĠObs erve
rog en
ĠÐ¾ÑĤÐºÑĢÑĭ Ð»
Ġtouch down
Ġencour age
ĠÐ¶Ð¸Ð² Ð¾ÑĤ
ĠClutch Points
Ð¼Ð¸Ð½ Ð¸ÑģÑĤÑĢ
Ġpreg n
ĠJess ica
ĠÐĶÐ¾Ð½Ð°Ð»ÑĮ Ð´
ĠLynn wood
ĠTrig gers
Ġing red
zb ollah
ĠCaval iers
ĠCelt ics
ĠLABOR ATORIES
M O
O UR
W C
r ence
u ctions
x ic
Ä Ł
Ġ ending
on oun
Ñģ ÑĥÐ´
is an
ĠA wareness
ĠM anning
ĠB BA
Ġb ag
ent ials
ĠR ow
ĠR out
ĠW arren
ĠD uff
Ñĥ Ð¹
Ġh ub
Ġfor t
Ġre ly
Ġr ac
Ġr ival
op ters
ĠK end
ĠÐ½ ÐµÑģ
ĠRe igns
ĠÐº Ð°Ñĩ
Ð¾Ð» Ñı
ab eth
Ġat m
Ð¸Ð½ Ð°Ð¼
Ġal ive
ĠÐĵ ÐĽ
ĠÐĶ Ðµ
ĠÐ» Ð¸ÑĨ
à¤ ľ
Ð¸ÑĨ Ñĭ
Ġab and
Ġfl ags
ĠÐ¿Ð¾Ð´ Ñĩ
ĠBut ler
ĠSouth west
ĠRo ots
Ð½Ð¾Ð¼ Ñĥ
EL PH
UN D
ĠEmploy ees
ĠÐ¼Ð¸ÑĢ Ð¾ÑĤÐ²Ð¾ÑĢ
Ġcent ers
ĠMod ern
ĠTake out
ĠMiss ing
AD ELPH
ĠNear ly
Ġmess ages
Ð»ÑıÐµÑĤ ÑģÑı
ĠÑģÐº Ð¾ÑĢ
Ġclaim ing
à« Ģ
Ġreach ing
Ð°ÑģÐº ÐµÑĤ
ÐµÐ·Ð¸Ð´ ÐµÐ½ÑĤÐ°
ĠKam ala
ÑĤÐ² ÐµÑĢÐ´
ĠJag u
Ġinnov ative
ĠDol phins
ĠPhill ies
ĠÑĩÐµÐ¼Ð¿Ð¸Ð¾Ð½Ð°ÑĤ Ð°
ĠSmack Down
Ð°Ð±Ð»Ð¸ ÑĨÐ°
ĠCz ech
ADELPH IA
P U
P ar
a por
b uster
k istan
p ng
r ights
Ð½ ÐµÐ¼
ÑĢ Ð¾ÑģÑĭ
ĠT ah
ĠA BG
Ġw eren
ĠM V
Ġp eer
ĠB CA
ĠF L
ĠR ise
ĠW G
ĠW SU
ĠD ance
ĠD ynamic
ĠL inc
ĠL OG
Ġd ivers
ĠE ver
ĠH uss
Ġre un
ch ing
Ñĩ Ð¸Ðº
ĠK az
ĠV ision
ĠV inc
ĠRe un
ĠRe venue
ÐµÑĤ ÐµÑĢ
ide o
ĠÐ¿ÑĢ Ð¾Ð¿
ĠSc ene
Ð°Ð¼ Ð±
ĠÐ¡ ÐµÐ¹ÑĩÐ°Ñģ
Ð¾ÑģÑĤ Ð°Ð½Ð¾Ð²
ĠÑĤ Ð¾Ðº
ĠÐ· Ð½Ð°
Ġde port
Ġad missions
Ġse lection
ĠLe ast
ĠÐ¢ ÐĲ
ĠHome page
ĠMin imal
ĠBr acket
Ġ10 2
ĠÐ¾Ð± ÑĢÐ°Ð·
enn e
ĠÐŁÑĢ ÐµÐ·Ð¸Ð´ÐµÐ½ÑĤ
Ġrem ind
Ġcons erv
Ġinter views
uls e
Ġtax payers
Ġlar ger
Ġsever e
Ġent ry
Ġfact or
Ġhost ages
Ġval id
ĠÐºÑĢ Ð°Ñģ
Ġofficial ly
Ġcontribut ions
Ġbank ing
ĠÐ¾Ð¿ ÑĭÑĤ
Ġinvestig ates
ĠAD ANI
Ð¸ÑĢÐ¾Ð² ÐºÐ¸
Ġalleg ations
ĠMur ree
Ġocc up
Ġrout es
ĠExpect ed
Ġz one
ĠAT P
ĠConst itution
ĠWarn ing
ĠTS N
ĠPredict ion
ĠRES ULT
ĠHon or
IL ADELPHIA
ĠKe ith
Ġdoct ors
ĠWhe ther
```````````````` ````````````````
Ġspark ed
Ġuncertain ty
ĠBru ins
reprene ur
ĠArrest ed
ĠÐ·ÐµÐ¼ Ð»Ð¸
ĠTemper ature
Ġsupp osed
ĠKurtz leben
ĠÐłÐµÐ·ÑĥÐ»ÑĮÑĤ Ð°ÑĤÑĭ
ĠÐĵÐĽ ÐĲÐĴ
Ð°ÑģÐºÐµÑĤ Ð±Ð¾Ð»
N G
b order
h ow
l ibrary
r id
v y
w p
or ce
ĠS NL
it amin
Ġs ought
ĠC ourts
ic ip
ic ide
ĠA UT
Ġc overs
ĠN ATION
ĠM ish
Ġp ot
Ġp ushed
Ġb ond
Ġb omb
ĠF DA
ĠL es
ĠL ater
ol itical
ĠH appen
ĠO la
Ġl ux
ĠÐ¿ ÑĥÑĤ
ĠÐ¿ ÐµÐ½Ñģ
ĠÑģ Ð¸ÑĤÑĥ
ĠÑģ Ð½Ð¾Ð²Ð°
Ġst eal
Ġst orage
Ġis land
ĠV l
st ar
ĠÐ½ ÐµÑĤ
ĠÐ½ ÐµÐ·
ill iant
Ð¾Ð½ Ñĥ
Ġor ient
ĠÑĢ Ð°Ðº
ĠÐĴ ÐĺÐĶÐķÐŀ
Ġtr uck
pl ugins
ĠSh ake
ĠAr k
Ñī Ñĳ
ĠÐĿ Ð°ÑĨÐ¸Ð¾Ð½
Ġsh ots
ĠÐ¼ ÐµÐ´
ump h
ĠÑĩ Ð°Ñģ
old s
Ġun ve
pr it
ĠFr esh
ĠPlay off
ĠBl ood
ĠBl oomberg
Ðļ Ðĺ
Ġem pty
ÐµÐ³ Ð¸
Ġpre pare
ĠDel aware
Ġâ Ī
ug ee
AR CH
ĠSou l
ĠOr ders
Ġconf ront
ĠSur gery
ĠDec ides
Ġins ult
Ðł Ð¾ÑģÑĤÐ¾Ð²Ð°
Ġelect ed
à¥ ĭ
Ġexp anding
Ġaccess ible
be kistan
ĠStr ong
ÉĻ n
ĠStory t
ÐµÑĢÑĤ Ñĭ
Ġhappen ings
ĠÑĥÑģÐ» Ð¾Ð²Ð¸Ñı
ĠMad ison
VID IA
Ġdep th
ĠVi ol
Ġlaun ches
ĠEar ly
Ð»Ñİ Ð·
ĠOl iver
Ġann ually
Ġbill ions
Ġsubscrib er
Ġsett led
BL ER
Ġcritic ism
Ġhum idity
ĠIM D
ĠHistor ic
ĠHorn ets
Ġexerc ise
ĠWCS X
ĠPere z
ĠMit chell
ĠDeuts ch
GAM BLER
ĠÑĤÐ¾Ðº ÐµÐ½Ð¾Ð²
ĠÐĵÐĽÐĲÐĴ ÐĿÐĲÐ¯
C ity
U A
W olf
b o
b ir
g rap
w idth
Ä °
Ðµ Ð¾Ð´
ĠS oll
it is
ÑĢ Ð¸Ð½
Ġs olution
ĠT ower
ĠT ribute
ic ate
ĠP ine
ĠP PV
Ġf illed
Ð» Ð¸Ñĩ
ĠD oc
Ġd ating
ĠH ay
ĠH um
ĠH ary
Ġth us
Ġth row
ĠG raham
Ġfor get
Ð² ÑĢÐ°Ñī
Ð¿ ÐµÑĢ
ist ers
ct ic
em pts
ap ed
ÐµÐ» Ð¾
Ġpr a
ĠY ash
ome z
ĠCh oose
ĠÐĴ ÑĩÐµÑĢÐ°
Ġtr ain
ÐµÐº ÑĤÐ¸Ð²
ĠAr men
Ġj oy
ĠSp eed
ĠÐĶ Ð¾Ðº
ĠÐĶ Ð°ÑĤÐ°
ĠÐĺ Ð»ÑĮ
aff irm
ĠÐĳ Ð°ÑģÐºÐµÑĤÐ±Ð¾Ð»
ÐµÐ½Ð¸Ñı Ñħ
Ġ10 6
ĠÐ¾Ð± Ð²Ð¸Ð½
ĠInvest or
Ð¸ÑģÑĤ Ð¾Ð²
ĠRo z
ĠRed s
Ðĵ Ð¾Ð²
ĠÐ¨ Ð°Ñħ
Ġauthor ity
Ġform s
ĠRob in
Ġequ al
ĠExp iration
Ġcoach es
Ġdep end
ĠPark ing
Ġimpro ving
ĠMess age
Ġinvestig ating
ĠÐ¾Ð´ Ð½Ð¾Ð³Ð¾
ĠCas ino
ĠWel comes
Ġdecl ared
Ġsubscrib ers
Ġsett ings
Ġsett lement
Ġlim its
ĠBR ICS
ĠOlymp ic
Ð¸Ð½Ð°Ð½ Ñģ
ĠÐĲÐ·ÐµÑĢÐ±Ð°Ð¹Ð´Ð¶ Ð°Ð½Ðµ
Ġstre ets
ĠSynd rome
ĠUz bekistan
ĠÐĹÐµÐ»ÐµÐ½ ÑģÐºÐ¾Ð³Ð¾
Ġdram a
Ġmil k
ĠÐļÐ¸ÑĤ Ð°Ð¹
Ġeas ier
ĠInnov ators
ĠPad res
ĠDisrupt ors
ĠStub hub
Det ect
ĠMEN U
ĠMalay alam
H A
M L
W ith
a a
b ound
b lock
c ross
h r
i Ã³n
o id
Â ®
â ĺħ
in er
Ġt ickets
Ġa wareness
on na
ĠS r
Ġs ands
ĠC ert
ĠT ap
ĠA qu
ĠA vail
ĠN T
ĠB um
ĠI g
ĠD VIDS
ĠL i
Ġd ates
am o
am ation
ĠH C
ur l
Ð¾Ð² Ð°Ñı
th an
im ages
ĠSt arr
Ġr iver
ĠÐ¸ ÑģÑĤÐ¾ÑĢ
Ð¿ Ð¿
Ð¸ÑĤ Ð°
00 00
ĠCh op
ass e
Ġcon gest
ik ed
ĠAr sh
ĠCr imes
Ġj ail
per form
Ġad ults
ĠCon v
ÐµÐ² ÐµÑĢÐ¾
Ð¾Ð¿ ÐµÑĢ
ĠÑį ÑĤÐ¸
ĠBe gin
Ðĺ Ð¢
Ġwork force
ĠÑģÐ²ÑıÐ· Ð¸
Ġass et
ven ues
Ġbel ief
Ġworld wide
Ġcontr acts
Ġexp ensive
ĠMich iana
Ġhead ing
ĠDes ert
ĠLeg ate
Ġ200 6
ĠÐ¥ Ð°ÑĢÑĮ
ĠLaw rence
Ġmem es
ĠÐ²Ð¾ Ð¾ÑĢÑĥÐ¶
Ġposs ibility
Ġimport ance
ĠÑģÐ» ÑĥÐ¶Ð±
ĠÑģÐ¾Ð¾Ð±Ñī Ð°ÐµÑĤ
ĠÐĵÐ¾Ð´ Ð¸Ð½
Ġann iversary
Ġrecomm ended
Ġfig ures
ĠTO DAY
Ġprepar ing
Ġneg ative
ĠPH ILADELPHIA
ĠGab bard
ĠBrazil ian
Ġshock ed
ĠJo el
ĠBrook lyn
ĠSir aj
Ġ125 7
ĠÐ°Ðº ÑĤÐ¸Ð²
ĠÐĴÐ°Ð» ÐµÑĢ
includ es
Ġdoz ens
ĠND TV
Ð¸Ð½Ð³ÑĢÐ°Ð´ Ð°
ĠExtr as
ĠÐ¾Ð¶ Ð¸Ð´
ĠLinc ol
Wolf e
( ):
B P
C he
F it
Y M
p e
w inning
ë ¶
on ent
ĠC amb
ĠC afe
ĠA am
ĠA FL
Ġw ed
Ġf iles
Ġf utur
ĠN elson
ĠN VIDIA
ĠM ight
ĠM az
ĠM au
ĠF isher
ĠW ASH
ĠW restle
ĠD han
ol ese
us hi
iv an
ĠG reet
ro e
Ð´ Ñĭ
ab a
ÐµÑĤ Ð²
ĠTh anks
Ð¾Ð´ Ð½ÑĭÐ¹
ĠY as
ĠY uma
ĠCh y
ĠÐ´ ÐµÐ²
ĠÐ´ Ð¾ÑģÑĤÐ¸
ĠÐľ ÑĥÐ·
ĠÐł Ð¾Ð¼
ĠÑĤ Ð¾Ð³Ð¾
let ed
Ġde portation
ÐµÐ² ÐµÑĢ
iz abeth
Ġch ap
ĠUn ve
ĠTo ol
Ġcomp ens
ĠBl az
ÑĥÑĢ Ð¼
ĠCan nabis
ĠÐ¾Ð± ÑĭÐ³ÑĢ
Ġpre ferences
Ġam azing
ĠCar ing
ĠFl oyd
Ġrel ative
ĠGo ing
ĠOut door
Ġsur veillance
ĠInvestig ators
ÑĢÐ°ÑĦ Ð¸Ðº
ĠId ea
ĠFound ers
Ġdeliver ing
Ġnational s
Ġeffect ively
Ġtarget ing
ĠCre ated
aps e
Ġgl ass
ĠBen zing
ĠÑģÐ²Ð¾ Ñİ
Ġassoci ation
Ġabs olutely
Ġpull ed
Ġuns ubscribe
Ġdisplay ed
ĠRand y
ĠMob ility
ĠSpirit uality
Ġcraft ed
ĠDub ai
olid ation
ĠOuts ide
ĠCong olese
Ġparam eter
ĠJagu ars
ĠGreet ings
ĠBenzing a
- -
A X
r s
r age
t anding
ĠS ent
ÑĤ Ð¸Ð¹
al em
ĠA j
ĠP ant
ĠN PS
ĠM ART
Ġp aint
ĠB enn
ent ures
ĠR ace
ĠW iz
Ġm yself
ĠD ere
ĠL ay
Ġd ens
ĠH en
ĠH ag
ig e
os ph
Ġe merging
Ġr ally
ĠV otes
ĠV ermont
ate ful
Ð°Ð½ Ð¸Ñİ
ak umar
Ġy ield
ri er
ĠÐ´ Ð°Ð²
ĠÐł ÑĭÐ½
ĠSh ot
Ġpl ants
Ġal um
Ġres et
Ġag gress
ĠÐ¼ Ð¾ÑĢÐµ
Ġ5 4
Ġwill ing
Ð¾Ñĩ Ð½Ð°Ñı
Ġ8 1
Ġ8 2
ĠÐĺ Ð½ÑĤ
ĠÐ¢ Ð°ÑĤÐ°ÑĢ
ĠÐĲ Ð¼ÐµÑĢ
Ð¸Ð¼ Ð¿
ang le
ĠPre vention
ĠWatch list
Ġfl ag
Ġmin ute
Ġdet ained
ĠSw im
Ġlist ed
Ġprom otions
Ġhead lines
ĠMet ropolitan
LE T
mig rant
Ġfeat ured
RA G
Ġclos ing
Ġve get
Ġreb uild
Ġcompet itive
Ġimplement ed
Ġarr ived
Ġrespect ful
ĠBob by
ĠGrow ing
Ġtrust ed
Ġprofess or
Ġdisapp oint
Ġsuff ered
ĠÐľÐ°ÑĤ Ñĩ
ĠLat ino
Ġstrugg le
ĠCatch es
ĠBreak fast
ĠIdent ity
Ġcirc um
ĠDro ps
ĠÐĺÐ½ÑĦÐ¾ÑĢÐ¼ Ð°ÑĨÐ¸Ñı
ĠWFP K
ĠÐ¼ÑĥÐ¶ Ñĩ
ĠÐĽÐµÐ½ Ð¸Ð½Ð³ÑĢÐ°Ð´Ð°
ĠVinc ent
ĠHary ana
ĠBum rah
( //
C ar
T N
U RE
a ver
u wa
à ²
ĭ Ŀ
ĠP irates
Ġw est
Ġf og
Ġp sych
ĠB att
ĠF R
ent any
Ðº Ð¾Ð²Ð°
Ġh air
ĠG ay
ÐµÐ½ Ð½Ð°Ñı
Ġg ang
ĠSt one
ĠK al
ĠV u
and al
up ta
ĠÐº Ð¸Ð½Ð¾
Ġpr ed
ĠPr incip
ĠÑĥ ÑģÐ¿
ĠCr uz
Ġcont ains
ĠWh ich
Ġch ips
az ine
Ġcl ipboard
ĠÐ¤ Ð¸Ð»ÑĮÐ¼
iss a
ĠBl asts
Ġrec alled
Ġme ets
Ġper haps
Ġplay off
Ġback ground
Ġtrans ition
Ġconf usion
ĠPun k
ĠVe hicles
ĠMet a
Ġoper ate
Ġsim pl
su le
ĠÐĲÐ»ÐµÐºÑģ ÐµÐ¹
ĠÐ³Ð¾ÑĢ Ð¾Ð´Ð°
Com mon
Ġattorney s
ĠMid day
ĠInterns hip
Ġseem ed
ĠÑģÐ¾Ð² ÑĢÐµÐ¼
unning ham
ĠNeg oti
gs eth
dr iven
Ġeth ics
ĠÐ¾ÑĪÐ¸Ð± ÐºÐ¸
ĠDR C
Ġselect ed
ĠJas prit
Ġestim ates
Ġresc inded
andel ion
ĠSK IP
Ġkil omet
Ġnumer ous
ĠRapt ors
ĠHun ter
ĠÐĹÐ°Ñħ Ð°ÑĢ
ĠCath olic
Ġâļ ¡
ĠÐ¿Ð¾Ð´Ñĩ ÐµÑĢÐº
ĠâĪ Ļ
entany l
c ade
m ates
v is
w ing
Ġa partment
Ġa erospace
at ically
Ñģ ÑĮ
it utes
ĠA C
re ation
ĠN am
ĠB ark
Ġb ang
ĠF unny
ew here
ĠL ower
Ġd ental
ĠE O
ec oin
ĠG omez
ur ry
ir s
ter ed
ĠÐ¿ Ð»Ð°ÑĤ
ĠIn box
ĠK N
ĠK id
ĠK urs
à´ «
ĠÐº Ð°ÑĤÐ°ÑģÑĤÑĢÐ¾ÑĦ
ant i
Ġpro ced
ĠÐļ Ð°Ð½
ĠÑĥ ÑĤ
Ġnot ing
ĠSp ider
Ð¸Ñģ Ð°
ĠÐ³ Ð¾Ð½
ah u
ĠÑĩ Ð¸Ñģ
ĠÑĩ ÐµÑĤÑĭ
Ġint eg
Ð¸Ð¼ Ð¾Ð²Ð¸Ñĩ
ĠBr istol
Ġover night
ĠEnter prises
ĠPhil ipp
Ð¸Ð´ Ð¶
ric ultural
ĠÑĦ ÑĢÐ¾Ð½
ĠCopy rights
19 95
Ġsub mitted
ĠView ed
Ġbr ut
Ġass um
ĠOr igins
ĠÐ¿ÑĢÐ¾ Ð¸Ð·Ð²
ilit ation
Ġgu ys
ĠChar gers
Ġexpl ains
ĠMc G
ĠPer fect
ĠProm ote
ĠDef endants
ĠSil o
Ġpersonal ised
ĠÐ°Ð² ÑĤÐ¾ÑĢ
ĠSim ple
Ġrecogn ition
Ġcheck ed
ĠDead line
ÑģÐºÐ¾Ð¼ Ñĥ
¸ì §
Ġimplement ing
ĠContribut ors
Ġviol ent
!! !
Ġsong s
ĠWM OT
Ġpiec es
ĠÑĢÐ°Ð¹ Ð¾Ð½Ðµ
ĠMusl ims
ĠAlph a
ĠÐºÑĥÐ»ÑĮÑĤÑĥÑĢ Ñĭ
Ġdestroy ed
ĠDash board
sub ject
ĠCandid ates
ĠÑĩÐµÐ¼Ð¿Ð¸Ð¾Ð½ Ð¾Ð²
ĠLiver pool
ĠÐĿÐĳ ÐĲ
Ð»ÑİÐ· Ð¸Ð²
ĠChop ra
F T
H IP
f ull
h st
l ar
m aking
r as
Ġt ied
Ġt agged
on st
ĠS plit
it ively
ĠC unningham
ĠA part
Ġf it
Ġf ly
ĠN ad
ĠM atter
ĠF ever
ent a
ĠR ays
ĠR ivers
ĠD or
ĠL ate
ĠH BC
ĠH unt
ĠH ung
ot ive
ĠJ oy
Ð´ ÑĥÑĤ
ess ing
Ġst ood
ĠV iv
ate ver
if iers
out ure
ĠÐº Ð°ÑĢ
ÐµÐ» Ðµ
Ġv illage
ĠY o
ĠÐ¿ÑĢ Ð¾ÑģÑĤÐ¾
ĠÐ´ ÐµÑģÑı
ĠSc am
ĠÐ¡ Ð¢
ĠÐł Ð¾ÑģÑĤÐ¾Ð²
ĠÐļ Ð¸Ð½Ð¾
ĠÑĥ Ð¼
Ġres ilience
ĠÐ¼ ÐµÑģÑĤÐ°
Ð°ÑĨ Ð¸Ð¹
ĠÑĩ Ð¸Ð½Ð¾Ð²
Ġcl ock
tain ing
ĠÐ¢ ÐµÐ³Ð¸
ÑĢÐ°Ð½ Ð¸Ñĩ
Ġar ms
ĠMus ical
ĠIt al
25 0
ĠAnd erson
ress ed
ĠÑĦ Ð¾ÑĤÐ¾
ĠEdit ors
ĠRec alls
ĠZ odiac
Ġact ors
ĠReport ing
ĠSec ret
Ġgu est
Ġdr iven
ÑĥÑģ Ð°
Ġhead quarters
Ġtrad ed
ĠÐ¥ Ð¾ÐºÐºÐµÐ¹
Ġcook ing
Ġthough ts
Ġless ons
Ġtem por
ĠDemocr acy
ĠAff ord
ĠHear d
ĠAugust a
Ġdiscuss ed
ĠHot el
ĠMO V
ĠÐ½Ð°Ð¿ ÑĢÐ°Ð²
iec e
Ġwitness es
ĠMult i
Ġer a
ĠWI RE
ÑģÑĭÐ» ÐºÐ°
Ġne ur
Ħì ķ
ĠGri zz
ĠSubst itute
Ġdeg rees
Ġhighlight ed
ĠRod rig
ĠCollabor ation
Ġcha otic
Ð°ÑĤÑĥÑĢ Ð°
ĠExclus ives
ĠSams on
ĠÐºÐ¾Ð¼Ð¼ÐµÐ½ÑĤÐ°ÑĢ Ð¸Ð¹
ĠARTIC LE
ĠÐ±ÑĢ Ð¸Ð³
Ġavail ability
yew itness
ĠSury akumar
ĠÐ¿Ð¾Ð´ÑĩÐµÑĢÐº Ð½ÑĥÐ»
ĠHBC U
C ard
d ney
m ad
n or
n ic
r aining
t v
u ct
z en
it ime
Ġs ounds
ĠP ined
Ġc ircle
Ġf ought
Ġf umes
ĠN amed
ĠM osc
Ð» ÑİÐ´
ĠB ee
Ġb ills
Ġm ap
Ġm ale
ĠL ot
Ġd iseases
Ġ20 04
ĠO PM
ĠO val
ir t
Ġl ands
Ġl aid
ĠU W
ul ations
ÐµÐ» Ð¸Ñĩ
ack ing
ĠCh alam
ĠÐ¿ÑĢ Ð¾ÑģÑĤ
ĠÐ¿ÑĢ Ð¸Ð»Ð¾Ð¶ÐµÐ½Ð¸Ñı
ĠUs ed
Ġcon cept
ik ely
ĠÐ½Ð° Ðº
ĠPl edge
Ġcr edits
ĠÐĿ Ð°Ð¿
ĠÐ¼ Ð½Ðµ
ian ne
ĠDe pr
ĠÐ» ÑİÐ´Ð¸
à¤ ¹
ace ut
Ð¸Ñĩ ÐµÐ³Ð¾
ĠRes idents
ĠBr ady
ĠAmeric as
ĠBe g
ĠÑĦ Ð¸Ð½Ð°Ð½Ñģ
ĠZ aid
ĠSk i
Ġunder ground
Ġdef icit
Ġstart up
ðŁ Ĵ
ven ile
ĠAng els
ĠSan ju
ĠPR O
Ġext reme
erst ar
Ġperform ing
Ġ200 5
àª °
ÐµÑĨ ÐµÐ¿
ĠSal man
ĠBh avan
Ġconsider ing
ĠFri end
ĠDep recated
ĠVolunt eers
ĠResp ons
pis odes
ĠÐĲÐ½Ð´ÑĢ Ðµ
Ġrefer ral
ĠInv itation
Ġsou thern
Ġwor st
ĠHo ch
Ġobs erv
ĠÐŁÐ¾ÑģÐ» ÐµÐ´Ð½
Ġfatal ities
ĠÐ½Ð¾Ð²Ð¾ÑģÑĤ ÐµÐ¹
ĠCollabor ative
ÑĪÑĤ Ð°Ð±
ĠÐ¿ÑĢÐ¸Ð·Ð² Ð°Ð»Ð¸
Ġbreat he
Ġchampions hip
ĠÑģÐ¾ÑģÑĤÐ¾ ÑıÐ½
Ġindust ries
ĠInfl ation
ĠÐ¿ÑĢÐ¾Ð± Ð»ÐµÐ¼
ĠSuz lon
ĠLeban on
Ġtranspar ency
apor e
ĠDhan ika
Ħìķ ¼
ĠPined a
ĠChalam et
C r
C ont
D em
L ong
d i
h al
l ied
r at
Ġa w
Ð¸ Ð°ÑĤ
ĠS ug
ĠS eth
ĠS IT
ed er
ĠA Z
ĠP in
ĠP am
Ġw atched
as er
as ks
ĠN O
ĠN ir
ĠN TV
ĠM aker
Ġp ounds
ĠB aj
ĠF ellow
ĠI ron
ĠD ome
ĠD aughter
Ñĥ Ð°Ð»ÑĮÐ½ÑĭÐµ
Ġh int
Ġh yp
ĠH app
os ystem
ot he
ĠU g
ĠJ ays
im p
Ġg ift
Ġr ide
Ġst agn
Ð°Ð½ Ð½ÑĭÐ¹
à´ İ
ĠÐº Ð¾Ð´
ÑĪ ÐµÐ»
ect rum
ÐµÐ´ Ð¸Ð¸
ra wn
âĢĿ :
ĠInd ones
ĠÐĿ Ð°ÑģÑĤ
ount ry
aw s
aw as
ĠMar athi
Ġ7 00
Ġsc ale
ĠCan ara
oday u
ĠÑĦ Ð¸Ð½Ð°Ð½ÑģÑĭ
Ġso ft
Ġsec rets
Ġbl og
Ġreg ions
ON S
Ġbr others
AR CO
ĠElect ronics
ÑĢÐ°ÑĤ ÐµÐ³
oth ing
ĠAss ault
Ðł Ñĥ
Ġexp end
Ġec osystem
Ġprot ests
Ġhead s
iqu in
Ġmem ory
Ġemploy ment
ĠEd ison
ĠNav y
ĠTe en
OC I
Ġcapt ure
Ġnation wide
ë¬ ¸ì§
Ģì ĭĿ
ĠSud oku
Ġannounce ments
ĠPS A
Ġlic ensed
ĠÑĢÐµÑĪ ÐµÐ½Ð¸Ðµ
ĠSystem s
Ġdeterm ine
ĠKA AL
ë¬¸ ë¶
mat ics
Ġscr ut
ĠìłĦ ë¬¸ì§
ĠìłĦ ë¬¸ë¶
ĠTok yo
ĠLar ge
Ġprote in
Ġdoub t
ĠDJ s
Ġtre ated
ÑĥÐºÐ¾Ð² Ð¾Ð´
ĠPerspect ives
ĠWil son
ĠBlaz ers
ĠMosc ow
ĠìłĦë¬¸ì§ ĢìĭĿ
ĠìłĦë¬¸ë¶ Ħìķ¼
' ?
? "
c oh
p oon
y apa
Ã ¤
Ø ±
Ġ ;
Ĩ ķ
Ð° ÑĦ
ĠS ull
it o
ĠT ank
Ġc ited
ĠN utrition
Ġin quir
ĠF avor
ĠF ishing
ĠR affle
ĠW T
ac hel
ad ow
ĠG iven
Ġn ov
ĠU C
ĠJ ourney
est ry
Ġg aming
ĠK AN
à´ ŀ
ud den
ĠÐŁ Ð¾ÑĢ
ok ed
Ð°ÑĢ Ñĭ
ĠÐ´ Ð¸ÑĢ
ĠÐ´ Ð°Ð¶Ðµ
ell a
ĠÐŀ ÑĦÐ¸ÑĨÐ¸
ĠÐ± Ð¾ÐºÑģ
Ð°Ñģ Ð½Ð¾ÑģÑĤÐ¸
ĠBusiness es
Ð»Ñı Ð´
ang o
Ġ9 6
ĠSign s
Ġqu e
Ġreg istration
AR S
Ġatt ract
ĠMe h
ĠCo oper
ĠOr t
Ð¸Ð³ Ð¸
ĠTrans gender
ÐµÐºÑĤ Ð¾ÑĢ
ĠReal ity
ĠAct or
ĠGive away
Ġhead ed
ÉĻ k
Ġcomment ing
mar ket
Ġsent ence
Ð½ÐµÑĢ Ð³
ĠÐ²Ð¾Ð· Ð´ÑĥÑĪ
ĠBel g
Ġdep recated
Ġcelebr ating
ĠHour ly
Ġperm an
ĠÑģÐ²Ð¾ Ð¸
Ġpoll ing
ecess ary
Ġvis ual
ĠPict ure
ĠDisclaim ers
Ð¼Ðµ Ñī
ĠTechn ical
ĠRoll over
ĠAmb ulance
ĠÐ¿ÑĢÐµÐ´ÑģÑĤÐ°Ð² Ð¸Ð»Ð¸
PH A
ĠRh ode
Ð¸Ð»Ð¾Ð¶ ÐµÐ½Ð¸Ðµ
ĠRav ens
Ġtele vision
ĠEll is
ĠConvers ation
ĠÐ½ÑĥÐ¶ Ð½Ð¾
Ġsens itive
Ġmeaning ful
Ġconduct ed
ĠÑģÐµÐ· Ð¾Ð½Ð°
Ġestim ated
ĠYe ah
Ġadop tion
ĠWS J
ĠGlob e
ĠSel ena
ĠHab ib
ĠÑĢÐµÐ¶Ð¸Ð¼ Ðµ
ĠIntegr ity
ĠÐĶÑĢÑĥÐ³ Ð¸Ðµ
Ġfutur istic
hst odayu
ĠZaid i
8 4
O LL
S ubscribe
k ov
x id
ĠC a
ĠT ab
ĠT erm
Ġw age
Ġw aste
Ġf ellow
ĠN ord
le e
ĠF olk
Ġm aster
ĠD raw
ew ear
ĠL ens
ĠL uc
el ing
ĠO pt
Ġe at
ĠK uwa
igh am
ÐµÑĢ ÐµÐ´
Ð· ÑĭÐ²
ĠÐ½ ÐµÐ²
em y
Ġpr ol
Ġpr int
Ġex port
Ġex clus
ĠÐ´ ÑĥÐ¼
ĠÐĴ Ð¾ÑģÑģÑĤÐ°Ð½Ð¾Ð²
Ð¾ÑĤ Ð°
ass y
ĠÑĥ ÑĢ
Ð¶ Ð°
ĠÐ¼ Ð¸Ð³ÑĢÐ°Ð½
ah a
Ġse ed
ĠRes ource
Ġsc attered
ĠÐ¾Ð± ÑıÐ·
ĠIm press
ĠAg ent
ĠNo or
Ġair plane
af ood
Ġcap tain
ĠTrans fer
ĠBu ck
ĠArt ist
St r
Ġlar g
ĠBeng als
Ġhelic opters
ĠSte ven
Ð´ÑĢ ÐµÑģ
Ġ200 3
Ġ200 8
ĠSy dney
ĠSing apore
ET H
Ġearn s
ĠÐ¯ ÑģÑĤÑĢÐµÐ¼
ĠBel ize
ĠMill at
ĠDen mark
Ġspec ifically
ĠLove yapa
ĠÐŀÑĤ Ð²ÐµÑĤ
ĠIT C
Ġpoll s
ĠMem ory
ĠÐŁÐ¾ Ñħ
Ġregul atory
ĠCommission er
Ġpers pect
ĠÐ½Ð°Ð³ÑĢÐ°Ð´ Ñĭ
ĠÐ²ÐµÑĢÑĤÐ¾Ð» ÐµÑĤÐ°
ĠÐĿÐ¸ÐºÐ¾Ð» Ð°
ÐĵÐ¾Ð³ Ð¾Ð»ÐµÐ²
ĠMob iles
reprene urs
ĠKul deep
ĠÐ¼Ð¸Ð»Ð»Ð¸ Ð¾Ð½Ð¾Ð²
ĠBoil en
ĠAbb ott
ĠÐ½ÐµÑģÐº Ð¾Ð»ÑĮÐºÐ¾
ĠSull ivan
ĠKuwa it
D O
b ro
b ag
b ul
c anc
k es
p ret
p oints
Ĺ ¥
es ity
ĠS ony
ĠS ample
ÑĢ Ð°Ð»ÑĮ
Ġs and
ĠT am
is ers
ĠP ain
ĠP ink
ĠM urr
ĠM oral
Ġp ed
om pl
ĠB S
ĠB ids
ĠB oys
Ġb old
ĠD estination
ĠL ock
ĠL IV
iv or
ĠG upta
ot ech
Ġn awaiwaqt
ĠJ inn
Ġg all
ĠÑģ Ð¾Ð³Ð»Ð°Ñģ
por a
ĠÐ½ ÐµÐº
ĠÐļ ÑĥÑĤÐ°
ĠÐ· Ð½Ð°Ñĩ
Ġcont em
ĠSp oil
ĠAn ti
ĠEx it
ĠPh ool
ue z
sc ale
ĠÐ± Ð¾Ð¹
Ġ6 9
ĠÐĽ Ðµ
Ġun con
ĠEm an
Ġdis ag
Ðŀ ÑĤ
ĠIm port
Ġdown load
ĠSur faces
ĠCap tain
ĠSup ply
ĠMc M
ĠÐ¿Ð¾Ð» Ð½Ð¾ÑģÑĤÑĮÑİ
yp es
ĠPort ug
ĠÐ´Ð°Ð½ Ð½ÑĭÑħ
ĠFound er
ĠKV CR
Ġmus ical
Ġpick ed
ĠCourt esy
ĠÐ¾ÑĤÐ½Ð¾ ÑĪ
ĠSun s
ĠMah nama
ĠÐŀÑĤ ÐºÐ°Ð·
ĠÑģÐº Ð°Ð½Ð´
ÑĢÐµÑĤ ÑĮ
ĠSar f
ĠÑģÑĤÑĢÐ°Ð½ Ðµ
Ġbrief ing
ĠThreat s
75 80
Ġprepar es
ĠHawai i
Ġjud iciary
ias pora
Ã¡ s
ĠSof ia
ĠExt ension
ĠWa qt
Ġbelie ved
ĠTA SS
»ł Ĺ
ĠFoot er
Ġexecut ives
ĠAx ar
ogg le
ĠÐ¡ÐµÐ¼ ÐµÐ½
ĠShock er
ĠÐ¿ÑĢÐµÐ¼ Ð¸Ð¸
ĠNic ol
ÑĢÐ°Ð½ÑģÑĦ ÐµÑĢÑĭ
ĠUlt imate
Ġearth quake
ĠÐŀÐ» Ð¸Ð¼Ð¿
ĠNid ai
imon ials
ĠRoz nama
ĠArsh deep
Ġcircum st
ĠMOV IES
ĠÐļÑĥÑĤÐ° Ð¸ÑģÑģÐºÐ°Ñı
M int
e ur
f ox
h att
h urst
i ja
p ad
t op
u ana
ľ ¡
an ic
ĠC AL
ĠT CS
ĠA ad
ĠP ull
Ġc opy
Ġw earing
ĠN ostalgia
le ad
ĠB I
Ġb oss
Ġb right
ĠF ather
ĠF ILE
ĠR ange
Ġm ad
ol ving
el a
ad os
ig ure
ĠJ ade
est ation
Ġe ase
ĠÐ¿ Ð¾ÑĩÐµÐ¼Ñĥ
ĠSt eam
ĠâĢ Ŀ
ĠÐ² Ð°Ñģ
ĠÐ² ÑĤÐ¾ÑĢ
Ġst ead
ĠK ur
ĠK ind
ĠV augh
Ð¾ÑĢ Ð¾Ð·
ĠÐ¿ÑĢ ÐµÐº
ĠÐ´ ÑĥÑĪ
Ġcon ven
ĠAr ctic
let in
ĠÐĿ Ð°ÑĢ
ĠRes idency
ĠCol ts
mit ter
urn iture
ĠÐ£ Ðķ
Ġper pet
Ġà´ ¬
ÑĥÐ´ Ð°
ER ED
ÐĿ ÐĿ
we go
ĠRec ap
ÐºÐ¸ Ð¿
Ġinvest or
ĠAm pl
ĠComp lete
ĠReport ed
ĠAss istant
ÑĢÑĥÐ· ÐºÐ°
Ġcount y
Ðł Ðĺ
ĠÐ¶ Ð¸Ð»
ĠÑģÐ¿ Ð¾ÑģÐ¾Ð±
ĠFood s
ĠExpl os
ĠCO L
Ġhead line
Ġwrit es
bor ough
ĠIP A
Ġsl abs
Ġconfirm s
Ġaddress ing
mar gin
ĠMal ays
ĠCy cling
ĠUN IT
ĠHorosc opes
ĠVi jay
Ġsusp ended
Ġsubscrib ing
ĠNAS A
fort un
Ġmind s
ĠProt ect
Ġrequest ed
Ġvot ers
ruit ment
Ġadvertise ments
ÑĢÐ¾Ð± Ð½Ð¾ÑģÑĤÐ¸
ĠÐŁÐµÑĤÑĢ Ð¾Ð²Ð¸Ñĩ
Ġweap on
ĠOw ens
ĠRish abh
ĠÐ¥Ð°Ð± Ð°ÑĢÐ¾Ð²
ĠFal cons
ĠÐŃÐºÑģÐº Ð»ÑİÐ·Ð¸Ð²
ĠÐĲÐ½ÑĤ Ð¾Ð½
Ġdepr iving
ĠÐ¥Ð°ÑĢÑĮ ÐºÐ¾Ð²
1995 25
ĠJinn ah
ĠEman uel
ĠÐ£Ðķ Ð¤ÐĲ
D on
R es
s enal
w in
Ġ ).
ĥ Ŀ
he alth
it ors
ĠC od
ĠC urt
ĠT oggle
re em
ĠP ocket
Ġw reck
Ð» ÐµÐ´
Ð» Ð¾Ðº
Ð» Ð°Ð³
Ð» ÐµÐ²Ð¸Ñĩ
ĠB ond
ĠB harat
ĠI V
Ñı Ð¹
ĠH Q
ÑĮ Ð²
ĠG au
Ġre forms
Ġg am
ĠÐ¿ Ð¾Ñĩ
Ñĩ ÐµÐ½ÐºÐ¾
Ð¼ Ð¾
ĠV ed
um ber
Ġbe auty
ĠTh reads
Ġpr icing
Ġv ary
Ð°ÑĢ ÐµÐ²
ĠCh ah
ĠSc ient
Ġor ange
qu i
ĠÐ· Ð°Ð³
ĠÑĥ Ð³ÑĢ
ob ody
Ġus ername
ĠÐĶ ÐµÐ½ÑĮ
aw er
ĠMar sh
ĠÑĩ Ð¸ÑĤ
ett es
ĠAl b
ĠNew born
ÐµÑģÑĤ ÐµÑĢ
ĠRadio Live
eral d
Ġà´ ²
Ðŀ Ð¢Ðŀ
ars hip
Ġind igenous
min t
Ġcons istent
Ġair ports
ÑģÐ¿ Ð¾ÑĢÑĤ
Ġread er
ert il
ĠCap sule
Ġsur ge
ÑĢÑĭ ÑĤÑĮ
ĠEl i
FS A
ĠMonth s
Ġprom ise
ĠÑģÐ°Ð¼ ÑĭÐµ
Ġmain tenance
ĠÐŁÐµÑĢ ÐµÐ³Ð¾Ð²Ð¾ÑĢÑĭ
cess ed
ĠÐĴÐ¾Ð¹ Ð½Ð°
ĠAssoci ate
Ġturn s
Ġturn ing
ĠSl ov
Ġpresent ation
Ġgener ally
Ġwild fire
ĠPit ch
ĠÑĢÐ¾ÑģÑģÐ¸Ð¹ ÑģÐºÐ¾Ð³Ð¾
Ġprem ier
ART H
ĠRev olution
Ġsat isf
Im agn
ĠFight ing
ĠPros pect
Ġaward ed
Ġtransport ing
Ġê µ
ĠSnap chat
ĠRav indra
ĠDomin ica
Ġrank ings
ĠTest imonials
ĠEat on
ĠCub a
ĠðŁĶ ¥
Ġsym pt
Ġcandid ate
ĠMusl im
ĠÐĹÐ¸Ð¼Ð½ ÐµÐ³Ð¾
Ġarg ue
ĠFat ima
ĠÑįÑĦ Ð¸ÑĢ
æľ ¬
ĠFinanc ings
ĠNA STP
Ġwonder ful
Ġhop ing
ĠAur ora
ĠÐ´Ð¾ÑĢ Ð¾Ð³
ĠCorre ctions
adim ir
ĠVl adimir
Ġorient ation
ĠDere k
Ġtempor arily
ĠDepr avity
ĠÐŁÐ¾ÑģÐ»ÐµÐ´Ð½ Ð¸Ðµ
P ac
S H
W O
a ar
d ict
¦ ¬
Ġ è
Ð¸ Ð¾
ĠS L
ĠS ang
ĠA F
Ġc aut
om ed
ĠB BC
Ġb ath
ĠF IA
ĠR on
ĠR oku
ĠW is
ĠD ad
et al
ĠL ac
Ñı Ñĩ
ĠO man
ĠÐ¿ Ð»ÐµÐ½
ĠK M
ĠÐ½ Ð°Ð±
ĠRe id
ĠÐº ÑĥÑĢ
Ð¾Ð» ÐµÑĤ
ab we
ĠÐ¾ ÑģÑĤÐ°Ð²
ĠÑĢ ÑĥÐºÐ¾Ð²Ð¾Ð´
cc i
Ġtr illion
ell ar
ĠÐŀ Ñģ
ĠÐļ Ð°Ð¶Ð´ÑĭÐ¹
ra ich
Ġk m
ĠHe gseth
iz on
Ġch ain
ĠMar cos
ĠÐ± Ð¸ÑĢ
ÐµÐ½ÑĤ Ñĥ
Ġacc eler
ĠÐ¢ ÑĢÐ°Ð½ÑģÑĦÐµÑĢÑĭ
ĠEv an
Ġ7 2
ĠIt aly
Ġover whel
ĠÐ¸Ð½ Ð¾ÑģÑĤÑĢÐ°Ð½
ĠÐ¾Ð± Ð½Ð°ÑĢ
aj ee
br id
med ia
Ġà¤ ¬
Ġbig ger
ĠÐ¨ Ð¸ÑĪ
ĠÐ¸ÑģÐ¿Ð¾Ð»ÑĮÐ· Ð¾Ð²Ð°Ð½Ð¸Ñı
Ġ199 3
OT T
Ġent h
ĠConcer ns
Ġactiv ewear
ĠÐķÐ² ÑĢ
34 2
Ġnav igate
ĠPay Pal
Ġkind ly
ĠÑĥÐ´ Ð¾Ð±
roll ed
Ġresult ed
Ġresult ing
ĠCylind ers
ĠÑĥÐ² ÐµÐ»Ð¸Ñĩ
ĠÐľÐ°ÑĤ ÐµÑĢÐ¸Ð°Ð»Ñĭ
ĠBah amas
ĠEV s
Ġmot or
Ġcateg ories
ĠKA WC
Ġbi ological
ĠÐ·Ð°Ñī Ð¸ÑĤ
Ġbirth day
ĠCommun ications
Ġadvertise ment
imb abwe
ĠKr ist
ĠÐ¼Ð½ Ð¾Ð³
700 5
Ġdevast ating
ĠÑĤÑĭÑģÑı Ñĩ
ĠVot er
Ġmanufactur ers
ĠTit ans
ĠÐĲÑĢÑħ Ð¸Ð²
Ĳì ľ¡
Ġpil ots
Ġphr ase
ĠShake up
Common wealth
Ġlarg ely
ĠMurr ay
ĠSarf raz
ĠJade ja
Ġêµ Ĳìľ¡
4 00
E P
R ead
S uh
T H
h is
v ia
Ð «
in ity
Ġt aste
it or
it ative
it ecture
ÑĢ ÐµÐ¶Ð´
ĠC ore
ĠC ivil
Ġc ul
Ġc iting
as vi
ĠN IP
ĠM ig
om ine
Ġb ul
ĠR oh
ĠW ash
Ġm al
ĠD atabase
Ñĥ ÑīÐµÑģÑĤÐ²
ĠL y
Ġh ate
ĠE yewitness
ÑĮ ÐµÑĢ
Ñĭ Ð»
ec e
ĠJ ato
Ġe ast
ĠÑģ Ð¼Ð¾Ð¶
our ed
Ð¾ÑĢ ÑĤÐ¸Ð²
Ð°Ð½ Ñģ
and ise
har ah
ĠTr y
Ð¸Ðº Ð²Ð¸Ð´
Ġhe av
ĠÑĢ ÑĥÐ±
Ġal though
ĠEn h
ĠPl anner
ĠCr iminal
ĠSub ject
ree k
ĠÐ± Ð°ÑĢ
Ġout comes
Ð°Ð´ Ðµ
ĠÐĳ Ð°ÑĢ
any a
ĠMin i
ĠÐ¸Ð½ ÑĤ
Ġ9 2
ĠBe gins
Ðĺ ÐĹ
ÐµÐ· Ð´Ð°
Ġind icated
eep ing
ĠÐĿÐ¾Ð² ÑĭÐ¹
Ġcons ist
ÑıÑĤ ÑģÑı
ĠÐ·Ð° Ñĩ
ĠÐ¡ÑĤ Ð°Ð²
ĠBank rate
ĠRed ress
Ġsup ports
ĠAb u
ĠBec omes
Ġob lig
ING TON
oo qui
ĠÃ ī
ĠTri ps
Ġsent enced
Ġprocess es
ĠAtt iya
ĠSal v
ĠJu venile
ĠWar raich
ĠMal ala
Ġstream line
Ġtarget ed
Ġeng aged
ĠÐ¾Ð´ Ð¸Ð½
ĠÑĢÑĭÐ½ ÐºÐ°
ĠNY U
ĠÐĴÑĭ Ð±Ð¾ÑĢ
Ġreason ing
Ġpercent age
Ġwarn ed
ĠSar war
ÑĥÐµÑĤ ÑģÑı
ĠAR CH
Ġcollect ions
rog ate
Ġfirm s
ĠEngine er
Ġnecess arily
uz v
Ġdark ness
Ġgradu ation
ĠSynd icated
ĠAnsw er
ĠCarl son
ĠJew ish
Ġengine ering
ĠÐ¿Ð¾ÐºÐ°Ð· Ð°ÑĤÐµÐ»Ð¸
ĠUz ma
ĠWNI U
Ġfram ework
ĠÐ¿Ð¾Ð»Ð¸ÑĤ Ð¸ÐºÐ¸
ĠÑĤÑĢÐ°Ð³ ÐµÐ´Ð¸Ð¸
Ġ3636 7005
ĠÐ¾ÑģÐ²Ð¾Ð± Ð¾Ð¶Ð´ÐµÐ½Ð¸Ñı
ĠZak at
ĠMun awer
Ġmic ro
ĠSUP ARCO
Ġnarr ative
Feb ruary
ĠDed uction
ĠÐ¿Ð°ÑģÑģÐ°Ð¶ Ð¸ÑĢ
ĠLicens ing
ĠZa igham
ĠSha harah
onoun s
ĠYash asvi
ĠNegoti ated
ĠIndones ia
pad ding
ĠChah al
Suh ail
ĠNIP CO
omine es
ĠJato i
C ountry
X X
e or
e ering
f all
h av
j un
l ined
Ġ q
ĠS O
Ġs udden
ĠC ait
ĠT err
ĠP iet
Ġw orse
Ġf ee
Ġf amous
ĠN ich
ĠN ET
Ġo cean
ent ed
Ġh ired
ĠH ip
Ġl iver
ro ke
ĠÐ² Ð¾ÑģÑģÑĤÐ°Ð½Ð¾Ð²
ff ler
Ġv ice
ĠY uzv
ĠCh amber
Ġor d
ĠÐľ Ð°Ð¼
pl ash
ĠSh ip
ĠSh ajee
ik k
ĠÐļ Ð»
ĠCr ick
Ð¸Ñģ Ð¸
ock t
Ġoff season
ĠÐ» Ð¸ÐºÐ²Ð¸Ð´
ĠAl tern
Ġacc ompl
Ð¸Ñĩ Ð½ÑĭÐµ
ĠÐ¤ ÐŀÐ¢Ðŀ
ĠAnd y
ĠSe gment
Ġmed icine
ĠNo oral
Ġtrans portation
ĠReg ular
esp read
ĠÐ·Ð° Ñħ
ĠTrans mitter
Ðł Ð¾ÑģÑĤÐ¾Ð²
ĠÐ¶ ÑĥÑĢÐ½Ð°Ð»Ð¸ÑģÑĤ
ĠRepublic ans
Ġprom ising
Ġext end
ĠÐ¿Ð¾ÑģÑĤ ÑĢÐ°Ð´
Ġsmall er
ĠìĿ ¸ì
ĠFound ed
Ġprocess ing
Ġemploy ee
ĠPa har
Ġline up
ĠImp asse
hold er
ĠÑĢÐ¾ÑģÑģÐ¸Ð¹ ÑģÐºÐ¸Ð¹
ë¬ ¼
Ġvir tual
ìł ģ
ĠMel a
ĠÐ¿Ð¾Ð² ÑĤÐ¾ÑĢ
ĠPent agon
ĠÐ²Ð¾Ð¿ ÑĢÐ¾ÑģÑĭ
ĠSom ething
Ġclean ing
Ġgradu ate
ĠRub ab
Ġpromot ion
ĠTA GS
ĠFaith full
ĠÐ²Ð¾Ð¿ÑĢÐ¾Ñģ Ð¾Ð¼
ĠÐ½Ð¸Ðº Ð°Ðº
Ġextrem ely
ĠÐĵÐµÑĢÐ¼ Ð°Ð½Ð¸Ð¸
Ġrestaur ant
Ġæ Ĺ¥
ĠJal en
ĠKD KA
ĠNomin ations
Ġcooper ation
ĠÐºÐ¾Ð½ÑĦÐ»Ð¸Ðº ÑĤÐ°
Ġincent ives
rim ental
ĠSeek ing
Far ooqui
ĠHoss ain
ĠTah reem
ĠNATION AL
ĠSoll iquin
ĠLincol n
ĠYas ir
ĠChy til
Pac ific
ĠPiet ersen
ĠæĹ¥ æľ¬
C l
b i
b ay
c ar
j e
l imited
l ude
m ath
w he
en es
ĠS ana
ĠC az
ĠA er
ĠP rior
Ġf lex
Ġf iling
Ġo vert
ĠB os
ĠB ear
ĠF u
ĠD rop
Ġh ole
ac le
ĠG ord
ĠG PU
os op
Ġl ite
Ġe ighth
Ġg re
ĠÑģ Ð¿ÑĢ
ĠÑģ Ð¾Ð±Ñĭ
ĠV ance
out ed
Ð¾Ð´ Ð¸ÑĤÐµÐ»ÑĮ
ĠÐ¿ÑĢ ÐµÐ·Ð¸Ð´ÐµÐ½ÑĤÐ°
ĠÐ´ ÐµÐº
ĠÐļ ÑĥÐ·
ĠÑĤ Ð°Ð±Ð»Ð¸ÑĨÐ°
aw k
ĠMar l
ĠSche me
Ġcomp lic
ĠÐĽ Ð¸Ð½
Ð°Ð¹ Ð»
ĠEv ans
ĠÐ¤ Ð¡
Ð»Ð¸ Ð¶
Ġ9 8
Ġà´ ļ
au th
ĠÐłÐ¾ÑģÑģ Ð¸ÐµÐ¹
ÑıÐ½ Ð°
Ġimp acts
ĠÐ¿Ð¾Ð´ Ðº
Ġass igned
ĠOpen ing
ĠÐļÐ¾Ð¼ Ð¿
ĠSur prising
Ġexpl oring
ĠÐµ Ð¼Ñĥ
ĠÐµ ÑīÑĳ
Ġdes k
Ñĳ Ð½
Ġrun way
ĠWeb casts
ĠSan ity
ĠMov ing
Ġref ugee
ĠFind ing
ÐµÐ´Ð¸ Ð°
Ð¸ÑĩÐµ ÑģÐºÐ¾Ð³Ð¾
Ġaddress ed
ĠGas con
Ġchild hood
ĠÑĤÑĢ Ð¸
Ġprocess ed
ÑĭÐ² Ð°ÐµÑĤÑģÑı
ÐĲÐ¢Ð ¬
Ġpredict ed
ĠMember Card
ĠKn ight
Ġsw im
raz y
ĠÐ¾ÑĢ ÐµÐ»
ĠMO ST
ĠGreat er
ĠProt ection
ĠOffer ings
ĠProv ided
ĠReveal ed
Ġspok en
ĠGener ative
ĠRh awn
ĠRa ft
ĠUl tra
ĠLab our
ÐĹÐ¾Ð»Ð¾ÑĤ Ð¾Ð¹
Ġdi agn
ĠLaur a
Ġupgr ade
ĠÐ¯ÐºÐ¾Ð² Ð»ÐµÐ²Ð¸Ñĩ
Ġ3636 7580
ĠIndust rial
ĠÐ¸Ð³ ÑĢÐ°
ĠLam ar
ĠÑģÑĤÐ¾Ð»Ðº Ð½Ð¾Ð²
Ġwarrant y
ĠÐ¸Ð½Ð²ÐµÑģÑĤ Ð¸ÑĨ
Ġfirefight ers
ĠÐ¸Ð¼Ðµ ÐµÑĤ
Ġvalu able
ĠAam ir
ĠÑĩÐ¸Ð½Ð¾Ð² Ð½Ð¸ÐºÐ¾Ð²
Dem and
ĠÐ¾Ð±Ð½Ð°ÑĢ ÑĥÐ¶
Ġenth us
ĠYuzv endra
ĠìĿ¸ì ¦Ŀ
ĠPahar iya
osop hy
ĠRhawn hurst
R eg
f oot
w eb
er ver
an et
Ñģ Ð¾Ð¼
ĠC ome
ĠC BB
ĠA STR
Ð» Ð¸Ñı
ĠB ench
ĠF ix
ĠD oubles
ĠL abor
ol er
Ġd eeper
ĠE p
ig ible
Ġl atter
ĠÑģ ÑĥÑĤ
ĠÑģ ÐµÐºÑĢÐµÑĤ
ut ing
ul ent
ĠÐ² ÑģÑĤÑĢ
ĠV as
Ġan g
Ð°ÑĢ Ð¸Ð¸
qu ality
Ð¾ÑģÑĤ Ð¾Ðº
Ð¾Ñģ Ð¸ÑĦ
Ġal ert
ĠÑĤ ÐµÐºÑģÑĤ
let a
Ġsh ape
Ġag rees
ĠÐ¼ Ð½Ð¾Ð³Ð¾
ĠÐ¼ ÑĥÐ·
ĠAn imal
ĠMar co
ĠÐ± Ð¾ÑĢÑĤÑĥ
ĠSche ffler
Ġ8 7
Ġint ense
Ġse gment
ĠÐĺ Ð¾ÑģÐ¸ÑĦ
à¤ ¡
Ð¸Ð¼ Ð°ÐµÑĤ
Ġì Ħ
ÐĿ Ðŀ
ific ate
Ð¸Ð² Ð°ÑİÑĤ
Ġâ ĸ
ĠChe fs
br anding
Ġhome page
Ġexpl ain
Ġdet ail
ĠAP I
ĠEl izabeth
Ð°Ð±Ð¾ÑĤ Ð°
ĠÐ±Ñĭ ÑģÑĤÑĢÐ¾
Ġcook er
Ġcook ware
Ġinvol vement
Ġdist ur
ĠTri ple
ĠClub s
ĠÑģÐ» ÑĥÑĩ
Ġpersonal ized
ĠCy bersecurity
Ġactiv ists
ĠÐķÐ² Ð³
ĠBrand on
Ð¸ÑĪ Ð¸Ð½
Ġattack ed
ĠWrit ing
ĠÐ¿Ð¾Ð»ÑĥÑĩ Ð¸Ð»Ð¸
ĠIll ustrated
uge es
ĠWH Y
Ġnomin ee
ĠÐ°ÑĢ ÑĤÐ¸ÑģÑĤ
Ġregular ly
Ġmis leading
Ġentire ly
ÑĢÐµ Ð°Ð³
ĠAstr os
ÑģÑĤÐ²ÐµÐ½ Ð½ÑĭÐ¹
ĠExpert ly
ĠÑģÑĤÐ¾ ÑıÑĤ
Ġshock ing
Ġhistor ical
Ġtw ice
ĠWal mart
ĠÐ½ÑĥÐ¶ Ð½Ñĭ
friend ly
ĠWV IA
ĠGro cery
ĠCub s
ĠÐ³Ð¾Ð» Ð¾Ð²
Ġexam ples
Ġspons ored
ĠÐ¾ÑĤÐ¼ÐµÑĤ Ð¸Ð»
ĠCOM M
ĠRecogn ition
ĠÐŁÑĢÐµÐ´ ÑģÑĤÐ°Ð²
ĠÐ¡ÑĥÐ´ Ð¶
ĠÐ½ÐµÐ¾Ð±ÑħÐ¾Ð´ Ð¸Ð¼Ð¾
oca ust
Ġanalys ts
ĠDoct or
Ġcrack down
ĠBREAK ING
ĠÑģÐ»Ð¾Ð² Ð°Ð¼
ĠÐĵÐ¾Ñģ Ð´Ñĥ
ĠArmen ia
ĠCamb odia
Ġcircumst ances
ÐºÐ¸Ð¿ Ð°Ð¶
ĠMalays ia
ĠRaft aar
ĠÐ²ÑģÑĤÑĢ ÐµÑĩ
L P
P Y
P ORT
T o
f e
l an
n ik
p it
r ance
Ê ¤
in ct
Ġt awas
or por
or able
ĠS M
ĠS elling
ĠC AR
ĠC lear
ing u
ĠT asting
ĠA US
re ach
ĠP ud
Ġc ensus
Ġc abinet
ĠN ev
ĠM am
le m
ĠD N
Ġh ospitals
ĠE g
ĠH ut
ec ard
os h
ĠNews Pl
ĠÐ¿ ÑıÑĤ
ĠÑģ ÑĦ
ĠÐ½ ÐµÐ¿
ĠÐº Ð°Ð½Ð°Ð»
ĠÐ¾ ÑĦÐ¸ÑĨÐ¸
Ġpr iv
ust r
Ð°ÑĢ Ð´
ĠCh ampion
ĠÐ´ ÐµÐ¿ÑĥÑĤ
Ð¾Ð½ Ð´
Ġpro ve
ĠÐľ ÐµÐ´
ĠÐĴ Ð²ÐµÐ´Ð¸ÑĤÐµ
ĠCl aims
Ð¶ Ð½ÑĭÐ¹
Ð°Ðº Ð¾Ð²
ĠÐĵ Ð¾Ð³Ð¾
ĠPro cess
ĠÐĿ Ð°Ð·
ĠÐĿ Ð¥ÐĽ
ĠSp ots
Ġag es
ous in
Ġsp otted
Ð¸ÑĢ Ñĥ
ĠMar ianne
Ġ6 8
ĠÐĺ Ð³Ð¾ÑĢ
ĠÐ¾ÑĤ ÑĢÐµÐ°Ð³
ÑĢÑĥ ÐºÑĤ
Ð¾Ð¶ Ðµ
ĠÐ¸Ð½ ÑģÑĤÑĢÑĥ
Ġ19 70
Ġà´ ±
eng ers
ĠEdit ed
Ð°ÑĪ Ð²Ð¸Ð»Ð¸
Ġfl ames
Ġact ively
ĠSk in
Ġprov iders
Ġmed ium
Ġback lash
Ġrel iability
IC I
af Ã©
ĠIndian apolis
ĠAdv oc
Ġleg end
rap ati
ĠSte in
Ġref lects
Ġpur ifiers
Ġpay ment
Ġfocus ing
Ġdep uty
Ġens ures
Ġcelebr ates
Ġnet works
ĠWrit ten
Ġur ban
OC K
ĠSilver M
Ġsusp ension
Ġsing er
Ġfavor ites
ĠÐ¿ÑĢÐ¾Ð² ÐµÑĢ
Ġvis its
Ġnomin ations
ĠAsh es
ĠÐĹÐ°Ð¿ Ð¾ÑĢÐ¾Ð¶
ĠÑĢÐµ Ð°Ð»ÑĮÐ½Ð¾Ð³Ð¾
IF I
Ġwalk ing
ĠAz ÉĻr
Ġconv icted
Ġtransfer red
ĠÐĹÐµÐ»ÐµÐ½ ÑģÐºÐ¸Ð¹
VI EW
ĠÐ¿ÑĢÐ¾Ð³ÑĢÐ°Ð¼ Ð¼
ĠÐ´ÐµÐ¹ÑģÑĤÐ² Ð¸Ñı
Ġlegisl ation
ĠLaun ches
ĠÐ¼Ð°ÑĤÐµÑĢÐ¸Ð°Ð» Ð¾Ð²
ĠÑĢÐ°ÑģÐº ÑĢÑĭ
ĠHER E
Ġbehav ior
ĠDuff y
ĠÐºÐ°Ñĩ ÐµÑģÑĤÐ²Ðµ
LET TER
ĠOrt iz
ĠBelg ium
ĠÐĿÐ¸ÐºÐ¾Ð»Ð° ÐµÐ²Ð¸Ñĩ
ĠCurt is
ĠCrick it
ĠASTR OLOGY
ĠNewsPl ugin
ÑĢÑĥÐºÑĤ ÑĥÑĢ
ĠAzÉĻr bay
C M
E V
H ilal
S ky
V N
W est
t ar
t urn
v in
w ich
y ard
er d
Ð½ ÐµÐ³Ð¾
ÑĢ Ð°Ð¶
ĠC rew
ĠN az
ĠN OT
ĠM ak
ĠM IC
Ġp ace
ĠB ish
ĠR U
ĠD iaspora
et ic
ĠL SU
ĠH ud
ĠH aving
ĠG an
os is
ĠO le
Ġr u
ĠÐ² Ð°Ð¼
ÐµÑĢ Ð¾Ð¼
ab et
Ġan alyst
Ġas p
Ġv ess
Ġv otes
ĠCh oice
oun ce
ĠSc i
Ġpro be
ĠÐ¡ Ñİ
Ð¸Ð» Ð¾ÑģÑĮ
Ġpl aced
ĠÐļ ÑĢÐµÐ¼
ĠAr senal
ĠÑĥ Ð³
ex ual
Ð°Ðº Ð°
Ġle verage
ĠÐ¼ Ð¾Ð´
ĠCon ferences
Ð¸ÑĢ Ð¾Ð²Ð°Ð½Ð¸Ñı
ĠÐ³ Ð»
Ð¾Ð± Ð¾ÑĢÐ¾Ð½Ñĭ
Ġim pl
Ð°Ð¹ ÑĤÐµÑģÑĮ
Ð»Ñı ÑĤÑĮ
com ed
ĠÐĲ Ð´
ĠÐ° Ñį
ivers ities
ĠClass es
Ġund ers
ĠÑĦ Ð¾ÑĢ
Ġind ia
ĠÐķ Ð³Ð¾ÑĢ
ope z
ĠÐ§ ÐµÑĢÐ½
ĠPar ents
ĠÑįÑĤ Ñĥ
SS OCI
ÑĢÑĭ Ð¼
Ñĳ Ñħ
Ġ13 6
Ġfac ilit
Ġob esity
ĠTele com
Ġfind ings
Ġ199 7
Ġenter ed
rup ts
Ġtri umph
ĠÐĹÐ°Ð³ ÑĢÑĥÐ·ÐºÐ°
ĠShar k
Ġthreat ened
Ð»ÐµÐ½ Ð¸Ð¸
Ġmet ric
ĠÐ²Ñģ Ñĳ
Ġtravel ers
ĠÐĸ ÐµÐ½
Ġdiscuss ions
ĠGar c
Ġbillion aire
ĠWay point
ĠMax im
ĠChand ra
ĠÐ¿Ð¾Ñģ Ð°Ð´
Ġcross ing
ĠCapit als
ĠÐľÐ°ÑĤ Ð²
ĠProfess ional
ĠÑĤÑĭ Ñģ
ĠKS UT
ĠAv g
ĠìĪ ĺ
AC Y
ĠSus p
Ġtit les
ĠTrib une
ILL A
ĠDeS antis
Ġstruct ures
ĠÐºÐ°ÑĢÑĤ Ð¸Ð½
ĠÐŁÐ¾Ð±ÐµÐ´ Ñĭ
ĠÑĢÐµÐ·ÑĥÐ»ÑĮÑĤ Ð°ÑĤÐµ
Ġeg gs
Ġflood ed
ĠSnapsh ots
ĠÐŁÑĢÐ¾Ð³Ð½Ð¾Ð· Ñĭ
ĠÑıÐ· ÑĭÐº
ĠOUT RAG
ĠWiz ards
ĠKurs k
ĠSlov ak
ĠOUTRAG ED
S A
S ports
d epth
n ell
w ind
w ords
¶ ľ
Ġ ~
Ġ ×
Ġ id
Ġ Ñİ
Ġa ce
Ð¾ ÐµÐ´Ð¸Ð½
Ð½ Ð¸Ð¹
al um
ĠC ro
ĠA void
Ġw ish
Ġw icket
Ġf entanyl
ĠN umbers
Ġp iv
ĠB PL
Ġb anned
ĠI X
ĠW ishes
ew ide
ĠL ists
Ġh ockey
ĠE scape
ĠE merging
ĠH ike
ÑĮ ÐµÐ²
ĠG amb
ur ious
Ġn ominees
th rough
ĠSt uff
ĠÑģ Ð±
Ġst ats
Ġst uck
od af
ĠK os
ill or
ĠCh ile
du e
ĠPro duction
rib le
iz z
ĠÐ³ ÐµÐ½ÐµÑĢ
ib es
ÐµÐ½ÑĤ Ð°Ð³
ĠNew co
ĠÐĽ ÐķÐĿ
Ġun iversity
ĠÐĺ Ð»
ick y
ĠBr os
ĠApp oint
ĠÐ° Ð¿ÑĢ
ĠÐ° ÐºÑĤ
Ġab road
ĠCar r
min ute
ĠÐŁÑĢ Ð¸
ĠÐŁÑĢ Ð¸Ð»Ð¾Ð¶ÐµÐ½Ð¸Ñı
Ġmed ication
Ġatt empts
ĠDr ivers
Ġac ts
Ġrel ax
Ġgr own
ĠGo leta
Ġà¤ ª
elf are
ĠExpl ainer
Ġaccess ed
ĠArt ists
Ġred uction
AS E
ĠÐ¸ÑģÐ¿ ÑĭÑĤ
ĠCO VER
ple ments
ĠNEWS LETTER
Ġmatch up
Ġhand le
OS E
Ġaut hentic
ĠEth ere
gr ade
ĠJe an
ĠFilm y
Ġinvestig ate
Ġsol o
ĠÑįÐº ÑģÐº
omm od
ĠAk h
à« ģ
ĠÐĲÐ½Ð´ÑĢ ÐµÐµÐ²Ð¸Ñĩ
ĠSol ar
Ġcomb at
Ġrev olution
ĠNE ET
Ġà °
Ġconvers ations
Ġwitness ed
Ġwel comed
ĠÑĢÐµ Ð°Ð»ÑĮÐ½Ð¾Ð¼
ĠPros ecut
ĠVis ibility
ĠOs wego
Ġappoint ed
Ġrepl aced
Ġlif estyle
ĠÐ½Ð¾Ð²Ð¾ÑģÑĤ ÑıÐ¼Ð¸
ĠCreat ive
ĠÐ¿ÑĢÐ¾Ð³ÑĢÐ°Ð¼ Ð¼Ñĥ
ĠFrequ ently
Ġmag azine
ĠÐ¿ÑĢÐ¾ÑĪ Ð»
Ġtermin ate
ĠÐĺÑģÑĤÐ¾ÑĢ Ð¸Ñı
Ġrestaur ants
ĠMu ham
Ġcylind er
ĠQue en
Ġscor ecard
ĠÐĺÑĤ Ð°Ð»
ĠÐĲÐ»ÐµÐºÑģÐµ ÐµÐ²Ð¸Ñĩ
Ð¸Ð°ÑĤ Ð»Ð¾Ð½
ĠÐŀÐ»Ð¸Ð¼Ð¿ Ð¸
ĠMarl ins
SSOCI ATED
odaf one
7 9
B N
G en
f ound
j ri
ê µ
Ġt ail
Ġa f
Ð¸ Ð¾Ð»
ĠS CH
ĠC os
ĠC ell
ĠN ash
ĠB H
ĠB anned
ĠR ule
ĠI b
ĠI AS
ĠH R
us ual
ĠO x
est ine
Ġe lement
Ð´ Ð¸Ð½
ĠÐ¿ Ð¾Ð»Ð¸ÑĤÐ¸ÐºÐ°
op a
ĠÐ² ÑģÐ¿
un ge
ĠK ud
ĠK yle
ĠK yl
ĠK NBC
ĠV odafone
Ġy oun
ĠÐº ÑĢÑĥÐ¿
ĠÐŁ ÐµÐº
ast ed
ÐµÑĤ ÑıÑħ
ĠCh ill
Ð¾Ð½ ÑĥÑģ
Ġtr a
Ġtr ained
ĠPl ant
ĠÐĵ Ð¾ÑģÐ¿
ĠPro b
ĠÐĿ Ð¸Ð¶
Ġj u
Ġ4 39
Ġ4 38
ĠAn a
Ġ8 41
ph ones
Ġout come
Ġse ized
Ð°Ð´ Ñĥ
Ġì ¶ľ
Ð¾Ð¿ ÑĢ
Ġsc reens
ax y
àµį âĢĭ
Ġnew ly
ĠÐ£ ÑģÐ»
Ġà´ °
ĠÐºÐ¾Ð¼ Ð°Ð½Ð´
Ġany time
Ġind ex
ĠWe igh
Ð¡ Ðŀ
Ġfl owers
ĠÐŁÑĢ ÐµÑģÑĤÑĥÐ¿Ð»ÐµÐ½Ð¸Ñı
ourn e
ĠSk ating
Ġatt ended
ĠReg an
50 9
ĠHol ocaust
ĠÐ²Ð¾Ð¹ ÑĤÐ¸
Ġbu ff
ĠÐ¶ ÐµÐ»ÐµÐ·
ĠOb its
ĠÐ¡Ð¿ Ð°Ñģ
Ġdes ire
Ġcol le
ĠComm and
Ġ199 0
ĠKh ushi
isk ey
ĠRock ies
ĠExp o
Ġhost ed
ĠÐ²Ð¾Ð· Ð²ÑĢÐ°Ñī
Ġfew er
akh stan
ĠRan ch
ĠÐĲÑĢ Ð¼
Ġdeb t
ĠAuthor ities
Ġtalk ed
Ġlight ing
Ġimplement ation
à« ĩ
Ġport ion
ĠÐ²Ð¾ÐµÐ½ Ð½
ĠÐ¿ÑĢÐ¸Ð½ ÑıÑĤ
ĠÐ´ÐµÐ½ÑĮ Ð³Ð¸
ĠÐ¿ÑĢÐ¾Ð² Ð¾Ð´
ĠCost a
Ġcut ting
Ġmeas ure
Ð»ÑİÑĩ ÐµÐ²
ĠSer ge
Ġinaugur ation
Ġcell s
Ġrul ed
Ġbeh alf
ĠRat ings
ĠÐļÐ¸ÑĤ Ð°Ñı
ĠTECH N
Ġadvance ments
ĠÐ¡Ð»ÐµÐ´ Ð¸ÑĤÐµ
ĠWJ ON
Ġweap ons
ĠJac ob
Ġwid espread
ĠChang es
Ġther apy
ĠÑĥÐ¿ÑĢÐ°Ð² Ð»ÐµÐ½Ð¸Ñı
Ġpollut ion
Ġdivid ends
Ġrough ly
enov ia
ĠÑĢÐ¾ÑģÑģÐ¸Ñı Ð½
rep eat
ĠDEL IV
Ġtow er
Ð¸Ð½Ð°Ð¼ Ð¾
Ġaband oned
ĠWG UC
ĠKaz akhstan
ĠArk ansas
ĠStoryt ellers
ĠHag i
ĠGrizz lies
Ġexpend iture
Ø± Ø
ĠCait lin
ĠHud son
ĠÐĽÐķÐĿ Ð¢ÐĲ
ĠEthere um
B M
E Z
P oint
S oc
c u
c ap
c ott
k ina
n av
v one
on c
ĠC ay
ĠT ogether
re view
ĠP ul
Ġp en
ĠB anks
ĠF X
ĠD CA
ter y
Ġn ice
Ġl ength
Ð¾Ð² ÑĮ
Ð¾Ð² ÑģÐºÐ¸Ð¹
Ġfor med
Ġe ating
Ġe lements
ĠÐ¿ ÑĪÐµÐ½
Ð² ÐµÐ·Ð´
ĠK H
ĠÐ¸ Ð¼ÐµÐ½
Ð¾ÑĢ Ñĭ
Ð± ÑĥÑĢÐ³
har ds
ĠÐ¾ Ð¿ÑĢÐµÐ´
ĠÐ¿ÑĢ Ð¸Ð±
ĠSc ream
ĠÐ¡ Ð¡Ð¡
Ġtr agic
ĠSh ine
ra ig
ĠInd ivid
Ġcont ext
ĠSp ir
Ġ4 6
Ġ5 342
Ġsp ots
Ġch urch
Ð¾Ðº Ð»Ð°ÑģÑģ
Ġint ens
Ġout look
ick en
ang el
ĠBr aves
ĠIs a
ĠLatest LY
ĠWe ight
ĠCanad ians
ĠFl ash
ĠFl ames
app rop
Ġfin ish
AN S
EN N
Ġsur gery
ĠHT City
TA IN
Ġpar liament
Ġtrad ition
ĠSte v
Ġoper ational
ÐµÑĪ ÑĮ
Ġwind s
Ġtri ps
Ġclear ly
Ġmem ories
ĠÑĤÐ°Ðº Ð¾Ðµ
ĠÑħ Ð¾Ñĩ
ĠSch m
ÑĭÐ² Ð°ÑİÑĤ
ĠBel le
Ġcontribut or
Ġpres idency
ĠÐ¿ÑĢÐ¸ Ð¾ÑģÑĤÐ°Ð½Ð¾Ð²
Ġrad ical
Ð¼Ð¾ÑĤ ÑĢÐµÑĤÑĮ
che ck
ĠDeb ate
ĠÐ³Ð»Ð°Ð² Ð½ÑĥÑİ
ĠÐ¾ÑĤÐ¼ ÐµÑĩ
ĠPur ple
Ġstrugg led
ĠÐ¿Ð¾Ð¼ Ð¾ÑĩÑĮ
ĠHon ors
Ġvot ed
Ġrank ed
Ġacqu ire
Ġeth nic
ĠProduct ivity
Ð¾Ð¼Ð½ Ð¸ÑĤÑĮ
ĠBru ce
ĠPrim ary
ĠÑĤÑĢÐ°Ð³ Ð¸ÑĩÐµÑģÐºÐ°Ñı
SO UND
ĠStan ley
Ġglob e
ĠPU BL
ĠSimilar ly
Ġacadem ic
ĠÐ¾ÑĤÐ¼ÐµÐ½ Ñĭ
BIT E
ĠÐ¾ÑĤÐºÑĢÑĭÐ» Ð°ÑģÑĮ
ĠÐĴÐ°Ð»ÐµÑĢ Ð¸Ð¹
ĠÐłÑĭÐ½ Ð¾ÑĩÐ½Ð°Ñı
Ġstagn ate
Ġnov el
ĠÐŁÐ¾ÑĢ ÐµÑĩ
ĠVaugh an
ĠÐ±Ð¸ÑĢ Ð¶Ð°
ĠCaz enovia
jri wal
ĠÐ²Ð¾ÐµÐ½Ð½ Ð¾ÑģÐ»ÑĥÐ¶
ĠÐ¡Ð¡Ð¡ Ðł
SOUND BITE
A z
M ad
N Q
a S
b ian
d ie
i ated
l r
m ade
n ie
Ð¾ Ñħ
Ð½ ÐµÑģ
ĠC ox
ĠC urrency
ĠC ounter
ing ton
ic her
ĠA ware
ĠN ol
ĠM ons
ĠR um
ĠR ating
Ðº ÑĢ
Ġm ent
ĠD estinations
ol ly
Ġd ur
Ġd uties
Ġh ire
iv u
Ġl ibrary
ĠJ oint
Ġre iter
ch er
Ġ1 000
ĠSt amped
ĠÑģ ÐµÐ²ÐµÑĢÐ¾
Ġbe ef
ĠRe yn
ĠTr ain
ast ro
ant an
ĠSc out
qu ests
ex pected
Ð°Ð· Ð´
ĠÐĶ Ð°Ð²
ah on
Ġ8 4
ĠÐ¤ Ð¸Ð»Ð¸
ĠÐŀÐ± Ð¾ÑĢÐ¾ÑĤÐ½Ð¾Ðµ
Ġapp lication
ST C
ĠAdvert iser
ÐµÐ³ Ð´Ð°
Ðĺ ÐļÐĲ
ĠShe ikh
ĠAss am
ĠStud ios
ĠÐ¶ Ð¸ÑĤÐµÐ»ÐµÐ¹
Ġdirect ors
ĠÐŃ ÑĪÐµÐ»
ĠHer o
Ġchar t
Ġexp osure
TA CT
Ġopen er
Ġaff airs
ĠCalcul ators
St ock
Ġfound ation
ĠMer ced
ÑĭÐ² Ð°ÑĤÑĮ
less ly
ĠHar vest
field s
ĠAdvis or
wh ich
ĠCorpor ates
ĠPay tm
ĠÐ½Ð°Ð´ Ð°Ð²Ð¸Ð»
ĠÑģÐº Ð¾Ð»ÑĮÐºÐ¾
Ġtreat ments
ĠPenn y
ĠWay ne
Ġsum mit
Ġcomb ination
!! !!
Ä± n
ĠÐ¢ÑĢ Ð¸ÑĪÐ¸Ð½
ĠÐ±ÐµÐ· Ð¾Ð¿
Ġrefer ee
Ġsurv ived
ĠWinn er
Ġparticip ation
Ġcy bersecurity
Ġwithdraw al
ij uana
ĠPerson nel
ĠÐ´ÑĢÑĥÐ³ Ð¸Ðµ
ĠExt rem
ĠBul letin
Ġult ra
Ġdeterm ined
ĠÐ¾Ðº Ð¾Ð»Ð¾
ĠPri ze
ĠâĨ ĵ
ĠPed ro
Ġcandid ates
Ġcrowd ed
ĠDeS oto
Ġcylind ers
ĠÐ±ÑĢÐ¾Ñģ Ð¸Ð²ÑĪÐ¸Ñħ
ĠBern ard
pir acy
ĠBrew ers
ĠPrepar es
ĠPHOT OS
ĠSchia vone
Ġapprop riate
Ġconserv ative
ĠÐ¡Ð¢ ÐĲÐ¢Ð¬
ĠRodrig uez
ĠBaj aj
canc a
ĠVed anta
ĠWHY Y
ĠÐ¡ÑĥÐ´Ð¶ Ñĥ
ĠAzÉĻrbay canca
ĠÐŁÐµÐº Ð¸Ð½Ñĥ
ĠÐ¿ÑĪÐµÐ½ Ð¸ÑĨÑĭ
ĠÐŃÑĪÐµÐ» Ð¾Ð½Ñĭ
ĠÐ¡Ð¢ÐĲÐ¢Ð¬ Ðĺ
A f
A meric
E ng
M ER
M ania
T op
d ee
i ere
l ink
w all
y y
Ù Ĭ
ã ģ
í Į
í ĥĿ
ħ ìłģ
Ĳ ë¬¼
ł íĥĿ
Ðµ Ð°ÑĤ
ĠS alt
ĠS oph
ÑĤ Ð¾Ð¶
ĠC ause
ed ing
ing e
ĠN Z
ĠN an
ĠN as
ĠR io
ĠR ookie
Ġm it
Ġm utual
ol i
Ġd ie
us ive
us alem
ĠG ainers
Ð¾Ð² Ð¾Ð³Ð¾
Ġre action
Ġg iant
Ð² Ð°
ĠK TR
ĠK ivu
ĠK STC
ĠV all
ÐµÑĢ Ð½Ð¾Ðµ
and ez
up t
ok ing
Ð¾Ð¼ Ðµ
ĠY u
ĠÐ¿ÑĢ Ð°ÐºÑĤ
Ð³ Ð¾Ð²
Ġnot able
ous ed
ĠÐ¼ Ð°Ñģ
Ġ5 9
ĠAn na
ĠLive mint
ĠÐĶ Ð°Ñı
Ð¸ÑĢ ÑĥÑİÑĤ
az z
ĠFor bes
Ġ6 6
ĠÑģÑĤ Ð°Ð»
Ġacc omp
Ġacc ommod
Ġ7 4
ĠBr ut
Ð¿ÑĢ Ð¸Ð·
Ġev ac
Ð¾ÑģÑģ Ð¸Ñı
ED A
ĠÐ¿ÑĢÐµÐ´ Ð¿ÑĢ
ĠCar p
ĠFl oor
Ð¸Ð² Ð°ÐµÑĤ
ĠX L
ĠÐ·Ð°Ð¿ ÑĢÐµÑĤ
Ġdec ide
ĠÐ§ ÐµÑħ
ĠComp uters
Ġrel igious
ĠGr ace
ath dee
ÐµÑģÑĤÐ² Ð°
ĠInter lude
ĠÑĨ ÐµÐ½ÑĤ
ĠAdv ance
ĠBre aks
Ġext ends
ĠLeg end
ĠAb road
Ġpar ent
Ġform al
Ð¸ÑĩÐµ ÑģÐºÐ¸Ñħ
ĠÐ¦ ÐµÐ½Ñĭ
merg encies
Ġkn ock
ĠEvery one
ĠSl abs
ĠRem ain
ĠAnnounce ment
ĠÐĲÑĢ ÑĤ
ĠLook s
News letter
ĠKR WF
ĠSport Fit
ĠNE TA
ĠHost ages
ĠGirl s
Ġintro duce
Ġparticip ate
ĠFarm ers
ĠÐ¸Ð·Ð²ÐµÑģÑĤ Ð½Ð°
Ġsn ap
ĠKe jriwal
Ġwor ried
Ġhapp ier
ĠKS AX
Ġretail ers
ĠìĹ ħìłģ
ĠOrgan izations
ĠRub io
Ġemphas ized
ĠAlleg edly
Ð½Ð¸Ñĩ ÑĤÐ¾Ð¶
Br anson
Ġtit led
Ġmethod s
Ġeas ily
Ġadvis or
OK LINE
ĠDeliver y
ĠÐ»ÑĥÑĩÑĪ Ðµ
ĠTRA D
Ġmyster y
ĠÑģÑĤÐ°ÑĤ Ð¸ÑģÑĤ
ĠSeed s
Ġaffili ates
ĠKZ NQ
Ġconstruct ive
ĠTun ings
ĠBRO OKLINE
ĠÐ¿Ð¸ÑĪ ÐµÑĤ
ĠViol ence
ÐµÑĤÐ² ÐµÑĢÑĤ
osph ere
ĠHoch stein
Ġscrut iny
Ġsympt oms
ĠìĦ łíĥĿ
ĠÐĺÐ³Ð¾ÑĢ ÑĮ
ĠìĪĺ ìĥģ
ĠMuham mad
ĠKud umb
Ġì¶ľ íĮ
ĠDELIV ERED
ĠKH UG
Ġì¶ľíĮ Ĳë¬¼
8 1
? ?
D e
S av
b al
j o
n t
t or
es a
ĠS ize
Ð½ Ð¸Ñħ
ĠC oc
ĠC outure
ĠC raig
ed i
ĠP ossible
Ġf o
ĠN eighb
ĠM J
Ġp acked
ĠR up
ĠL ion
ĠL ill
ch y
ĠÐ¿ ÐµÐ²
ĠSt raight
ĠK ard
Ð°Ð½ Ð´Ð°
Ġy oga
up iter
ĠTr end
Ġhe at
Ġex ceed
Ð°Ð² ÑĪ
Ð¸Ð½ Ð°Ð»
Ġtr afficking
Ġal arm
Ġal coh
Ð°Ðº Ð°Ð½
ĠPro blem
Ġ4 11
Ġad mitted
ĠSports N
ÐµÐ¹ Ð½
ĠMar itime
Ġall oc
ĠÑģÑĤ ÑĢÐ°ÑĤÐµÐ³
ib e
Ġint el
Ñį Ðº
ĠBr idge
Ġsc iences
ĠGu idance
Ġâ ĺħ
Ġrem ote
ĠFollow s
Ġtrans cripts
Ġunder way
Ġrel igion
ĠShe ets
ley ball
ÐµÑģÑģ Ð°
Ġpass es
Ġ11 7
Ġbel oved
Ġ18 6
arr ies
ĠMay fair
ĠÐĵÐ»Ð°Ð² Ð½ÑĭÐµ
ĠMc L
ĠSte ps
ĠDef eat
sh ow
Ġ199 6
Ġshort age
ĠÑģÐµÐ¼ ÑĮ
ĠMedic are
ĠÐŃÐº ÑģÐ¿
Ġposts eason
Ġmusic ians
ĠSim on
ĠUnderwrit er
room s
Ġstop ped
ĠMess enger
Ġinvestig ators
ĠCON TACT
lin ing
ĠÐ¾Ð±ÑĬ ÐµÐºÑĤ
bl ack
val anche
ĠÑĢÐ¾ÑģÑģÐ¸Ð¹ ÑģÐºÐ¾Ð¹
ĠÐļÐ°ÑĢ ÑĤÐ°
ĠClos ing
ĠÐ½Ð°Ð¿ Ð¸Ñģ
Ġsust ained
Ġeditor ial
Ġroll s
ĠOrigin al
ĠÐ´ÐµÑĤ ÐµÐ¹
ĠÐ°Ð²ÑĤ Ð¾Ð±
ĠRegul ations
ĠCarl os
Ð°ÑİÑī Ð¸Ð¹
ĠJen kins
Ġremark able
ĠJer usalem
ĠÐ³Ð¾ÑĤÐ¾Ð² Ð¸Ð¼
ĠÐŁÐ°Ð² Ð»Ð¾Ð²Ð¸Ñĩ
Ġcrypt o
ĠOri ent
Ġpolitic ians
ocol ate
ĠEdu ard
ÐµÐ³Ð¾ÑĢ Ð¸Ñı
ĠTE AM
ĠIl leg
Ġprohib ited
ĠEs ports
ĠÐļÐ°Ð· Ð°Ñħ
ĠWebin ars
ĠWrestle Mania
ĠRivers ide
ĠAfford able
ĠÐ¯ÑģÑĤÑĢÐµÐ¼ ÑģÐºÐ°Ñı
Ġgre atest
ĠGarc ia
ĠÐ¤Ð¸Ð»Ð¸ Ð¿Ð¿
+ .
7 1
A t
C lass
D o
E dit
L ES
P er
T eam
T EL
V O
c an
h all
k arn
u ard
» Î
Ð ©
ç ļ
Ġt ests
es lig
ĠS ets
ĠS ald
ar ied
ÑĢ Ð¸ÑģÑĤ
ĠC arn
ĠC afÃ©
ĠP el
Ġw ear
ĠN eighbor
ĠM organ
Ġp ublish
Ġo l
ĠB oss
ĠB ird
ĠF igure
Ġm ount
ĠD om
ĠL ed
ĠH air
ĠH usband
ers poon
ĠU RL
Ġre acts
im ated
Ġg ear
Ġr iot
Ġst ance
ĠK o
um n
Ð¿ Ð¾Ð»
if orm
à´ ĸ
Ġ3 27
ab out
Ġwh atever
eb ody
ast air
ĠTh u
ĠÐ¿ÑĢ Ð¾ÑĤ
ĠSc ot
ĠSc attered
ĠÐ¡ Ð°ÑĢ
pl us
Ġle mon
ĠÐ¼ Ð¾Ð½
ĠÐ¼ ÐµÐ¶Ð´Ñĥ
Ġch ip
Ġall ies
ib ilities
ĠÐ» Ð¸Ñĩ
ĠAl astair
ÐµÑģÑĤ Ñĭ
Ġour selves
Ð¾Ð»ÑĮ ÑģÐºÐ¸Ð¹
ĠIt ems
ĠWith erspoon
Ġqu it
Ġqu ery
Ð¼ÐµÐ½ÑĤ Ð¸ÑĢÐ¾Ð²Ð°ÑĤÑĮ
Ð°Ð³ Ð¸
ĠMan if
AT HER
Ġmin erals
Ġprov ider
Ġdec e
ĠRel iance
urs e
Ð½Ð¾Ð² Ð»ÐµÐ½Ð¾
Ġdes per
Ġstud io
ÑħÐ¾Ð´ Ð¸ÑĤ
ĠExpl oring
ĠAct ive
AP ER
Ġtrad es
ĠPort ions
Ġ200 7
Ġref resh
Ð¾Ð¼Ð¾Ñī Ð¸
Ġinvol ves
ĠÑĤÑĢ ÐµÐ±
ĠJournal ists
Ġsect ions
ĠSal ary
Ġbuild ings
OG E
ĠÐºÑĢ Ð°Ð¹
Ġel ite
Ġkind s
ĠCON SU
Ġcelebr ations
ĠÐŀÑĤ Ð´ÑĭÑħ
Ġhouse hold
Ġrout ine
che wan
Ġrespect ive
ĠContribut or
ĠAT C
Ġrefer red
iot ech
ĠOwn ers
Ġstrugg ling
ĠÐŁÑĥÑĤ Ð¸Ð½
ĠÐ²Ð¾Ð·Ð¼Ð¾Ð¶ Ð½Ð¾
Ġdro ps
Ġsubst ant
ĠÑĢÑĭÐ½Ð¾Ñĩ Ð½ÑĥÑİ
Ġacqu ired
ĠIR EDA
Ġadvoc acy
ĠRece ive
Ġpromot ing
Ġesc ape
ĠSurv ivor
ĠAlt adena
Ð¾ÑģÐº Ð¾Ð¿
Ġdrink ing
ĠAlph abet
Ġcha os
ĠÑģÑĢ Ð¾Ðº
ĠÐ²Ðº Ð»ÑİÑĩ
ĠCole man
ĠÐķÐºÐ°ÑĤÐµÑĢ Ð¸Ð½
Ġanticip ated
Ġrapid ly
ĠÐ¿Ð¾Ð¼Ð¾ÑīÑĮ Ñİ
ĠÑģÑĤÐ°Ð½ ÐµÑĤ
ĠSaskat chewan
Ġlov es
ĠÐ¿Ð¾ÑĢÐ°Ð¶ ÐµÐ½Ð¸Ðµ
Ġweigh ing
ĠPract ice
ĠÐ²Ð»Ð°ÑģÑĤ Ð¸
ĠFU LL
Ġingred ients
Ġatm osphere
Ġlux ury
grap h
othe e
ĠGord on
ĠKTR S
karn i
çļ Ħ
eslig a
A BC
B Y
C K
H our
I I
L ED
W hy
b ot
c oin
p uts
r ush
v an
w eek
y les
® ¤
Ñ Ĺ
â Ļ
in ance
in formation
Ġt ale
ĠS orry
Ġs ister
ĠA X
ĠA CC
ĠP ool
Ġc rop
as than
ĠM ST
ĠM idd
ĠF lex
Ðº ÑĥÑĢ
ĠW ake
ĠW BB
ĠL opez
ĠE rupts
ir ds
Ġn ations
Ġn eighbor
ĠSt ra
ĠÑģ Ñĩ
ut i
Ð¼ ÐµÐº
ate m
ri en
Ġv ibr
ĠÐŀ Ð¿
ens en
ĠCr uise
Ġcont ents
ĠÐĿ ÐµÑĤ
per ial
Ð¸Ñģ Ð¾ÐµÐ´Ð¸Ð½
Ġ5 41
ĠAn alys
Ġsp arks
Ġ6 1
Ð¾ÑĢÐ¼ ÑĥÐ»Ð°
à¤ µ
ĠÐ¢ Ð¸Ñħ
Ð¸Ñĩ ÐµÑģÑĤÐ²Ð¾
ĠÐ¤ Ð¾ÑĢÐ¼ÑĥÐ»Ð°
ĠRes ilience
ĠÑį ÐºÐ¸Ð¿Ð°Ð¶
ĠÐ° Ð³ÐµÐ½ÑĤ
Ġà´ ĩ
eng then
ÑģÑĤÐ² Ð¸Ñı
ĠMan raj
ĠInc re
Ġbl ared
Ġro ar
ploy ed
roup adi
ĠIN TER
ÐºÑĥ Ð¿
ten aw
Ġemail s
Ġexp ects
ĠOver all
ÐµÑĩ ÐµÐ½Ð¸Ðµ
ĠDet rimental
ĠÐ´ÐµÐ» Ð°ÑĤÑĮ
Ġed ge
ĠArch ies
ĠÑĢÐ°Ð· ÑĢÐµÑĪ
ĠMet eor
ĠTar ot
ĠMic ro
Ġmatch ing
Ġrecogn ize
ĠDep uty
Ġfeel ings
Ġcustom s
Ġouts tanding
ĠJeff ries
ÑģÑĤÑĢ Ð¾Ð¹
Ġcampaign s
Ġgovern ments
ĠÐŁÑĢÐ°Ð² Ð¾Ð²Ð°Ñı
Ġne ut
ĠBund esliga
ĠÐĲÐ²ÑĤÐ¾ÑĢ Ð¸Ð·Ð°ÑĨÐ¸Ñı
Ġemp ower
Ð½Ð¸ÑĨ Ð°
ĠÐ¾Ð¿ÐµÑĢ Ð°ÑĨÐ¸Ð¸
à± Ĩ
ĠComb at
Ġesc al
Ġdig est
worth y
ĠÐļÐ°ÑĤ ÐµÐ³Ð¾ÑĢÐ¸Ñı
ĠÑĥÐ¿ Ð°Ð»
Em ily
ĠBat man
ĠLeon ardo
Ġstrict ly
ĠÐĵÑĢÐ¸Ð³Ð¾ÑĢ Ð¸Ð¹
ĠÐ²Ðº Ð»Ð°Ð´
ĠÐĶÐ¼Ð¸ÑĤ ÑĢÐ¸Ð¹
ĠÐ°Ð´ Ð¼Ð¸Ð½Ð¸ÑģÑĤÑĢ
ĠJaw anda
Ġtradem ark
ĠAnaly tics
ĠWash tenaw
Ġheav ily
ÐµÐ½ÑĤÐ°Ð³ Ð¾Ð½
Ġà° ¤
ĠÐŀÐ»Ð¸Ð¼Ð¿Ð¸ Ð°Ð´Ð°
ĠBernard ino
ĠKard ash
4 199525
9 4
B arre
E l
G EN
K E
N H
R U
g roup
h ost
k m
l as
s a
t elling
Ġ 000
Ð½ Ð¸Ð¼
ÑĢ Ð¸Ð´
ĠC raft
ĠC ases
ĠC ody
ĠC ena
ĠC orner
ou ches
ĠN ames
ĠM ist
ĠM ath
ĠM uk
Ġp orn
ĠR ick
ĠR ico
ĠD roupadi
ĠL E
Ġd ad
Ġd estinations
ĠE le
ĠE PA
ĠE yes
ĠH UL
Ġth read
Ġth inks
ĠNews papers
Ġl iqu
Ġg ained
ess ed
ĠThe ater
Ġr anging
oc ide
ĠK ay
ĠK EY
ĠV ac
ĠV PN
ap h
ĠÐ¿ÑĢ ÑıÐ¼
ĠJan e
Ð¸Ð» Ð»
Ġcon dem
Ġres ource
ĠÐ¼ ÐµÑģÑı
ĠAn alyst
ĠMar s
PR O
ĠAl z
ach es
ane ous
Ġun less
Ð¾Ð¿ ÑĢÐ¾
ĠIt em
Ġsc am
ĠGu atem
IN S
Ġam ounts
ĠRec ently
ĠRec ruiting
ĠZ e
ĠZ imbabwe
ĠAm endment
ĠDis cl
Ġplay offs
Ġmar ginal
Ġbr illiant
AR K
int age
ĠÐ¿Ð¾ ÑĪ
ĠCount ries
ron es
yst al
Ġdown town
ĠLog out
ious ly
ĠÐµ Ð¹
ĠAP P
Ġdel ays
ĠÐŃ Ð»
Ġfollow ers
uls i
Ġrece iver
Ġfund ed
Ġfund ra
ĠAct iv
for get
ĠPer ry
ĠBack stage
ĠJoin ed
Ġauthor ized
krain e
sh ore
Ġcomment ators
ĠPal ette
ĠKh al
Ġconcer t
Ġhost age
ĠÐ¯ ÑĢ
ĠTim othee
Ġroad way
ĠEth i
Ġeng age
ĠLI X
Ġconnect ions
ĠÐ¾Ð½ Ð»Ð°Ð¹Ð½
VER S
Ġur ged
Ġgl owed
Ġarr ests
ĠÑģÐ²Ð¾ Ð¸Ñħ
Ġsuggest ing
Ġà ¦¬
ĠÐ¿Ð°ÑĢ Ñĥ
ĠWU OL
ĠSat ou
Ġcollect ive
Ġamb assador
à¦ Ĥ
Ð´ÐµÑĢÐ¶ ÐºÐ°
Ġdeploy ed
ÑĤÐ² ÐµÑĢÐ¶
ĠMir ror
ĠComb ine
ĠPsych iat
ĠIndust ries
Ġmand atory
Ġ250 1
ĠÐ¸ÑģÐº ÑĥÑģ
ĠDiffer ence
intend ent
à¦¾ à¦Ĥ
ĠÐ¿ÐµÑĢÐµÐ² Ð¾Ð´
ĠDO J
ĠIC ICI
ĠÐºÐ¾Ð½Ðº ÑĥÑĢÑģ
ĠMichel le
ĠPOL IC
ĠVert ical
Ð°Ð½Ñĩ ÐµÑģÑĤÐµÑĢ
ĠEvgen ija
ĠÑĢÐ°Ðº ÐµÑĤ
ĠNT PC
Ġkilomet ers
ĠÐĹÐ°ÑħÐ°ÑĢ Ð¾Ð²Ð°
Ġperspect ive
Ġoblig ations
Ġenthus i
ĠGuatem ala
D C
D ef
E very
P E
d ed
j ournal
l imin
p a
r ical
r edit
v or
ñ »łĹ
Ġt ank
Ð¸ Ð¾Ð´
he m
he astern
at ology
ĠS F
ĠS in
ĠS OC
ar us
Ġs oph
ĠC inem
ĠC PC
is ition
is exual
re tt
ĠP y
ĠP erm
ĠP OW
Ġw ake
Ġw ars
Ġw elfare
Ġf ill
ĠN atal
Ġp ocket
om ic
Ġb unch
Ġb acter
ĠF iscal
il ish
ĠW ants
ĠD ive
Ġd iss
ĠE asy
el d
ĠG a
ĠG uns
Ð¾Ð² Ð°Ð»
Ġre vers
Ġg ap
Ġg eop
Ġr aid
ĠK ong
ĠÐ¸ Ð´Ðµ
Ð°Ð½ ÑģÐºÐ°Ñı
ĠÐ½ Ð¾Ð¶
ĠÐŁ Ð°ÑĪÐ¸Ð½
Ð°Ð» Ð»Ð¸
Ġhe ll
ĠTh ird
Ġex ports
ĠSh ut
Ð¾Ñģ ÑĦ
ĠÑĥ Ñģ
Ġres cue
ĠCl aim
Ġcr imin
ens on
Ġj ury
ake em
ĠFor ecasts
Ġcl ash
ĠÐ» ÑĥÑĩÑĪÐ¸Ðµ
ĠÐĹ Ð°ÑĢ
à¤ ł
Ð°Ð´ Ð·Ðµ
20 20
Ġapp rec
Ġ10 5
ĠÐ° ÑĤ
Ġpart ial
ĠWith in
ins h
ĠChe ls
ĠÐŁÑĢ Ð¾Ð¼
ĠÐŁÑĢ Ð¸Ð¼
AR D
ĠDr iving
ĠDr inks
50 50
Ġrel atively
Ġgr ass
ert o
CA L
Ġinst ru
ĠÑģÐ°Ð¹ ÑĤ
Ġown ed
Ġsk aters
ĠPet ers
ĠÐĵÐ»Ð°Ð² Ð½ÑĭÐ¹
Ġcar ried
Ñĳ ÑĢ
ÐĽ Ð¬
Ġsup erv
Ġsoc cer
ĠTar gets
ĠRank ing
ev ac
ĠKV IA
ĠWild er
ĠHy d
ĠST YLE
ĠSy m
Ġagree ing
ape ut
Ġgener ations
Ġeng agement
Ġel igibility
Ġjoin s
ĠÑįÐº Ð¾Ð½Ð¾Ð¼
ĠCON C
ĠCON VERS
Ġocc asion
ĠPerform ances
Ġarr ival
ĠÐ·Ð°ÑıÐ² Ð»ÐµÐ½Ð¸Ðµ
ĠÐ¿ÑĢÐ¾Ð² ÐµÐ´
ÑĥÐº Ð¼ÐµÐº
Ġprofit ability
ĠÐķÐ²ÑĢÐ¾Ð¿ Ñĥ
ĠÐ¼Ð¸Ð½ Ð¸Ð¼
ĠSer ie
ĠÐ¡Ð» Ð¾Ð²
ĠRoll ing
Ġenjoy ed
ĠVis ual
ĠRic hards
Ġvot ing
ĠCast anet
ĠÐ²Ð¾Ð·Ð¼Ð¾Ð¶ Ð½Ð¾ÑģÑĤÑĮ
ĠWhe el
ÑĢÑĥÑĪ ÐµÐ½Ð¸Ðµ
Ġsil ver
Ġà¤® à¤°
ĠWE ATHER
ÑĥÐ¼ÐµÐ½ÑĤ Ñĭ
ĠÐ¿Ð¾Ð· Ð²
Ġpurs ue
ÑĢÐ¾Ð± Ð½ÐµÐµ
Ġ{ {
Ġrenew able
Ġcomfort able
Ġscen ario
ĠAutom otive
chang ed
ä¸ Ń
ĠMemor iam
Ġinn ings
ĠGib son
Ġhab its
ĠLoc ations
Ð¿Ð¾Ð´ Ð´ÐµÑĢÐ¶ÐºÐ°
ĠÐ²ÑĭÑĪ Ð»Ð°
ĠÐ¾Ð±ÐµÑģÐ¿ÐµÑĩ ÐµÐ½Ð¸Ñı
Ġslight ly
arth y
Ġwed ding
ĠBenn ett
Ġdens ely
ĠÐ¨Ð¸ÑĪ Ð¸Ð½Ð¾Ð²
ĠÐ°Ñį ÑĢÐ¾Ð¿
ĠAX IS
Ġvibr ant
forget table
limin ary
* *
G O
L ine
O ut
P ad
P ower
S D
c ore
f ather
g ering
i en
z ine
Ġ <
en berg
ĠS R
ĠS UN
Ġs orry
ĠC and
ĠT ai
ĠN ik
ĠN ix
ĠM aj
ĠB or
Ġto xic
Ðº Ð¸Ñħ
Ðº Ð°Ð¼Ð¸
ĠW are
ol o
Ġd iplomatic
Ġh ik
ĠE ra
ac co
ÑĮ ÐµÐ·
ĠG ain
ĠG ET
ir al
ĠJ es
ÐµÐ½ Ð½Ð¾Ð³Ð¾
Ġre ef
Ġre actions
ĠÐ¿ Ð°Ð´
Ġr and
Ð¼ Ð¸Ð»Ð°
ag ers
ĠK ill
ĠV ouch
ÐµÑĢ ÑĪ
ity a
em en
em ed
ĠÐŁ Ð¾Ð²
ab ling
ĠTr a
ip eline
Ð¸Ðº Ð¾Ð¹
ĠY ps
Ġex cess
ĠCh er
ĠÐ´ Ð¾Ð»
ĠÐ¡ Ñĭ
ĠÑĢ Ð¸ÑģÐº
ĠÑĢ Ð°Ð´Ð¸
ĠÑĢ ÐµÐ³Ð¸ÑģÑĤÑĢ
pl inema
Ġpl ot
Ġcon clusion
ĠÐļ Ð¾ÑĢ
ĠCl arks
ĠÐĿ ÑĥÐ¶Ð½Ð¾
àµ Ī
Ġ4 34
atch es
ich am
Ġch ronic
ĠMar akk
Ġim pr
Ġim mune
aff e
ĠÐĳ ÑĭÐ²
ound ing
ĠBr ands
ÐĲ Ð¡
Ġrec ording
ĠÐ¾Ð± Ð¾ÑĢÐ¾ÑĤÐ½Ð¾Ðµ
IN ESS
Ġsome how
enn an
Ġprov en
ĠView points
lis her
ĠComp arison
Ġinter im
part y
hel plinema
Ġdevelop ers
ĠCent ers
ĠAdv ice
Ġexp anded
US A
US INESS
Ġinv ited
ĠWeb zine
Ġcare ers
ĠKar en
yn asty
ĠMet als
ĠÐºÐ¾Ð½ÑĦ ÐµÑĢÐµÐ½
St ate
inc ial
Ġbudget ary
ĠAccount ability
ĠST ORY
ĠÐłÐ¾ÑģÑģÐ¸Ð¹ ÑģÐºÐ¸Ðµ
ĠSn ake
ĠBel t
ograp hic
Ġaut onom
ocument ed
ĠDemocr at
Ġel igible
ĠTalk ing
ĠSP ONS
ĠÐ¿Ð¾Ð»ÑĥÑĩ ÐµÐ½Ð¸Ñı
ĠMom ents
Ð¼Ð¾ÑĤ ÑĢ
Ġprior ities
Ġcomb ined
ĠTown s
ĠMel issa
PS C
Ġvol ume
ĠDeb t
ĠHost ing
ÑĥÑģÑĤ ÑĮ
UST R
ĠMac D
ĠÐ¿ÐµÑĢÐ² ÑĭÑħ
Ġill ness
ĠÐŁÐ¾Ð» ÑĥÑĩ
Ġcancel ed
Ġgambling helplinema
aked own
ĠDiscover y
Ġtool bar
Ġteach ers
Ġforum s
Ġindust rial
ĠLiter ature
Ġglob ally
ĠVel icham
hab ilitation
ĠÑĢÐ°Ð·Ð² Ð¸ÑĤ
Ġhyd rogen
ĠKann ada
ĠSoft ball
ĠÐ¼Ð¸ÑĢÐ¾ÑĤÐ²Ð¾ÑĢ ÑĨÐµÐ²
ĠHuss ain
ĠÐĿÐ°ÑĨÐ¸Ð¾Ð½ Ð°Ð»ÑĮÐ½ÑĭÐµ
ĠWASH INGTON
ĠÐĲÐ¼ÐµÑĢ Ð¸ÐºÐ¸
ĠHapp ens
Ð·ÑĭÐ² Ñĭ
ikk alum
illor ikkalum
ĠÐ£ÑģÐ» Ð¾Ð²Ð¸Ñı
ĠCarp enter
ĠÐ§ÐµÑħ Ð¸Ð¸
ĠKudumb am
ĠChels ea
ĠCONVERS ATION
ĠMarakk illorikkalum
3 29
W A
d isc
i q
s en
s ter
t ea
u ces
w oman
ä »
in ch
Ġt asks
ĠS ach
ĠS inner
ĠC ir
ĠC ass
ĠC AN
ĠC abinet
ĠC ynth
ĠT ulsi
ĠA ub
ĠP ath
ĠP UN
Ġf amer
ĠM isc
Ð» Ð¸Ð½
Ð» Ð°Ð½Ð´
ĠB aker
ĠF ab
ĠF ram
ĠR AW
ĠW K
ĠW rap
ĠW ales
Ġm or
ĠL eth
ol ks
Ġd ishes
Ġd ialogue
Ġh at
ĠE mer
ĠG unn
ĠO H
ĠO PT
ĠNews max
Ġl oop
Ġl iability
Ġre ward
ĠÐ¿ Ð¾Ð¼Ð¾ÑīÐ¸
Ġr ent
ĠÐ² ÑģÑĤ
ĠÐ¸ ÑģÑĤ
ÑĨ Ð¸Ð½
ĠÐº Ð°ÑĢÑĮ
ast ics
ÐµÑĤ ÐµÑĢÐ±ÑĥÑĢÐ³
ĠY ORK
io xid
ĠCh annels
ĠÐ¿ÑĢ Ð¸Ð´
av ors
her o
ĠÐ¡ ÑģÑĭÐ»ÐºÐ°
ĠÑĢ Ð¾Ð´
Ð³ Ð¾Ð´
ĠÐĴ ÐµÑĢÑģÐ¸Ñı
ĠÐŀ Ð²
ĠÑĤ ÑĢÐ°Ð½
ram b
ĠAr v
Ġag ing
ĠEx hib
Ġ8 5
Ġse qu
ru its
à¤ ¶
ĠÐĲ Ðŀ
ÑĢÑĥ Ñĩ
Ð¾Ð¶ Ð¸Ðµ
Ð°Ð»ÑĮ Ð½Ð°Ñı
ann on
ĠÐ¾Ð± ÑīÐµÑģÑĤÐ²
ĠÐ£ ÑĢ
Ġpre liminary
au ts
Ġund erm
Ð°Ð± ÑĢ
ĠCar roll
Ġbl ow
Ġbl ame
ĠÐŁÑĢ ÐµÐ¼
Ġro ots
ĠÐ§ Ðľ
Ġrel iable
ÐµÐ¿ Ð¾ÑĢÑĤ
ĠAss istance
Ġinst ance
Ð¸Ð³ ÑĢ
Ġgu idelines
ÑĥÑģ Ñģ
ĠâĤ ½
ĠMc K
ĠÑģÐ°Ð¼ Ð¸
St ories
ĠGas par
ĠÐ¿Ð¾ÑģÐ» ÐµÐ´
ĠÑĢÐµÐ´Ð°Ðº ÑĤÐ¾ÑĢ
ĠKn ives
Ġbrows ing
Ġcompet e
ÑģÑĤÐ°Ð½Ð¾Ð² ÐºÐ°
ĠKey s
ĠNov o
ĠSol vers
ĠWr ong
ĠMO D
Ġconflic ts
ĠEnt repreneur
Ġintro duc
ĠGuard ians
ĠOil ers
ĠRound table
ĠÐĶÐ¾Ð½ ÐµÑĨ
ĠPartnership s
ĠSynd ication
ĠBa at
Ġhighlight ing
ĠÐ´Ð¾Ð»Ð¶ ÐµÐ½
ĠCou ple
ĠSem rush
Ġvers us
Ġvers ions
ĠPuzz le
ĠCold play
ĠÐºÑĢÐ¸Ð¿ÑĤÐ¾Ð²Ð°Ð»ÑİÑĤ Ñĭ
ĠGal axy
ĠGre ece
ĠSchol ar
ĠÐŁÐ°Ð² ÐµÐ»
Ġtack le
Ġmach ine
NEW S
ĠIL T
ĠEX P
Ġaver aging
ĠNeur ology
Ġscri pt
ĠAchieve ments
ĠÐĿÐ¾Ð²Ð¾ÑģÐ¸Ð±Ð¸ÑĢ ÑģÐº
ĠSD G
Ġachie ved
ĠÐ´Ð¾Ðº ÑĥÐ¼ÐµÐ½ÑĤ
ĠSteph anie
ĠMast head
Ġliter ally
ÐļÐ¾Ð¼ ÑģÐ¾Ð¼
ĠÐ·Ð½Ð° Ñİ
achel or
ĠÐ¡ÐµÐ¼ÐµÐ½ Ð¾Ð²Ð¸Ñĩ
ĠÐºÐ°ÑĢÑĤÐ¸Ð½ ÐºÐ¸
ĠPUBL IC
ĠPOLIC Y
ĠCynth ia
C o
G o
H ub
L G
U I
U CT
b ourne
c ase
e an
f ers
p ol
w r
¨ ÙĬ
or ant
ĠS EO
Ð½ Ð°Ð·
it ivity
al le
Ġs ick
Ġs witch
ĠT ell
ĠT FSA
ĠA st
ĠP ok
Ġf ruit
ĠN ag
ĠN ST
ĠB ased
ĠR V
ĠR elli
ĠD A
ĠD ul
et on
Ñĥ ÐºÐ¸
Ġd u
Ġd ive
ĠE lement
ĠE ilish
ĠH ide
ĠH akeem
ĠG ates
ĠJ unk
im eter
Ġ1 10
ĠV S
Ñħ Ð¸Ñı
Ġ( Â°
ĠÐŁ Ð»Ñı
Ð°Ð» Ð¾Ð²
Ġan imal
ust ration
Ġv eterans
ĠCh rom
ĠÐ´ Ð¾Ð»Ð»
ĠÐ´ Ð¾Ð²ÐµÑĢ
ĠÐ¡ Ð°Ð»
ĠÐľ Ð°Ð¹
ĠÐĴ Ð¾Ð´
ĠCom merce
ĠÐł ÑĭÐ±
Ġal ign
ĠEn forcement
ĠÑĤ ÑĢÐ°Ð½Ñģ
ram s
Ġres olution
ĠHe y
ĠÐĵ Ð°Ð»
ĠÐĵ ÑĢÑĥÐ·
Ġag ricultural
und ering
Ġad j
ĠAll ow
sc reen
ult y
ĠDe pt
enc er
ĠUn limited
Ġcomp rom
ĠÐĽ ÑİÐ´
Ġse am
ĠÐĹ Ð°Ð±
à¤ Ĺ
ĠÐĲ Ð»Ð¸
ĠÐ¤ ÑĥÑĤ
Ġ9 74
ĠAnd r
Ġdis ability
Ġdis placed
ĠPre views
Ġbl end
Ð¸Ð² Ð¸Ð´
ĠÐŁÑĢ Ð¾ÑģÑĤ
Ð°ÑĤÐµÐ»ÑĮ Ð½Ð¾
à´¿ .
50 8
ĠÑĤÐµÑħÐ½Ð¾Ð»Ð¾Ð³ Ð¸Ð¹
ĠSm ash
ĠPar ks
Ġcount ies
Ġcap s
Ġcap able
ĠÐ¡ÑĤ Ð°ÑĢ
ĠChar acter
ĠRuss ell
Ġlast ing
Ġpublic ations
ĠPun ch
ĠÐ¿ÐµÑĢ ÐµÐ³
ĠExpl ains
Ġaccess ibility
ĠÐ¿Ð¾Ð» Ð¸ÑĨ
ĠCons ult
Ġmain ly
yn ec
St ation
ĠJoin s
Ġide al
ĠVol leyball
ĠÑĦÐ¾ÑĢÐ¼ Ð°ÑĤÐµ
DA C
ĠShar on
Ġposs ibly
ĠSal mon
ĠÑģÐ» Ð¾Ð¶
Ð¾Ð±Ñī Ðµ
ĠBel ieve
ĠRele ased
Ġgener ate
Ġrecogn izing
Ġspec ies
ÑĢÐ¾Ð¿ ÐµÐ¹
Ġalleg es
Ġreason able
Ġrepresent ed
Ġrecomm ends
ĠÐ¿ÑĢÐµÐ´Ð» Ð°Ð³
ĠÐ³ÑĢ ÑıÐ·
ĠÑĥÐºÑĢÐ°Ð¸Ð½ ÑģÐºÐ¸Ñħ
Ġbar g
Ġregard less
ĠÐ¿Ð¾Ð² ÑĢÐµÐ¶Ð´
ĠMaster ing
ĠJack ie
ĠTurn er
Ġsche mes
ĠCamp us
Ġspot light
Ġspok esman
ĠÐĴÐ¾ ÐµÐ½Ð½Ð¾Ðµ
JP Y
Ġobs erved
ĠBrows er
Ġmonit or
ĠÐłÐ°Ð· ÑĢÐ°Ð±Ð¾ÑĤ
ĠJas mine
ĠÐ³Ð¾ÑĢÐ¾Ð´ Ðµ
ĠSE ARCH
ĠÐĿÐ°ÑĪ Ð¸
ĠDiffer ent
ĠÐĵÑĢÐ¸Ð³Ð¾ÑĢ ÑĮÐµÐ²Ð¸Ñĩ
ĠShr iver
intend o
bel iev
Ġcounsel ing
ester day
Ġapplic able
Ġconclud ed
ĠTon ight
ĠLOG IN
ĠFisher ies
ĠBark ley
ĠYo Y
ĠÐ´ÐµÑģÑı ÑĤ
ĠPud ding
ĠÐ¿ÑĢÐ¾Ð³ÑĢÐ°Ð¼Ð¼ Ð½Ð¾Ð³Ð¾
approp riate
ĠReyn olds
ĠIlleg al
ĠAlz heimer
4 99
R u
R ock
W U
d d
e ah
h and
r ina
Ã ¶
Ĥ ï¸ı
Ð° ÑĥÐ´
ÑĤ Ð°Ð²
Ġs am
ĠT ER
ĠP apers
Ġc ro
Ġc able
Ġf il
as mine
ĠN intendo
ĠM ent
ĠM EA
Ġp owers
Ð» ÐµÐ½Ñĭ
ĠB ath
ĠR af
ĠR AD
il ater
Ðº Ð¾ÑĢÐ¾Ð²
Ġm agn
Ġm ortgage
ĠD iet
Ñĥ Ð½Ð¾Ð²
ol ition
Ġh ers
ĠE ug
ĠE WU
id t
ig ating
ur acy
Ġl ies
Ġl ie
Ġl ift
ÐµÐ½ Ð½Ð¾ÑģÑĤÑĮ
Ġg otten
ĠÐ¿ Ð¾Ð¶Ð°Ð»
ĠSt ef
ĠSt ones
âĢĻ ,
Ġst amp
Ġst adium
un es
ĠK har
st anding
st ressed
ĠPr ison
av da
qu ired
ĠÐł Ð¾Ð´
ĠÐł Ðŀ
ĠÐŀ Ðº
ket ch
ÐµÐ¼ Ð°ÑĤ
Ġcon vert
ĠÑĤ Ð¾Ð¶Ðµ
ĠInd o
Ġk g
Ġcr y
ĠCr ow
Ġ4 13
ĠPol and
ĠÐ¼ Ð¾Ð±Ð¸Ð»
Ð°ÑĨ Ð¸ÐµÐ¹
ĠÐĶ Ñį
Ð¾Ñĩ ÐºÐ¸
hen omen
ĠÑģÑĤ ÑĢÐ¾
Ġint ent
oy oos
ĠÐĺ Ðľ
Ð°Ð´ Ð¶
ĠÐĲ Ñģ
anc ini
ĠMed ium
ĠFr es
Ð¸Ð· Ñĭ
ĠApp reciation
ĠÐŀÐ± Ð½Ð¾Ð²Ð»ÐµÐ½Ð¾
ĠÐ¾Ð± ÑĢÐ°Ñī
ĠQu arter
Ðĺ Ð¯
au x
ĠÑĦ Ð¸Ð»ÑĮÐ¼
air ed
ins ula
ĠDel ay
ĠAg ing
ĠÐķ ÑĦ
Ġmay or
Ġback ed
Ġtrans formation
ĠReg ions
ĠDr one
AN G
Ġsign al
Ġinter cept
Ġco alition
ĠBlack h
Ġdef ined
Ġwell ness
ĠSo Fi
ÐºÑĢÐ° Ð¸Ð½Ð°
Ġà¤ ¦
ĠSw ap
Ġsk ill
Th ese
ĠWeb c
ĠSocial ly
Ġext ensive
duct ive
ĠStr aka
Ġsl ams
ĠÐ¼Ð¸ÑĢ Ñĥ
ather ine
ĠÑĪ ÐµÑģÑĤÑĮ
Ð¸ÑĩÐµ ÑģÐºÐ¸
Ġperson hood
ĠÐĲÐ½ Ð³Ð»
ĠÐ²Ð¾Ð· ÑĢÐ°ÑģÑĤ
ĠWar rior
ĠTim eline
ĠSl ash
hy thm
Ġreview ed
ĠRan bir
ĠAnn ie
ĠConf lic
Ġtyp ing
Ġstress ed
lin er
Ġquestion ed
ĠOffic ers
ĠFar mer
ĠSon ic
Ġstay ing
ĠÐ²Ð¾ÐµÐ½ Ð½Ð¾Ð¹
ĠÐ´Ð² Ð¸Ð¶
ĠKing ston
ĠBlue Sky
ĠTO UR
ĠEM U
ĠÐ½Ð°Ñĩ Ð°Ð»Ð°
ĠRaj asthan
ĠAthlet e
Ġrefer ring
ĠCop per
Ġexpert ise
ĠÐ¡Ð¾ ÑħÑĢÐ°Ð½
He alth
rie ve
ĠII I
Ġhum ans
Ġinstruct ions
ĠÐ¾Ð±Ð½Ð¾Ð² Ð¸ÑĤÑĮ
Ġut il
Ġsem i
Ġincred ibly
ĠMach ine
ĠTur k
Ġfrequ ent
Ġarg ued
includ ing
Ġanaly tics
ĠOri oles
Ġnor thern
ĠÐ²ÑĭÐ· Ð¾Ð²
ĠÐ¿ÑĢÐ¾Ð¸Ð·Ð¾ÑĪ Ð»Ð¾
aksh mi
ĠÐ¤ÑĢÐ°Ð½ ÑĨÐ¸Ñı
MG M
ĠÑįÐºÑģÐ¿ÐµÑĢÑĤ Ð¾Ð²
ĠÐķÐºÐ°ÑĤÐµÑĢ Ð¸Ð½Ð°
Ġdisp ute
âĢį âĻ
ĠÐ¾Ð³ ÑĢÐ°Ð½Ð¸Ñĩ
obb ies
ĠÐĴÐ¾Ð· ÑĢÐ°ÑģÑĤ
ĠLun ar
ĠCha os
Ind ia
Ġembr ace
ĠÐ¿Ð»Ð°ÑĤÑĦÐ¾ÑĢÐ¼ Ñĭ
ĠÐ±Ð»Ð¾Ðº Ð°Ð´Ñĥ
ÐµÑĨÐµÐ¿ ÑĤÑĭ
ĠÐŀÑĤÐ²ÐµÑĤ Ð¸ÑĤÑĮ
ĠÐŁÐ¾Ñħ Ð¾Ð¶Ð¸Ðµ
ĠÐ½ÐµÐº Ð¾ÑĤÐ¾ÑĢ
ĠMcM ahon
ĠPsychiat ry
ĠGaspar illa
ĠÐŁÐ»Ñı Ð¶Ð½ÑĭÐ¹
âĢįâĻ Ĥï¸ı
3 00
6 000
B ang
P eople
c ircle
e on
i i
k eed
n is
w ear
¦ âĢįâĻĤï¸ı
ì ķ
in ite
Ġt act
on ing
ar ium
al in
Ġs hed
ĠC iv
ĠC ebu
ĠA way
ou ettes
Ġw ine
Ġf ro
Ġf ishing
Ġb etting
ĠF urniture
ĠR ally
ĠW or
ĠD IS
ew ell
ĠL S
ĠL ov
ĠL PM
Ġd ignity
ĠH alf
ac o
ĠG ynec
ĠU ber
Ġon board
Ð´ Ð¶
ĠÐ¿ Ð¾Ð¿ÑĥÐ»ÑıÑĢ
ĠSt ores
Ġr bc
Ġr icher
ut ion
ĠÐ² Ð°Ð»ÑİÑĤ
od a
ĠK ES
ĠV ent
Ġy esterday
ap es
ĠÐŁ Ðŀ
ĠTh ai
ĠCh ak
qu es
ĠÐ¡ Ð¾Ð²
ĠÐ¡ ÑĥÐ¿
ĠÐľ Ð¾ÑĤ
ĠÑĢ Ð°Ð¼
ĠÐł ÐĺÐĲ
Ġpl ung
ĠÐļ Ð¾Ðº
ĠÐļ Ð¾Ð³Ð´Ð°
ĠPl ain
Ġres ett
Ġcr itics
ĠÐĵ Ð¸Ð´
Ġsh oot
Ġ4 37
ĠSub s
ĠMar ried
Ġ6 3
Ð¾Ð± ÑĢÐ¸ÑĤ
ĠÐ¢ Ð°
pr ised
20 18
ÑĤÐ¾ ÑĦ
ĠSe es
ER V
Ġind ict
Ġso il
IV IS
Ġâ ĸ¼
Ġinvest ed
Ġmin istry
AR UT
ĠReg ard
Ġret al
ĠHigh est
ĠÐļÐ¾Ð¼ Ð¼ÐµÐ½ÑĤÐ¸ÑĢÐ¾Ð²Ð°ÑĤÑĮ
ÐĴ ÐĲ
ÐŁ Ð¾Ð»
Ġadv ised
ĠVe er
Ġext ract
ĠÑĢÐµÐº Ð¾ÑĢÐ´
Ð¾Ñī Ð°Ð´
ĠðŁ Ĵ
ĠGreen land
Ġproduc ing
ĠAc cept
39 0
ĠBel arus
ĠRem ove
Ġdep ends
wh o
Ġeng ulf
ĠÐ¾Ð¿ Ð°Ñģ
Ġstrong er
Ġpract ical
ĠÐŀÑĤ Ð·ÑĭÐ²Ñĭ
ĠÐļÐ¾Ð½ ÐºÑĥÑĢ
ĠÐļÑĢ ÐµÑģÑĤ
Ġbox es
ĠMO BI
Ġà ®¤
ĠÐ¿Ð¾Ð³ Ð¾Ð²Ð¾ÑĢ
ĠUP L
ĠÐŀÐ´ Ð¸Ð½
Ġer up
ĠGh ana
Ġdescrib es
ĠRav i
ĠWant ed
harm aceut
da q
ĠLic ense
ĠStat istics
ðŁ¤ ¦âĢįâĻĤï¸ı
à° ²
à° Ĺ
Ġbreat h
Ġfrequ ently
Ġdoz en
ĠÐļÐ°ÑĤ Ð°Ð»Ð¾Ð³
ĠInfl u
Ġhur d
ĠDocument ary
Jan uary
ĠÑģÑģÑĭÐ» ÐºÐ¾Ð¹
but ton
Ġexcell ent
ĠObserv ance
ĠÐ£Ñĩ ÑĢÐµÐ´
Ġtouchdown s
ĠRout es
à² ¨
ĠDraw ing
ĠÑģÐ¼Ð¾Ð¶ ÐµÑĤ
ĠRedress al
ĠÐ¿Ð¾Ð²ÑĤÐ¾ÑĢ Ð¸ÑĤÑĮ
ĠÐ½Ð¸ÐºÐ°Ðº Ð¸Ñħ
ĠÐ¿Ð¾Ð´Ðº Ð¾ÑĢÐ¼
ĠÐķÐ²Ð³ ÐµÐ½Ð¸Ð¹
ĠÐ¾ÑĤÑĢÐµÐ°Ð³ Ð¸ÑĢÐ¾Ð²Ð°Ð»
êµ Ń
ĠDiscl osure
ĠFres no
ĠKES Q
Ġplung ing
L et
W D
m ist
p ired
s hed
Ã º
Ġ _
Ġ iron
he ll
at ri
at ile
Ð½ Ð°Ð´
is ure
Ġthe ory
ĠP owell
Ġw ond
Ġf ertil
Ġp al
ĠB ag
ĠB IG
Ġb io
ĠR i
ĠR ou
ĠR IGH
ĠI E
Ġand roid
et ary
ĠL enta
Ġd iabetes
Ġh az
Ġh itting
ĠE R
ĠE paper
ĠH ait
iv o
ĠG OP
Ġl os
Ġl ived
ÐµÐ½ ÑģÐºÐ°Ñı
Ġre vel
ĠÑģ Ð¾Ð³Ð»Ð°ÑĪ
ĠâĢ Į
ag ons
ĠK le
ĠV ulner
Ð¾ÑĢ Ð²
Ð· Ð°Ð»
ÑĨ Ñģ
Ð¾Ð» Ð¾ÑĤÐ¾
Ġv ill
ack er
ĠCh anging
ĠÐ¡ Ð½
ĠÐľ ÑĥÑģ
ĠÐł Ð°Ð±Ð¾ÑĤÐ°
ĠSh ipping
ram a
ĠÐ· Ð¸Ð¼Ð½
ĠÑĥ Ð½Ð¸ÑĩÑĤÐ¾Ð¶
Ġle an
Ġ4 36
ĠSports keed
Ġup hold
ĠÐĶ Ð·
form er
ĠMar ie
ĠÐ± Ð¾ÑĢ
ĠÐ± Ð°Ð½
ĠÐ± Ð¸Ð·Ð½ÐµÑģ
ĠDe g
ĠUn its
ĠÑĩ ÐµÐ³Ð¾
ĠÑģÑĤ Ð°Ð»Ð¸
Ð¸Ð¼ Ð¾Ð¹
20 2
ish a
ĠPlay Station
Ð°ÑģÑĤ Ð¸ÐºÐ°
ĠÐ¾ÑĤ Ð´ÐµÐ»
Ġapp lied
Ġdis m
ĠSign ing
ĠÐ¾Ð± ÑģÑĥÐ¶
IN TS
ÑĥÐ´ Ð¸Ð¸
ĠÐ¿ÑĢÐµÐ´ Ñĥ
ĠRead er
ĠRec reation
ĠDel ta
Ġimp osed
Ġro ok
Ġmin eral
Ð°ÑĤÐµÐ»ÑĮ Ð½ÑĭÑħ
Ġprov isions
ĠÐ§ ÐµÐ¼Ð¿Ð¸Ð¾Ð½
Ġsign als
Ġman aging
IC AL
ĠHol a
Ġevery body
ĠGr ay
Ð¾Ð´Ð° Ñħ
Ġdes cription
ĠÐĿÐ° Ñĩ
ĠÐĵÐ»Ð°Ð² Ð°
ĠWeb Stories
Ġlist ing
ĠÐŁÐµÑĢ Ð²
Ġopen ly
ĠLos ers
St reet
Ġrest raining
ĠBec k
ĠPort land
Ġsaf ely
Ġbudget s
Ġequ ival
ĠLaw suit
ĠMod er
ĠÐ²Ð¾ Ð¾Ð±ÑīÐµ
ĠQuick ly
Ġhuman itarian
ĠKn ew
ĠÑĦÐµÐ²ÑĢÐ°Ð» Ðµ
Ġsearch ing
ĠBro ck
ĠBet MGM
Ġtravel ing
Ġpres ents
Ġproject ed
Ġsusp ects
Ġte acher
Ð¼Ð¾Ð¶ Ð½Ð¾
Ġsy nd
ĠTO I
ĠPe ace
ĠÑĢÐ°ÑģÑģÐºÐ°Ð· Ð°Ð»Ð¸
Ġimprove ment
ĠÐĹÐ°Ð¿ Ð¾Ð¼Ð½Ð¸ÑĤÑĮ
ĠWinn ers
Ġparticip ating
Pl us
ĠMcC on
ĠÐ¿Ð¾Ð¿ ÑĭÑĤ
à¦ ²
Ð¼Ñĥ Ð½Ð¸Ðº
Ġflu id
ĠDiscuss ions
Ġbro ken
ĠPri y
Ġut ility
ĠÑģÐµÐ· Ð¾Ð½
ĠTrad er
Ġextrem ism
ĠLaun ch
Ġstruct ural
ĠÐ¸Ð·Ð¼ÐµÐ½ ÐµÐ½Ð¸Ñı
ĠThough ts
ĠMerch andise
ĠPen insula
ĠÐ¿Ð¸Ñģ Ð°Ð»Ð°
ĠPharm acy
Ġemer ge
ĠÐºÐ¾Ð½ÑĤÑĢÐ¾Ð» ÐµÐ¼
ĠÑĦÐ¸Ð»ÑĮ Ð¼Ðµ
ĠGrap hics
ĠÐ¢ÑĢÐµÐ± ÑĥÐµÑĤÑģÑı
ĠØ §
ĠÑĥÑĢÐ¾Ð² ÐµÐ½ÑĮ
Ġmechan ism
ĠÑģÐºÐ°Ð· Ð°Ð»
ÑĢÐ¸Ð½ ÑĪ
ĠÐĲÐ½Ð´ÑĢÐµ ÐµÐ²Ð°
Ġinquir y
ĠÑĥÐ´Ð¾Ð± Ð½Ð¾Ð¼
ĠARCH IV
ĠÐ·Ð°Ñħ Ð²Ð°ÑĤ
ĠÐļÑĥÐ· ÑĮ
oler ance
ĠÐŁÑĢÐµÐ´ÑģÑĤÐ°Ð² Ð¸ÑĤÐµÐ»ÑĮ
ĠÑģÑĦ ÐµÑĢÐµ
Ð¸ÑģÐ¾ÐµÐ´Ð¸Ð½ ÑıÐ¹
Ð¾Ð¿ÑĢÐ¾ ÐµÐºÑĤ
ĠÐŁÐ°ÑĪÐ¸Ð½ ÑıÐ½
Ġimpr ison
C ats
E d
J im
L S
L ife
M ore
S ense
V EL
X T
c alled
f are
m ons
p o
t ock
u ises
w ill
¹ Ø±Ø
Ġ ÑħÐ¾Ð´
Ġ oust
in arian
Ġt ur
Ġt all
on ce
es ar
ĠC el
ĠC EL
ing ham
ĠT all
ĠT ale
ĠT akedown
is ons
ĠA udi
ĠP att
Ġf old
Ġf aster
ĠM aur
ĠM ancini
le en
ĠB atter
Ġb ags
Ðº Ð°Ð½Ð°Ð»
Ġm anner
ĠD uty
ĠL it
Ġd andelion
ĠE ight
iv a
ĠG ives
ĠG oph
ÑģÑĤ Ð°
ÐµÐ½ Ð¾Ð²ÑĭÐµ
Ġre ference
Ġre ferences
ĠÑģ Ð¾Ð´
st rom
Ñħ ÑĥÐ½
ĠRe pl
ĠRe ally
ĠÐº ÑĢÐ¸ÑĤ
Ð¸ÑĤ ÐµÑĢ
ok mat
ĠÐ¾ Ð¿Ð»
Ð¾Ð³ Ð°
Ġcom ed
ĠÐ¿ÑĢ Ð¸Ð»Ð¾Ð¶ÐµÐ½Ð¸Ðµ
Ð°Ð² ÑĢ
Ð¸Ð½ ÑģÐºÐ°Ñı
Ġpl ed
Ġpl astic
ĠÐ· Ð¾Ð»Ð¾ÑĤÐ¾
ĠPl ays
Ñī ÑĥÑĤ
Ġk itc
ĠSp ain
ĠSp aces
Ġ4 04
ĠÐ¼ Ð¾ÑĪ
... ]
ÐµÑģ Ð¿Ð»Ð°ÑĤ
ĠÐ³ Ð¾ÑģÑĤ
ĠAl ong
Ġout ward
à¤ Ł
ĠÐ¢ Ð¾Ð»ÑĮÐºÐ¾
ĠEv angel
Ñį ÑĤ
Ġen abling
ĠBr others
ĠÐ²Ñĭ Ð¹
ĠÐ²Ñĭ ÑģÑĤÐ°Ð²
ĠÑį Ð»ÐµÐºÑĤ
ĠAir line
ÑĢÑĥ ÐºÐ¾Ð²
Ð¸ÑĨ Ðµ
ĠGu antan
Ġund ocumented
Ġsec urities
Ġinc idents
ĠZ oe
ĠMy ers
Ġthere fore
ĠEduc ator
ĠÑĤÐµÑħ Ð½Ð¸ÐºÐ°
Ġconf ident
Ġsur prising
ĠFire fox
Ġdes erves
ÐŁ ÐµÑĤÐµÑĢÐ±ÑĥÑĢÐ³
Ġ[ ...]
Ġprot ections
LE CT
ĠStr engthen
Ġauthor itative
mitt ing
ring ton
Ġrespond s
ĠÐ¦ ÐµÐ½Ð¾Ð²ÑĭÐµ
ĠÑĤÑĢ Ð°Ð²
ÐĲÐ¢ Ðŀ
Ġformer ly
ĠÑĢÐµÑģ ÑĥÑĢÑģ
Ġearn ing
Ġstand out
ĠUN L
ĠRE I
AD O
ÑĬ ÐµÐ¼
ĠÐĲÑĢ ÑĤÐ¸ÑģÑĤ
Ġgener ated
Ġcontribut ing
Ð¾ÑĪ ÑĳÐ»
Ð¾Ð»ÑĮÑĪ Ðµ
Ð¸ÑĢÐ¾Ð² Ð°Ð»Ð°
ĠFre aksh
ĠÐĵÐ¾Ð´ Ð¾Ð²
Ġpres crib
Ð°Ñĩ ÐµÐ¼
Ġquestion ing
Ñĸ Ð´
ĠÐ¿Ð¾Ðº Ð°
Ġtreat s
Ġste el
Ġarr ive
Ġpe ak
ĠÐ¼Ð¾Ð¶ÐµÑĤ Ðµ
For ce
ĠÐ½Ð°ÑĪ Ð¸Ð¼Ð¸
ĠBrit ain
Ġcir cul
Ġindic ate
ĠRail ways
Ġmig rant
ĠWV IT
ĠCommod ity
Ð¸Ð³ÑĢÐ°Ð½ Ð½Ð¾Ð¼
Ġant ioxid
ĠStrateg ic
ĠÐ¢ÐµÐ» ÐµÐ²
ĠÐ¿Ð¾Ð´Ð´ÐµÑĢÐ¶ ÐºÐµ
OLOG IES
power ed
Ġrepeat edly
Ġdismiss ed
ĠFil ip
Ġshowc ase
ĠLig a
ĠPo et
ĠÐ¤ÐµÐ´Ð¾ÑĢ Ð¾Ð²Ð¸Ñĩ
ĠÐºÑĢÑĥÑĪ ÐµÐ½Ð¸Ñı
Ð¾Ð·Ð¸ÑĤ Ð¾ÑĢ
Ġneighb our
ĠTeach ers
ĠQual ified
ĠPlatform s
Ġ__ _
ĠDI Y
Ġacknowled ged
ĠÐ¸ÑĤ Ð¾Ð³Ð¸
Ġcontinu ous
ĠInclud ing
ĠÑģÐ¸ÑĤÑĥ Ð°ÑĨÐ¸Ð¸
imp act
ĠTECHN OLOGIES
ĠÐŁÐ¾Ð»ÑĥÑĩ Ð°Ð¹ÑĤÐµ
ĠLeth bridge
ĠÐĽÑİÐ´ Ð¼Ð¸Ð»Ð°
ĠEug ene
ĠSportskeed a
¹Ø±Ø ¨ÙĬ
ĠGoph ers
ĠGuantan amo
ĠFreaksh ow
A kh
B re
H T
N O
N ERS
b iz
d oud
f arm
g on
g or
m ith
m ate
n ia
p ire
t el
in du
Ġa v
on ova
Ð¸ Ð¶ÐµÑĢ
Ðµ Ñı
ĠS V
ĠS MS
Ð½ Ð¾ÑģÑĤ
ĠC ensus
ĠT C
ĠT u
ĠT rop
ĠT DS
ĠP V
ĠP LA
Ġw aters
Ġf ault
as ury
ĠM ant
ĠM oon
le et
om i
ĠB ub
ĠB ots
Ġb le
ĠF og
ĠI MA
ĠI LL
Ġm un
ĠD ix
ĠL ib
Ġd ance
Ġh idden
ĠH U
el i
ec ca
ur g
ĠU G
ĠJ io
Ġfor est
ĠÑģ ÑĥÐ¼
ĠÑģ ÑĢÐµÐ´
Ġr anks
ĠIn form
oc urrencies
ub bed
Ġst em
ÐµÑĢ ÑĤÐ°
ab i
ÑĦ ÐµÐºÑĤÐ¸Ð²
ip her
ÐµÐ» ÐµÐ³
ĠPr in
Ġv an
Ð¸Ñı ÑĤÐ¸Ñı
ĠÑĢ Ð°ÑģÑĤ
ĠÐĴ Ð¸Ð½
ĠÐŀ Ð¿Ð¸ÑģÐ°Ð½Ð¸Ðµ
ket t
ĠAd op
ĠÑĤ ÐµÑĩÐµÐ½Ð¸Ðµ
ĠCr it
ĠCr ist
ĠÐĵ Ð°Ð½Ð´
ĠÐĿ ÐĲÐ¢Ðŀ
ĠÐ¼ Ð°ÑĪÐ¸Ð½
Ġch ains
Ġ6 00
Ġcl ar
Ġcomp onents
Ġout lets
ink ing
Ġun t
Ġun forgettable
ĠDon e
ĠÐ¤ Ð¾ÑĢ
ĠÐĳ Ð¸Ð°ÑĤÐ»Ð¾Ð½
Ġen abled
Ġ7 1
ĠBr ent
ĠApp ly
Ġrec all
Ġev alu
ĠShow down
Ð¡ Ð¿
Ġsec ured
Ġbl asts
ĠAm anda
ON D
Ġunder lying
Ġrel oc
ĠÐ¿ÑĢÐ¾ Ð¸Ð³ÑĢÐ°Ð½Ð½Ð¾Ð¼
ĠGr ass
Ġins ist
Ġins pection
ĠLog istics
ÐĶ Ð¾Ð½Ñĥ
Ġsur face
ĠÑģÐ¿ Ðµ
Ġph il
ĠEl imin
Ġelect ronics
ĠVal orant
ĠCons ecutive
ĠÐ¿Ð¾ÑģÑĤ ÑĥÐ¿
ĠÐ¾Ñģ Ð¾Ð±
ING S
ĠÐĴÐµÐ»Ð¸Ðº Ð¾Ð±ÑĢÐ¸ÑĤ
ĠCover ing
ĠÐºÑĥ Ð¿
ÐĹ Ð°
ĠExper iences
Ġdep os
ĠBh ut
Ġdisc rimination
Ġtyp ical
ĠÐ¿ÑĢÐ°Ð² Ð¾
ĠNewsw ire
ĠCamer as
Ġbook mark
tr l
62 30
Ġste pped
ĠCas cade
Ġrepresent ation
Ġrepresent atives
ĠÐ²Ð¾ÐµÐ½ Ð½ÑĭÑħ
unn ed
46 3
ĠWH EC
ĠWR VO
ĠBal ance
Ġgovern ance
Ġlic enses
ĠHur ts
ĠPur due
ĠBull ion
ĠÐ´ÑĢÑĥÐ³ Ð¾Ð³Ð¾
ĠOs oyoos
ĠÑģÐµÑĢ Ð¸Ð¸
Ġple aded
ÑĭÑĪ Ð»ÐµÐ½
ĠJackson ville
ĠWhe els
Bl ack
ĠÐ¸Ð¼ Ñı
Ġprison ers
Ð¾Ð»Ð½ Ð¸ÑĤÐµÐ»ÑĮ
ĠÐļÐ¸ÐµÐ² Ðµ
ĠAlleg ed
ĠInsp ired
ĠKul karni
ĠÐĺÑģÑĤÐ¾ÑĢ Ð¸ÑĩÐµÑģÐºÐ¸Ð¹
ĠÐĹÐ°Ð¿Ð°Ð´ Ð½ÑĭÐµ
ĠÑĪÑĤ ÑĢÐ°ÑĦ
enal ty
ĠÐĴÐ¾Ð» ÐµÐ¹Ð±Ð¾Ð»
ĠÐ¢Ð°Ðº Ð¶Ðµ
Ġprote ins
Ġcorrect ly
ĠShr ine
ĠPhys ics
ĠÑĢÐ°ÑģÑģ ÑĩÐ¸ÑĤ
ĠÐ·Ð°ÐºÐ¾Ð½ Ð¾Ð¿ÑĢÐ¾ÐµÐºÑĤ
ĠÐ¶ÐµÐ½Ñī Ð¸Ð½
ĠÑĦÐ¸Ð»ÑĮ Ð¼Ð°
ĠÐµÐ² ÑĢÐ¾Ð¿ÐµÐ¹
ĠNW SL
ĠKinn e
Ġrom antic
ĠÐĺÐ»ÑĮ Ð´
ĠÐ´Ð¾ÑģÑĤÐ¸ Ð³
ĠPrincip les
ĠÑģÐ¾Ð²ÑĢÐµÐ¼ ÐµÐ½Ð½Ð¾ÑģÑĤÐ¸
Ġinteg ration
ĠÐ´Ð¸ÑĢ Ð¸Ð¶ÐµÑĢ
Ġdisag ree
ĠAmpl ifying
ĠÐ¶Ð¸Ð» ÑĭÐµ
Res earch
ĠMarsh all
ĠÐ±ÐµÐ·Ð¾Ð¿ Ð°ÑģÐ½Ð¾ÑģÑĤÐ¸
ĠNas daq
Ġalcoh ol
Ġgeop olitical
ĠCONC ORD
ĠCher elle
ĠAub urn
ĠPUN CH
ÑĢÐ¸Ð½ÑĪ Ð¾ÑĤÑĭ
Akh doud
? âĢĻ
B EL
B inks
E K
F ER
M on
X APK
c ate
e idi
f rom
k ers
t eam
w ebs
w ani
å Ĵ
Ġ err
in ent
in og
Ġt err
Ġt ennis
Ð¾ Ñİ
ĠS eb
ĠS idd
it i
ÑĢ Ð¸ÐºÐµ
Ġs ter
ĠC ORP
ĠC trl
ĠT ill
ĠT IM
ĠT aste
ĠT ables
ĠP orts
ĠP iece
Ġc up
Ġw rest
as ions
ĠN aj
ĠN ico
Ð» Ð°Ð½
ĠB ove
ĠF ad
ĠF atal
ĠR ip
ĠR unning
Ġm ere
ĠD ial
ĠL iqu
ac iÃ³n
ĠG aur
ur i
ur ved
ot ion
ro ck
ĠJ O
ÐµÐ½ Ð·
ÐµÐ½ ÑĨÐ¸Ð¸
Ġre form
ĠÐ¿ Ð¾ÑģÑĤÐ°Ð²
Ġr en
ag ger
ce ptions
ĠÐ² ÐµÑģ
ĠK ell
ain e
st et
ĠÐ½ ÐµÐ¼
ĠÐ½ Ð¸Ð³
ct uary
ok es
Ġcom eback
Ġv itamin
lic it
Ð¹ ÑĨ
Ð°Ð² ÑĪÐµÐ³Ð¾
ĠSc ary
ĠÑĢ ÑıÐ´
Ġtr ies
ĠSh ore
ĠÐļ Ð°ÑģÐ¿
ĠÐ· Ð°ÑĤ
ĠAr un
ĠPl ants
Ġres olve
ĠInd igenous
Ð¶ ÐµÑĤ
und ers
ĠÐ¼ ÐµÑĤ
ĠÐ³ Ð¸Ð¿
form ance
Ġcan nabis
Ġ8 50
Ġcl ient
ort ium
Ġout let
ĠÐĽ Ð¸Ð³Ð¸
Ġun known
ĠÐĲ Ð±
ĠEm bed
iss ipp
Ġafter math
ĠMin or
ĠBr ann
ĠMore over
Ðļ Ð¡
ĠQu eb
ĠSe p
ues e
Ġpre fer
ĠZ S
ĠX APK
ĠÐŁÑĢ Ð¸ÑģÐ¾ÐµÐ´Ð¸Ð½ÑıÐ¹
ĠÐºÐ¾ÑĤÐ¾ÑĢ Ð°Ñı
ÑıÑĤ ÐµÐ»ÑĮ
Ġevery day
CA I
ĠÐ²Ð¾Ð¹ ÑģÐºÐ°
Ġdet ain
ĠOb eidi
ĠAP K
ĠAP KS
Ġdirect ive
ross e
Ġdon ations
ĠAng ola
Ġstory telling
ĠInf os
ĠÐ¨ ÑĤ
AP KS
ĠMembership s
erst one
Ð¸ÑģÐº Ð°
writ er
ÑĥÐ¼ ÑĭÐ½
àª Ĥ
ĠFind s
Ġsim onova
ĠON GC
ĠRem ark
Ġhand ling
Ġdep ending
Ġdisc overy
Ð»Ð°Ð´ ÐºÐ¸
Ġgen ocide
ĠKn ights
ĠÑģÐ¾Ð¾Ð±Ñī Ð¸Ð»Ð¸
Ġopp osed
Ġcelebr ated
Ð¼ÐµÑĢ Ñģ
ĠNY C
ĠÑģÐ²Ð¾ ÐµÐ¹
ĠOld er
ĠÐ¿ÑĢÐ¸Ð½ ÑıÐ»Ð¸
ĠSever ance
Ġ49 5
Ġz hanna
Ġburn ed
ĠAsh ley
DE I
ĠTHIS DAY
ĠAny one
ĠProt est
Ð¸Ð¼Ð½ Ð°ÑģÑĤÐ¸ÐºÐ°
ĠÐŁÐµÑĤ ÐµÑĢÐ±ÑĥÑĢÐ³
Ð»Ðµ ÐµÐ²
ĠÐ¾ÑĤÐºÑĢÑĭ ÑĤ
ĠÐ¼ÐµÑģÑĤ Ð¾
ĠJenn y
Ġpull s
ĠBlues ky
Ġpict ures
ĠOrgan ization
ĠJul ie
Ġovers ee
ĠÑĤÐµÐ¼ Ñĭ
ĠCommun ication
ĠMotors port
ĠÐĴÐ°ÑĪÐ¸Ð½Ð³ÑĤ Ð¾Ð½Ð¾Ð¼
Ġcitizens hip
anth a
ĠStan ford
ĠConfirm s
Ġclin ical
Ġkid n
ĠExclus ively
WM N
ĠÐ·Ð°Ñģ ÐµÐºÑĢÐµÑĤ
ĠÐ½Ð¸Ð· ÐºÐ°Ñı
osm ith
ĠÑģÑĨÐµÐ½ Ñĥ
ĠLevel s
ĠEri k
ĠQuant um
Ġobvious ly
ĠÐ¢ÐĲ Ð¡Ð¡
ĠViv ian
ĠRespons e
Ð½ÐµÑĢÐ³ ÐµÑĤ
ĠÐĽÐµ Ð¾Ð½
ĠÐĿÐ°ÑĢ Ð¾Ð´Ð½ÑĭÐ¹
fortun ately
ĠÐľÐ°Ð¼ Ð»ÐµÐµÐ²
ĠAer osmith
Ġasp ects
ĠÐĺÐ» ÑĮÑı
Per formance
ĠEthi opia
ĠÐĹÐ°ÑĢ ÐµÐ³Ð¸ÑģÑĤÑĢ
ĠÐ¡Ð»Ð¾Ð² Ð°Ðº
ĠMOBI LE
ĠRou ge
Ġrook ie
Ġequival ent
ĠÐĲÑĢÑĤÐ¸ÑģÑĤ Ñĭ
gor ith
ĠÐĵÐ°Ð½Ð´ Ð±Ð¾Ð»
ĠÐĺÐ»ÑĮÐ´ ÑĥÑģ
ĠÐ½Ð¸Ð³ Ð´Ðµ
issipp i
= âĢĿ
B usiness
B ased
B LE
D r
D is
E ditions
E BR
M IN
O ps
T ake
a ul
c ookie
f und
k lcc
n ed
n ick
o i
w atch
¯ į
ĠS ad
ĠS old
ĠS TA
ar wal
Ġs yn
ĠC ul
ĠT uts
ĠP harma
Ġc our
Ġc orn
Ġw estern
Ġf u
Ġf iring
ĠM ack
ĠM US
ĠM unch
Ð» Ð¾Ð¿
ĠB arr
Ġb ust
ĠF ear
ĠF ast
ent le
il ation
ĠI Q
ĠW MA
ĠD ivid
Ġd ynamic
ĠE ch
am an
ĠH ors
ĠH obbies
id os
ad io
ĠNews ource
ĠU b
th is
Ġre op
Ġr id
Ġr ot
ĠK as
ĠV R
ÐµÑĢ Ñĥ
Ġy es
st anders
st itutional
Ñħ Ð¾Ð´Ð°
ĠÐº Ð¾
ap les
har a
ĠÐ¾ ÐºÐµ
ÐµÐ» ÐµÐ¹
ust in
Ġv ÉĻ
ĠY am
io id
ĠÐ´ ÐµÑģ
ĠÐ´ Ð½ÐµÐ²
ant astic
Ð°ÑĤÑĮ ÑıÐ½Ð°
ash a
ĠSh ooting
ĠÑĤ Ð°
ĠÑĤ Ð¾Ð¿
ĠÑĤ ÐµÐºÑĥÑī
Ġk lcc
ie ves
ĠÐĿ Ð°ÑĤ
ĠÐĿ Ð¸ÑĩÐµÐ³Ð¾
ob a
ob e
ĠEx cel
Ġch o
enc ers
ĠÑĩ ÑĤ
ĠÐĹ Ð°ÑĩÐµÐ¼
ĠÐĲ Ð³
aff led
Ġ/ /
ĠBr ave
ĠÐ° Ð³ÑĢ
ĠQu ality
ĠÐ£ ÑģÑĤÐ°Ð½Ð¾Ð²ÐºÐ°
CC I
arn old
ĠÑĦ Ð¸Ð½
ĠZ ach
Ġsub ur
ĠAg arwal
ĠÐŁÑĢ Ð¾ÑģÐ¼Ð¾ÑĤ
Ġimp ossible
Ġcons ervation
Ġcons olidation
Ġtrans it
ĠEng age
Ð½Ð¾Ð»Ð¾Ð³ Ð¸Ð¸
Ġgr ad
ĠCap ex
Ġins pect
ÐºÑĥ Ñģ
ĠSup porter
ĠÐµ Ñĳ
Ġinf ection
ĠCor us
ĠMay be
ĠMc I
Ġaff ects
ĠArch ae
ĠÑĢÐ°Ð· Ð¼ÐµÑī
Ġ50 2
ĠÐ±Ñĭ Ð²
ĠStr ange
Ġoper ated
ĠCook ing
ĠMeet ings
ĠÐ´Ð°Ð½ Ð½ÑĭÐ¼
ĠCelebr ate
ĠÐłÐ°Ñģ ÑģÐ¸Ð¸
ĠSil ence
ĠIcon ic
OW N
sw ick
ĠÑĦÐµÐ² ÑĢÐ°Ð»ÑĮ
Ġhand ed
Ġcontribut ion
acc ines
Ġquarter ly
Ð§ ÐµÑĢÐ½Ð¾Ðµ
ĠÑĥÐ´ Ð¾ÑģÑĤÐ¾
ĠAy urved
ĠÑĢÐ¾ÑģÑģÐ¸Ð¹ ÑģÐºÐ¸Ðµ
BT C
ĠÐ® ÑĢÐ¸Ð¹
ĠÐŁÑĢÐ°Ð² Ð´Ð°
se qu
Ġproduct ivity
Ġbar riers
Ġparticip ants
ĠPu erto
ĠProv idence
Ġadmin ister
ĠÐĲÐ·ÐµÑĢÐ±Ð°Ð¹Ð´Ð¶ Ð°Ð½Ð°
Ġmot ion
ĠÐ²ÐµÐ´ Ð¾Ð¼
Ġ> >
Ġsustain ability
ĠMail bag
ĠWal ter
Ġcamp us
ĠÑģÐµÐ± Ðµ
Ġextra ordin
Is rael
ĠDam age
ĠLag una
Ġassess ment
Ġsqu ad
Ġbull ish
Ġ53 00
ĠDeliver ed
ĠDrug s
ĠÐ¿ÑĢÐ¾Ð¹ Ð´ÐµÑĤ
ĠÐ¿ÑĢÐ¾Ð¹ Ð´ÑĥÑĤ
Ġchem ical
ĠÐ¸ÑģÐº Ð»ÑİÑĩ
ĠAlum ni
ĠÐ¿ÑĢÐ¸Ð½Ð°Ð´Ð»ÐµÐ¶ Ð°ÑĤÑĮ
CN N
ĠÐļÐ¸ÑĢ ÐºÐ¾ÑĢÐ¾Ð²
Ġemer ged
Ġadministr ative
ĠÐ°Ð²ÑĤÐ¾Ð¼ Ð¾Ð±Ð¸Ð»
ĠBring ing
Ġfat ally
ĠIntro duction
ĠDiamond backs
ĠMyster y
ÑıÐ± ÑĢÑı
ĠInstall er
Ġattr active
ĠChronic les
ĠKend rick
ĠMau i
ĠHen ry
ĠVu cci
ĠÐ¿ÑĢÐ¾Ð¸Ð·Ð² Ð¾Ð´
ĠPortug uese
ĠAltern ative
Ġju ice
ĠÐ¡Ð°ÑĢ Ð°ÑĤÐ¾Ð²
ĠÐ½Ð¾Ð¶ Ð¾Ð¼
insh asa
ĠÐĳÑĭÐ² ÑĪÐ¸Ð¹
ÐļÐ¾Ð¼ÑģÐ¾Ð¼ Ð¾Ð»
Ġ974 01
ĠÐŁÑĢÐ¾ÑģÑĤ ÑĭÐµ
ĠÐļÑĢÐµÑģÑĤ Ð¸ÑĤÐµÑģÑĮ
ĠCEL EBR
ĠÑģÐ¾Ð´ ÐµÑĢÐ¶
ĠÐļÐ°ÑģÐ¿ Ð¸Ð¹
ĠQueb ec
ĠWMA Q
ĠÐļÐ¸ÑĢÐºÐ¾ÑĢÐ¾Ð² Ð°
1 10
Q U
b harat
g ars
k it
y r
à ¬
ī Ī
ŀ ¥
Ġt rees
Ðµ Ð°Ð»
or p
or er
ĠS B
ĠS weet
Ñģ ÑĥÐ»Ñı
ÑĢ Ð¾Ð¹
ĠC itizens
ĠT a
ĠT ob
ĠA ung
Ġthe at
ĠP ulse
Ġc amps
Ġc arries
Ġw et
ĠM ama
ĠB ak
Ġb ars
ĠR G
ĠR ica
ĠW ide
ĠD arnold
ĠL one
ĠL akshmi
Ñı ÐµÐ²
ĠH uge
ĠG T
ĠG ear
ot ional
ĠO S
Ġ202 7
ro ots
ĠJ D
ĠJ ensen
Ġ1 30
Ġg ut
ĠÐ¿ Ð¸ÑģÑĮ
ĠSt retch
ĠÑģ Ð¸Ð»ÑĮ
ĠÑģ ÑĩÐ¸ÑĤ
ĠIn ox
Ð¼ Ð»Ð°Ð´
Ġst ab
Ġst ick
ĠK il
ĠK oz
ÐµÑĢ ÐµÐ¼Ð¾Ð½
ve ys
em i
ĠRe habilitation
Ð¸ÑĤ ÐµÑĤ
ĠÐŁ Ð¾Ð¿
ĠÐŁ ÑıÑĤ
ĠTr ue
ll a
art ic
ĠJan nik
ĠÐ´ Ðµ
pp ard
ĠÑĢ Ð°Ð½
Ġtr av
Ġtr ouble
Ð¸Ð» ÐµÑĤ
pl ays
ĠÐŀ ÑĢ
Ġcon c
ĠÐ· Ð¾Ð½Ðµ
ĠAr jun
ĠCl a
ĠCl ips
ĠHe zbollah
ĠÐĿ Ñĥ
ĠÐĿ ÐµÐ¹Ð¼
Ġ4 30
Ġad mission
Ġus ual
ian g
ĠSub missions
Ġsp in
ĠÐĶ Ð¾Ð¼
Ġch ances
PR IS
Ġ6 2
lect ual
Ġun iversities
Ð»Ñı ÑİÑĤÑģÑı
ĠÐĹ Ð²ÐµÐ·Ð´
ĠEm irates
Ð¸Ð¼ Ð¾ÑģÑĤÐ¸
ĠÐĳ Ð°Ð¹
ound ed
ĠÐ¾ÑĤ Ð´
ĠBr itt
ĠIs thm
ĠÐ¾Ð± ÑĭÑĩ
ĠBe er
ER Y
ĠZ oo
aj i
Ġhigh s
Ð°Ð»Ð¸ Ð½Ñĭ
ĠAm bed
ĠÑģÐ¾ ÑĨÐ¸Ð°Ð»ÑĮ
ĠÐºÐ¾ÑĤÐ¾ÑĢ Ð¾Ð³Ð¾
ĠView er
Ġbr idge
Ġcons piracy
ĠDr ake
CA ST
itt ed
ĠÐ¡ÑĤ ÑĢÐ°Ð½Ð°
Ġsur prised
Ġexpl oded
Ġche aper
ĠÑģÐ¿ Ð°Ñģ
ĠÐŃ ÑĤ
Ġ16 6
ĠExpl ainers
load ed
Ġcar pet
idd y
ID A
ĠWN BC
ĠRank ed
Ð´ÑĢ Ð°Ð²
Ġ199 1
Ġcomment ary
ĠFound ations
Ã© e
Ġdist ricts
ĠSC OTT
ĠCN Y
Ġsignific ance
Ġfight ers
Ġtyp o
ĠCre ates
UL AR
ĠMur ph
Ġgl ad
Ġexplos ive
ÑĥÑħ Ð¾Ð²
Ġcreat ivity
Ġrep air
Ġblock chain
ĠFore ver
ĠEqu ality
ĠÐľÐ¸Ð½ Ð¾Ð±Ð¾ÑĢÐ¾Ð½Ñĭ
Ġcou ples
ĠLa ud
ĠÐŀÐ´ ÐµÑģÑģ
Ġthr ive
Ġattempt ing
ĠÐ¾Ñĩ ÐµÑĢÐµÐ´
Ġsepar ation
ĠÑģÐ¾Ð± ÑģÑĤÐ²ÐµÐ½
ĠBeat les
ĠLyn x
Ġaccur ate
ĠÐĲÑĦ ÑĢÐ¸ÐºÐµ
Ġrob ust
ĠFrequ encies
ĠTok en
ĠÐĳÐµÐ· ÑĢÑĥÐºÐ¾Ð²
Ġproper ly
ĠHu gh
ĠÎ Ķ
Ġpassion ate
ĠBer lin
Ġsuppl ies
ĠÐ¢ÐµÑħ Ð½Ð¾Ð»Ð¾Ð³Ð¸Ð¸
Ġimag ine
ĠENTER PRIS
Ġreject ed
ĠChap ter
Ġdemocr acy
Ð·Ð½ Ð°ÐºÐ¾Ð¼
ĠCollect ions
ĠMaz ur
ĠÐºÐ°ÑĢ ÑĤÐ¾ÑĦ
ĠÐ½ÐµÐ² Ð¾Ð·
ĠÐĴÐ¾ÑģÑģÑĤÐ°Ð½Ð¾Ð² Ð¸ÑĤÑĮ
ĠSalv ador
ĠÐ²Ð¾ÑģÑģÑĤÐ°Ð½Ð¾Ð² Ð»ÐµÐ½Ð¸Ñı
ĠÐļÐ¾Ð¼Ð¿ Ð¾Ð·Ð¸ÑĤÐ¾ÑĢ
ĠProsecut ors
ĠNol an
ĠStamped ers
ĠÐ¼Ð°Ñģ ÑĪÑĤÐ°Ð±
ĠÐ¿ÐµÐ² Ð¸ÑĨÐ°
Ð°ÐºÐ°Ð½ ÑģÐ¸Ð¸
ĠMidd leton
ĠKardash ian
ĠPOW ER
ĠÐ¼Ð¸Ð½Ð¸Ð¼ ÑĥÐ¼
Ġrand om
ĠÐ£ÑĢ ÑģÑĥÐ»Ñı
ÐŁÐ¾Ð» Ð½Ð°Ñı
ĠÐ£ÑĩÑĢÐµÐ´ Ð¸ÑĤÐµÐ»ÑĮ
ĠPriy anka
ĠBrann strom
ĠAmbed kar
ĠÐ£ÑĢÑģÑĥÐ»Ñı Ðº
U W
b n
f it
g ie
g ov
j ee
k eep
p ack
s erv
u y
× ¤
Ù Ħ
à ¯į
Ġ ñ»łĹ
in ated
ĠS ara
ar b
ĠT ue
ic ians
ĠA CT
ĠP all
ĠP APER
Ġc oin
Ġw ider
Ġf ulf
ĠN PG
ĠM as
Ġp ub
Ġp ose
om ach
ĠB isexual
ĠF B
ĠR ust
ĠR amp
ĠR ough
ĠR iot
Ġm ob
ĠD rew
Ġd up
ĠG er
Ġn one
ÑģÑĤ Ð°ÑĤÑĮÐ¸
ĠJ P
Ġre venues
Ġe ager
Ġ1 20
Ġg ay
ver ts
ut ton
oc he
oc ent
ĠK illed
ĠK iev
Ġis ol
um met
if ax
ĠÐ½ Ð°Ð¹ÑĤÐ¸
em ann
ĠRe actions
Ġex ternal
ĠÐ¡ ÐµÑĢÐ¸Ð°Ð»Ñĭ
Ð³ ÑĥÐ¼ÐµÐ½ÑĤÑĭ
ĠÐŀ Ñĩ
ĠUs ers
Ġcr uise
Ġde leg
ĠCr ude
Ġsh ifting
ĠÐ¼ Ð¾Ð´Ð°Ñħ
ount ed
ĠPh D
iz ens
ĠÐ± ÑĢÐ¾Ð½
Ð¾Ðº ÐºÐ¾
ib les
ĠAl ouettes
Ġout lined
Ġun leashing
Ġun usual
ĠÐ¸Ð½ ÑĦ
Ð°Ð»ÑĮ Ð½ÑĥÑİ
Ġme als
ĠÐ£ ÑĤ
Ġpre vail
ÑģÑĤÐ² Ð¸Ðµ
Ð¡ ÐĿ
Ð¡ ÐºÐ°ÑĩÐ°ÑĤÑĮ
ĠRec ruitment
Ġfl at
Ġâ īĪ
ĠÐ¿Ð¾Ð´ ÑĤÐ²ÐµÑĢÐ´
à´¿ .âĢĭ
ÐµÐ½Ð´ Ð°ÑĢÑĮ
Ġback ing
Ġtrans actions
Ġteam mates
Ġhelp ful
In s
ĠSo on
ĠOb stet
ÐµÑģÑĤÐ² ÐµÐ½
ĠEl ks
Ġà¤ Ĩ
back ed
ĠTax payers
ĠÐ¿ÐµÑĢ ÑģÐ¾Ð½
Ġexp osed
Ġexp oses
Ġ17 0
Ġprom ised
ĠCons ortium
ĠÑģÐ°Ð¼ ÑĭÑħ
Ġpar ks
ÐµÐ± ÐµÐ½
ĠÐ¸ÑģÐ¿Ð¾Ð»ÑĮÐ· Ð¾Ð²Ð°ÑĤÑĮ
ĠId ol
Ġrest ore
ĠAnnoun ced
ĠÑĤÐµÑĢ ÑıÑİÑĤ
Ġent ities
alt ies
Ġtri ple
Ġaddress es
ĠMiss issippi
ĠÑĤÐµÑĢÑĢÐ¸ÑĤ Ð¾ÑĢ
ĠRem ote
Ġeng aging
Ġconst antly
ĠBill ie
Ð´ÐµÐ» ÑıÑİÑĤ
ĠCurrent ly
Ġcelebr ity
ĠInj ured
ĠWord Press
Ġbuy ers
ĠHot els
62 25
62 24
ĠÐ¾Ð±ÑĬ ÑıÑģÐ½
ĠÐ²Ð¾Ð» ÐµÐ¹Ð±Ð¾Ð»
Ġlow est
ĠCompl aints
ĠÑģÑĤÑĢÐ°Ð½ Ñĥ
ÐµÑĢÑģ Ð¾Ð½
ĠÐ·Ð°Ðº ÑĢÑĭ
ĠÐ·Ð°Ðº Ð»Ð°Ð´ÐºÐ¸
Ġcou p
ĠSmart phone
ĠSmart phones
Ġvis ibility
Ġexperi encing
ĠÐ½Ð°Ñĩ Ð½
ĠÐĺÐ½ Ð´
ĠÑĥÐºÑĢÐ°Ð¸Ð½ ÑģÐºÐ¾Ð³Ð¾
ÐŁÐĽ ÐĲ
ÑĢÐµ Ñī
ĠClin ic
ĠUP D
Ġjud gment
ÑĦÐ¸ÑĨ Ð¸ÑĤ
Ð³Ð¾ÑĢ Ð¾Ð´
ĠHal ifax
Ġvot er
ĠÐ½Ð°Ð³ÑĢÐ°Ð´ Ñĥ
ĠRh odes
ĠJenn er
Ġattempt ed
ĠEff orts
ĠSqu ire
ĠÐ·Ð°Ð± ÑĢÐ°Ð»
ĠÑģÐ¼ Ð¾Ð³
ĠÐ¡Ðº ÑĢÐ¸Ð½ÑĪÐ¾ÑĤÑĭ
Ġdram atic
Ð°ÑİÑī Ð°Ñı
ĠJay anti
ĠREGISTER ED
ĠÐĵÐµÑĢÐ¼ Ð°Ð½Ð°
à® ®
à® ´
à® ¿
Ġdomin ant
ĠÐºÐ¸Ð½ ÐµÐ¼Ð°ÑĤ
ĠLiber al
ĠÐŁÐ¾Ð±ÐµÐ´ Ð¸ÑĤÐµÐ»ÐµÐ¹
ĠÐ³Ð¾ÑģÑĥÐ´Ð°ÑĢ ÑģÑĤÐ²Ð°
ĠSams ung
ĠÐ¼Ð°ÑģÑģ Ð¾Ð²ÑĭÑħ
ĠGR ID
ĠÐ°Ð²Ð¸Ð°ÐºÐ°ÑĤÐ°ÑģÑĤÑĢÐ¾ÑĦ Ðµ
ĠÑĤÑĭÑģÑı ÑĩÐ¸
char ge
Ġtrib al
ĠÐ´Ð¾ÑģÑĤ ÑĥÐ¿
ĠÐ¢ÑĢÐµÐ± Ð¾Ð²Ð°Ð½Ð¸Ñı
Ġbound aries
Ġfavour ite
ĠNEXT GEN
ĠJam ie
ĠÑģÐ¿ÐµÑĨ Ð¿ÑĢÐ¸Ð·
ĠAUT O
ĠLes bian
ĠHay es
ĠCert ificate
Ġcongest ion
onst ruction
ĠHung ary
ĠÐ¿Ð¾Ð´ÑĩÐµÑĢÐºÐ½ÑĥÐ» Ð°
ĠÑģÐ¾ÑģÑĤÐ¾ÑıÐ½ Ð¸Ñİ
ĠFavor ite
ĠLac rosse
ĠÐ±Ð°ÑĢ Ð¾ÐºÐºÐ¾
Ġpiv otal
ĠOx ford
Ð¾Ð½ÑĥÑģ Ñĭ
ĠÐ¾Ð¿ÑĢÐµÐ´ ÐµÐ»
ĠÑħÐ¾Ñĩ ÐµÑĤ
ĠMerced es
ĠSoph ie
ĠTRAD EM
Ð¾ÑģÑĦ Ð¸Ð»ÑĮÐ¼
USTR ATED
ĠÐłÑĭÐ± Ð½Ð¸ÐºÐ¾Ð²
ĠÐłÐ°Ð·ÑĢÐ°Ð±Ð¾ÑĤ ÑĩÐ¸Ðº
Ġhers elf
Ġà®¤ à®®
ĠHait i
eli hood
ĠÐŁÑĢÐ¾ÑģÐ¼Ð¾ÑĤ ÑĢÐ¾Ð²
Ð¼Ð»Ð°Ð´ ÑĪÐµÐ³Ð¾
ĠIsthm us
ĠENTERPRIS ES
ĠÐºÐ°ÑĢÑĤÐ¾ÑĦ ÐµÐ»Ñı
ĠÐºÐ¸Ð½ÐµÐ¼Ð°ÑĤ Ð¾Ð³ÑĢÐ°ÑĦ
) [
B LA
B rien
D s
I ANCE
U X
V iew
b est
e lect
g l
g n
l ov
p ose
s ource
å Ī
Ġt errorism
at itude
ĠS i
ĠS ources
ĠS ketch
ÑĢ Ð¾Ð¼
ÑĢ Ð¸Ð²
ĠC TV
ĠC itizen
ĠC esar
ĠA ce
Ġthe ft
re a
Ġc e
ĠM AIL
Ġp ending
ĠB OT
Ġin duct
ĠF er
ĠW elling
ĠD W
ĠD ock
ĠD iabetes
ĠD TN
ĠD IVIS
ew ood
et nam
ĠL or
Ġd inner
ĠE A
ĠE S
ĠE sc
ĠE RA
ĠE pic
ĠH oll
ĠH CL
iv is
ĠG hib
ur am
ir ings
Ġl ad
ĠU L
Ð¾Ð² Ð°Ð»Ð°
Ġre verse
ĠÐ² ÐµÑĢÐ½
ĠÐ² Ð¸Ð¾Ð»
ĠV id
st arter
Ġ( âĢľ
ÐµÐ» Ð¸ÑģÑĤ
Ð°ÑĢ Ð¸
Ð°ÑĢ ÐµÐ½ÐºÐ¾
Ð°Ð² ÑĪÐ¸Ñħ
ĠÐ¡ Ð°Ð½
Ð¾ÑģÑĤ ÑĥÐ´Ð¸Ð¸
pl ing
ket s
ÐµÐ¼ ÑģÑı
ĠÐ½Ð° ÑĨÐ¸Ð¹
ĠÑĤ Ð¾ÑĤ
ĠÑĥ Ð·
ĠÑĥ Ð½Ð¸Ðº
ĠPl aza
ĠHe aven
Ð¶ Ð°Ð½
ĠCr itical
ĠÐĵ ÑĥÐ±ÐµÑĢÐ½
ĠÐĿ Ðķ
Ġj ur
ĠSp read
ĠÐ¼ Ð¾Ð»Ð¾Ð´
ov an
ĠLive Bl
Ġup per
Ð¾Ñĩ Ð¸
ĠUn s
Ġ8 6
Ġ6 70
ĠTo y
Ġshare holders
ÐµÐ½ÑĤ Ð°ÑĢÐ¸Ð¸
Ġcomp arison
ĠÐĺ Ð³
ĠÐĹ Ð°Ð²
ĠÐĹ Ð°Ð´
ick ed
ĠÐ¢ Ð°Ð½ÑĮ
Ġar ts
Ġen viron
ĠÐ²Ñĭ Ð²
ĠÐ²Ñĭ ÑħÐ¾Ð´
ĠÐ¾Ð± Ð´ÐµÐ»ÑıÑİÑĤ
Ġsu cc
Ð¸Ð´ Ð·Ðµ
tic a
rit t
Ġà´ Ĺ
ĠIm m
Ġany where
Ð¡ Ð¼Ð¾ÑĤ
umb lr
Ġfl ed
Ġbl amed
Ġinc ul
ĠZ oom
ĠÐ¿Ð¾Ð´ ÑĢÐ¾Ð±Ð½Ð¾ÑģÑĤÐ¸
ĠFin land
ĠÐ§ Ð¶Ð°Ð½
IC HER
Ġret ire
ecut ion
Ðľ Ð¾ÑģÑĦÐ¸Ð»ÑĮÐ¼
alk ing
Ġco ffee
ĠPar ent
Ġ: :
ath a
Ġinst alled
Ġstart ups
ĠÐļÐ¾Ð¼ ÐµÐ½ÑĤÐ°ÑĢÐ¸Ð¸
ĠSur rogate
Ġbu zz
Ġcap tion
Ġ18 5
Ġdevelop er
Ġstud ying
Ġdon ate
ÑĥÑģ Ð¾Ð½
Ð¿Ð» ÐµÐºÑģ
Ñĳ Ð¼
ĠPat ient
Ġshar p
ĠStart up
ĠCO AL
Ġwrit ers
Ġexpect ing
ĠArch itecture
ĠDem ands
ĠÑĢÐ°Ð±Ð¾ÑĤ Ñĥ
ĠAb ove
Ġpos es
ĠAut os
OT ECH
Ð£ Ð±
Ġent repreneurs
Ġrespond ing
Ġpop ulated
ĠÐ²ÑĭÐ± ÑĢÐ°Ð»
ĠComment ing
ĠComment aries
Ġvisit ing
ĠSl ow
Ġhuman ity
Ġreview ing
akh and
OS P
ĠBh atia
ograp her
ĠÐĲÑĢ Ð³ÑĥÐ¼ÐµÐ½ÑĤÑĭ
Ġmet rics
Ġsw eeping
Ġview ers
Ġdeal ing
ĠDig it
ĠÐĵÐ¾Ð´ Ð¸Ð½Ð°
ĠÐ¿Ð¾ÑĢ ÑıÐ´
Ġarr ives
ĠOper ating
ĠÐ® Ð¹ÑĨ
ĠÐľÐ¸Ð½ ÑħÑĥÐ½
Ġcivil ian
ĠPe ach
PC L
ĠÐ¿Ð» Ð¾ÑīÐ°Ð´
Ġcollect ed
ĠStorm s
men u
ĠTem ple
fol ios
ĠVis a
ĠBuild ings
ĠÐ¡Ð¾ Ð¾Ð±Ñī
ĠÐŁÑĥÑĤ ÐµÐ²
Ġtw ist
ĠÐĲÐ²ÑĤÐ¾ÑĢ Ñĭ
Ð¾Ð½Ñĩ ÐµÐ»Ð¸ÑģÑĤ
Ġrap per
ĠÐ¾Ð¿ÐµÑĢ Ð½Ð°Ñı
ĠÑĥÐ± Ð¸Ð¹
Ġadvoc ate
ĠReb ecca
Ġten ants
Ġcorpor ations
IAL PHA
ĠSpr eng
Ġsuspect ed
ĠPos itively
Ġmand ate
ĠÐºÐ¸Ð½ Ð¾ÑģÑĤÑĥÐ´Ð¸Ð¸
Ġtack les
ĠRap per
Ġfoster ing
Ġpollut ing
ĠLig ue
ÐµÑĦ Ð¾Ð½
ĠÐ²ÑĭÑģÐ¾Ðº Ð°Ñı
Ġvac ation
Ġapplic ants
ĠAndre as
ĠBrun swick
ĠÐ±Ð¾ÐµÐ² ÑĭÑħ
ĠÐĲÐºÑĤ ÐµÑĢÐ¾Ð²
Ġlegit imate
Ġhar ass
ĠÐŀÐ´Ð½ Ð°ÐºÐ¾
ĠFIR ST
ĠSustain able
ĠÐļÐ¾Ð» ÑĥÐ¼
Ġcompens ation
Ġpaint ed
Ġaggress ive
ĠÐ¿ÑĢÐ¾ÑģÑĤ Ð¾Ð¹
Ġgall ery
ĠImport ant
Ġstead y
ĠExplos ion
Ġcaut ion
ĠWis dom
ĠÑģÐµÐºÑĢÐµÑĤ Ñĭ
ĠMam ta
ĠÐ¡Ñİ Ð¹
ĠNash ville
ĠKyl ie
ĠStev ie
ĠSchm idt
ĠÐ¡Ñĭ ÑĨÐ¸Ð½
ĠGynec ology
ĠÑĢÐ°Ð¼ ÐºÐ°Ñħ
ĠÐ¢Ð° ÑĥÑģÐ¾Ð½
former ly
Ġkitc hen
ĠInfos ys
ĠDivid ends
ĠÑĥÐ´Ð¾ÑģÑĤÐ¾ Ð¸Ð»ÑģÑı
ĠCELEBR ITY
ĠTRADEM ARK
ĠWelling ton
ĠDTN EXT
ĠGhib li
ĠÐ²Ð¸Ð¾Ð» Ð¾Ð½ÑĩÐµÐ»Ð¸ÑģÑĤ
ĠLiveBl ogs
Ð¡Ð¼Ð¾ÑĤ ÑĢÐ¸
ĠÐ®Ð¹ÑĨ Ð·Ðµ
! "
M M
P W
P INK
T O
W earing
b enefits
e u
l oe
n one
o ley
t ure
t aking
Ġ zero
Ġt end
ĠS ounds
ar ee
Ð½ ÑĥÑģ
ĠC ourse
ĠT ro
ĠT ag
ĠT ether
ĠA A
ĠA id
ĠP L
ĠP il
Ġw agons
Ġp enalty
ĠB illy
ĠI IT
Ðº Ð¸Ðµ
Ðº Ð¸Ð¼Ð¸
ĠW BA
Ġm el
et o
et ter
Ġh unt
ĠE P
ĠH ob
os ite
ter day
Ġl as
Ġ202 8
Ġe pic
ĠÐ¿ Ð¸Ð»Ð¾ÑĤ
ver ages
ut a
ĠÐ² Ð²
Ġst ored
ĠK I
ĠV ill
ÐµÑĢ Ð·
Ð°Ð½ ÐµÑĨ
ist ical
st ers
ĠÐ¾ ÑĢÑĥÐ¶
ail able
ĠCh an
ĠÐ¿ÑĢ ÐµÑģÑģ
ĠÐ´ ÑĢ
Ġpro cl
ĠÐ¡ ÐµÐ²ÐµÑĢ
ĠÐĴ Ð¾ÑĢ
ĠÐĴ Ð°ÐºÐ°Ð½ÑģÐ¸Ð¸
ind a
pl ant
ĠÐŀ Ð¼
ĠAd ult
ĠCr ystal
Ð°Ð· Ñĭ
Ð¸Ñģ Ð¾Ð²
ĠMar ginal
Ġun able
ĠÐ¢ Ð°ÑĤÑĮÑıÐ½Ð°
icy cle
oss ip
ĠÐ²Ñĭ ÑģÐºÐ°Ð·
àµį âĢį
Ð¸Ð´ ÐµÑĤ
ĠSe afood
Ġwork er
ĠÐ¿ÑĢÐµÐ´ Ð½Ð°Ð·
ĠWe ird
ĠÐĿÐ¾Ð² Ð¾Ðµ
Ġbl oc
Ġbl ast
Ġbl ues
AT UR
ĠÐŁÑĢ ÑĭÐ¶
iel der
ĠÐ¿Ð¾Ð´ Ð¾Ð±
ĠFin tech
ier ra
ÐµÐ½Ð´ ÐµÐ½ÑĨÐ¸Ð¸
ĠÐ§ ÐµÐ¼Ð¿
ĠIns pect
way ne
Ð¾Ð²Ð°Ð½ Ñĭ
ĠPar adise
ĠRep ro
ĠÐŁÐ¾Ð´ Ð¿
ĠÐŁÐ¾Ð´ ÑĢÐ¾Ð±Ð½ÐµÐµ
ĠML As
Ġgu ess
ĠÐºÐ°Ðº Ð¾Ð¹
Ġdel icious
ĠWill iam
ĠHer n
Ġexp enses
Ñĳ Ð²
Ġrequ ests
ĠÐ½Ð¾Ð² Ð¾Ð¹
ĠSpecial ty
iat rics
ĠSU Z
ĠSU BM
ĠAtt acks
ĠInt uit
ĠÐ¸Ð½ÑĦÐ¾ÑĢÐ¼Ð°ÑĨÐ¸Ð¾Ð½ Ð½ÑĭÑħ
ĠÐĲÐ» ÑĮ
ĠTim or
ĠSl ay
uff icient
Ġgen u
ĠImp ose
Ġsw apping
ĠInquir er
ĠPan ch
ĠBol ivia
ĠÐ¿Ð¾Ðº ÑĥÐ¿
ĠÐ¼Ð°ÑĤÑĩ Ð°
unn el
ĠÑĢÐ¾ÑģÑģÐ¸Ð¹ ÑģÐºÐ¸Ñħ
Ġexpress ion
ĠResearch ers
ĠÐ¿ÑĢÐ¾Ð´ ÑĥÐº
amm oth
Ġcamer as
ĠYes terday
Ġilleg ally
Ġcoordin ation
ĠObs erved
ĠEarn s
Ġball istic
Ð»ÐµÑĤ Ð¸ÐºÐ°
ĠQuiz zes
IF OR
ĠÑģÐµÑĢ ÑĮÐµÐ·
Ġwalk ed
ĠEr ror
ĠThan thi
UK I
Ġbur den
ĠÐ²ÐµÐ´ ÑĥÑī
ĠEll i
Ġprogress ive
Ġdeploy ment
que z
ĠÐĵÐ¾ÑĢ Ð¾ÑģÐºÐ¾Ð¿
Ġtrail er
ĠÐ½Ð¸Ðº ÑĤÐ¾
ĠFoot age
ĠHurric anes
ðŁ¤ ¬
ĠFrank lin
Ġpo ison
ĠÐĲÑĦ Ð°Ð½
Ġveter inarian
ĠDur ham
ĠUttar akhand
acer ita
ĠJal na
Ġnegoti ations
ĠRecogn ises
Ġobject ives
ĠImpro vement
ĠCL ICK
ĠMarc us
ĠOpp osition
ĠÐ¾ÑĤÐ²ÐµÑĤ Ð¸Ð»
Ġscri pts
ĠÐĳÐ¾Ð»ÑĮÑĪ ÑĥÐ½Ð¾Ð²
Ġshel ter
Can ada
ÑģÑĤÐ¾ ÑıÑī
Ġrecommend ation
ĠÐ¶Ð¸Ð²Ð¾ÑĤ Ð½Ð¾Ðµ
Cont act
WO OD
Ġâĸ º
ĠCro atia
Ġcolle agues
ĠIndivid ual
ÐµÐ°ÑĤ ÑĢ
ĠMeteor ological
ĠSOC IAL
ĠÐ°ÑĤ Ð»ÐµÑĤÐ¸ÐºÐ°
ĠCir c
ĠTER MS
ĠÐ²ÑĭÐ¹ Ð´ÐµÑĤ
ĠTuts i
ĠMunch ies
Ġenviron ments
Ġincul cate
ĠÐ¿ÑĢÐµÐ´Ð½Ð°Ð· Ð½Ð°Ñĩ
ĠÐŁÑĢÑĭÐ¶ ÐºÐ¸
ĠSUBM IT
? ðŁ¤¬
B F
G r
H O
U LE
U kraine
b ank
b urn
c ure
d ec
h ol
h ttps
p erson
r ist
® ðŁĴ
³ å
in fo
al ities
ĠC our
ĠC able
ĠC ease
ĠT aken
ĠT ITAN
ĠA aj
ĠA chie
re ct
Ġc urrency
Ġw ave
Ġw ood
Ġf ry
Ġf ights
ĠF it
ĠF ail
ĠR y
ĠR aw
ĠI GN
Ðº ÑĥÐ»ÑĮÑĤÑĥÑĢ
ĠD ignity
ĠD wayne
ew ater
ĠL il
ĠL ord
Ġd airy
ĠH ond
ĠH asty
ĠH iked
el es
ig s
Ñĭ ÐºÐ°
ers cha
ĠG ary
ĠG BP
ĠO g
ĠO t
ĠJ EE
Ġre ass
Ġre jects
Ġre affirm
ĠÐ² ÑħÐ¾Ð´
ĠÐ² Ð¾Ð´Ñĭ
Ð°Ð½ Ð°Ð¼
ear ance
ĠÐ½ Ð°Ð½
ĠÐ½ Ð°Ð²
ĠÐ½ Ð¸Ð¼Ð¸
ri p
Ð± Ð¸
ĠÐº Ð¾Ð¶
ĠTr ivia
Ġas ide
ip t
Ð¸Ðº Ñģ
Ġhe ir
Ġv en
Ġv oices
ĠCh o
ĠCh in
ĠÐ¿ÑĢ ÐµÐ¾Ð´
ĠÐ´ ÑĢÐ¾Ð½
ine z
qu est
ĠÐ¡ Ð¸ÑĢ
ĠÐľ Ð°Ðº
ĠÐł ÐĲ
Ġcon gress
ÐµÐº Ð°Ð½Ð°Ð»
ĠÐ½Ð° ÑĨÐ¸Ð¾Ð½
ĠAd itya
ra zz
ĠÑĥ Ð»Ð¸
ĠPl acerita
ĠHe ights
ence ment
Ġag ed
Ġad ult
ĠEx c
sc ious
ĠÐ³ Ð¸Ð±
ĠÐ³ Ð¾Ð½Ñĩ
ĠMar ry
Ġim migrant
ink ovic
ĠÐ¢ ÐµÑĢ
ang ana
Ġen ero
ĠHealth ier
round er
ĠÐºÐ¾Ð¼ Ð¼ÑĥÐ½Ð¸Ðº
ÐĿ Ðĺ
Ð°Ð³ ÐµÑģÑĤ
Ġsub sequ
Ð¸Ð² ÐµÑĢÑģ
ĠÐ·Ð°Ð¿ ÑĢÐµÑī
ĠÑģÐ¾ ÑĨÑģ
Ġmar gin
AR MA
Ġdec iding
OM A
ĠMe erscha
ĠÐ¿Ð¾ ÐµÐ·Ð´
Ġass embly
EN S
Ġret ired
UT ERS
ĠPar as
Ġsupport ers
ĠBas ant
Ġdet ected
Ġpost ing
ĠÐĶÐĿ Ðł
Ðķ Ðĵ
Ġà¤ °
Ġadv iser
ĠÐ¿ÐµÑĢ ÐµÐ½
Ġaccess ories
Ñĳ Ð¹
ĠFA B
Ġprogram mes
TA K
AL CO
ĠÐĺÐ· Ð²ÐµÑģÑĤ
Ġbre ach
ĠÑĢÐ°Ð±Ð¾ÑĤ Ðµ
ĠProm ise
sh ine
ĠMatch es
Ġdist ance
Ġpur ports
ĠProject ed
ĠÑĤÑĢ ÐµÑħ
ĠShar ing
ĠSa unders
Ġgener ative
ĠVi etnam
Ġfun ny
Ġinvestig ated
tr ans
ĠCON T
Ġesp aÃ±ol
ĠMil inkovic
ĠPan chang
angu ages
Ġenh ancing
Ġamid st
Ġtechn ological
Ġstri king
ĠÑĢÐ°ÑģÑģÐºÐ°Ð· Ð°Ð»Ð°
Ġimprove ments
Ġvol atility
ĠPH ARMA
ĠLivestream s
Ġcy cle
ĠÐ¿ÑĢÐµÐ´ÑģÑĤÐ°Ð² Ð¸Ð»
ĠHal wa
ĠPoll ution
ĠÑģÐ¾Ð² ÐµÑĤ
ĠEV ENTS
Ġinsp iration
Ġwor ry
udd le
ĠÐ»ÑİÐ± Ð¾Ð³Ð¾
ĠWa aree
ĠCou ples
ĠÐ¾ÑĪÐ¸Ð± ÐºÐµ
ĠRece ives
ĠTre asure
ĠTre vor
Ġfair ly
Ġuncertain ties
ĠScreen er
ðŁ¤ ®ðŁĴ
Ġcommission er
ĠAS IAN
Ġseat s
ĠCany ons
ĠFac ulty
ĠÐ¡ÐµÐ¼ ÑĮÑı
Ã¼ r
ĠÐºÐ¾Ð½ÑĨ ÐµÑĢÑĤÑĭ
ĠTy r
ĠARTIC LES
ĠHER O
Ġrush ing
ĠKa io
ĠPor ch
Ġappar ently
Ġexem ption
ĠStre ets
ĠRot ations
ðŁĻıðŁĻı ðŁĻı
ĠCommon wealth
ĠSTAT ES
En ter
ĠÐŁÐ¾ÑĤ Ð¾Ð¼
ĠRED D
Ġpregn ancy
Par adise
ĠÑįÑĤÐ¸ Ñħ
ĠÑĩÐµÑĤÑĭ ÑĢ
ĠBeg inners
ĠÐĿÐ°ÑģÑĤ ÑĢÐ¾
ĠCAL IFOR
ĠUNIT ED
ĠAlb ania
Ġconsist ently
XX V
ĠÐ¾Ð±Ð½Ð°ÑĢÑĥÐ¶ Ð¸Ð»Ð¸
ĠÐ°Ð¿ÑĢ ÐµÐ»Ñı
ĠÐĵÐ¾ÑģÐ¿ Ð¾Ð´Ð¸
Ġbuff er
ĠÐ¡Ð¿Ð°Ñģ Ð¸
ĠSerge j
Sav ic
ĠNatal ie
ĠPeters burg
ĠWilder ness
Ġreef s
ĠYps i
ĠÐ³ÑĢÑıÐ· Ð½Ð¾Ðµ
ĠÐ¡Ð¾ÑħÑĢÐ°Ð½ Ð¸
webs ites
ĠCORP OR
Ð¼ÐµÑĢÑģ Ð°Ð½ÑĤ
ĠMcI l
ĠÐĹÐ²ÐµÐ·Ð´ Ñĭ
ĠObstet rics
Ð£Ð± Ð¸ÑĤÑĮ
ĠPeach land
Ð½ÑĥÑģ Ð°ÑĢÐµÐ²
ĠSUZ UKI
ĠPanch ami
ĠÐ³Ð¾Ð½Ñĩ Ð°ÑĢÐµÐ½ÐºÐ¾
ĠMeerscha ert
ðŁ¤®ðŁĴ ©
ĠCALIFOR NIA
; "
F ile
M att
S ER
T witter
T imes
W R
h ots
i enced
n ecessary
s ex
s ey
t rapati
y enne
ç ³
Ġ Æ
Ġ Ñĸ
Ġa st
or ough
at ibility
at inum
ĠS uch
ĠS ides
Ð½ ÐµÐ¿
it ious
Ġs ight
ĠC V
ĠC IP
ĠC EMENT
ĠC elebration
ĠC razy
ed s
ĠT ÐµÐºÑģÑĤ
is ations
ĠA UD
ĠP OP
ĠP ORTS
ĠP WM
Ġc and
nd er
Ġf ears
ĠN i
ĠM ARUT
Ġp aus
Ġp henomen
ĠB ios
ĠB iotech
ĠB PCL
ĠF el
ĠF UN
ent ral
ĠR ach
ĠW DAC
ĠD ak
ĠL akes
ĠL ARS
Ġh ind
ĠE cu
ĠE ICHER
ĠH em
ĠH erald
ĠH OSP
ÑĮ ÑĤÐµÑģÑĮ
ÑĮ Ð±Ð°
ec ific
ĠG roups
os en
ĠO UR
ter oid
Ġn abbed
ÑģÑĤ Ð°Ð½Ð°
ĠU T
Ġfor ever
im acy
ch est
Ġg e
ĠÑģ Ð¾Ñģ
ĠÑģ Ð¾Ð»Ð´
Ġr ental
ut ri
Ð¼ Ð°ÑĤÑĭ
ul ous
ĠÐ² Ð¾Ñģ
ĠÐ² ÑĢÑĥÑĩ
Ġst eep
ÐµÑĢ Ð¾Ð¹
ak ul
and i
Ġ3 50
ĠÐº Ð°Ð·
Ð¸ÑĤ Ð¸
ok h
Ġpr onouns
ĠPr est
ĠPr avda
ĠY oon
ook s
ĠÐ¿ÑĢ Ð¸Ðº
ĠSc iences
qu arter
ĠUs ername
ĠSh awn
Ġcon cent
ÐµÐº Ð¸
ĠÐļ Ð¥ÐĽ
ĠÑĤ ÑĢÐµÐ²
Ġk een
Ð°Ðº ÑĤÑĭ
ĠÐĵ ÐµÐ½
Ġj un
Ġj upiter
Ġj asmine
own ers
ĠÐ¼ Ð°Ð³
over ing
ĠSub ur
ÐµÑģ Ð»Ð¸
ĠÐĶ Ð¾
ĠÐĶ Ð¸Ð½Ð°Ð¼Ð¾
Ð¸ÑĢ Ð¾Ðº
ĠÐ³ ÑĢÐ°Ð½Ð¸ÑĨ
ĠÐ³ Ð°Ð·Ð°
Ġch ill
ĠUn iversal
ĠÑĩ Ð°ÑģÐ¾Ð²
ĠÑģÑĤ Ð°Ð»Ð°
ĠBr ings
ĠBr ace
ĠÐ²Ñĭ Ð´ÐµÐ»
Ġapp lies
Ġem issions
ĠGu ilty
ĠIm migrants
Ġqu ant
ars hips
tt p
ĠÑĦ ÑĥÐ½Ðº
Ð¡ Ðļ
ĠMan aging
IV ACY
Ġimp ede
ĠÐķ Ð»ÐµÐ½Ð°
ĠDis aster
ĠÐºÐ¾ÑĤÐ¾ÑĢ ÑĭÐ¼
Ġknow ing
Ġac me
Ġrel ation
Ð²Ð°ÑĢ ÑĤ
ĠCo ffee
Ġdef ens
IT ALS
ĠDec ision
Ðł Ð¾ÑģÑģÐ¸Ñı
Ġresearch er
Ġdel iber
Ġdirect ions
Ðķ Ðľ
Ġcol on
EL L
US IND
Ġcare fully
Ġkill s
AS IM
Ġprof its
ĠCons ent
ĠÑĢÐ°Ð· ÑĢÐ°Ð±Ð¾ÑĤ
ĠAb d
ĠðŁ Ĩķ
ĠÐ¿Ð¾ÑģÑĤ Ð¾
ĠSen ators
ev a
ĠÑĪ Ð¸ÑĢÐ¾Ðº
Ġmus eum
Ġconcer ning
ĠRoad s
Ġpersonal ity
ÑĭÐ² Ð°ÐµÑĤ
str ong
ĠUN ILE
OS YS
Ġappear ing
ĠIND USIND
SU IT
ĠWell being
ĠRest rict
Ġstaff ing
ĠPay roll
IM D
ĠBill board
ĠAff ected
ĠGard ner
ĠÐ£ÐºÑĢÐ°Ð¸Ð½ Ñĥ
ĠSH OW
Ġur ging
Ð§ ÐµÐ¼Ð¿Ð¸Ð¾Ð½Ð°ÑĤ
ĠÑı ÑĢ
ĠAk ron
EST LE
ĠSar as
Ġbrief s
Ġapproach es
ĠNe il
Ġneighborhood s
ART I
Ġvir us
ÑĢÐ°Ð· Ð´ÐµÐ»
ĠNor way
ĠBR ITAN
ĠÐ°ÑĢ ÐµÑģÑĤ
Ġphot ograph
ĠProduc ing
ĠAthlet ic
Ġcontract or
ĠPA INTS
ĠÐ¿Ð¾ÑģÐ»ÐµÐ´Ð½ Ð¸Ñħ
Ġstrengthen ing
ĠNeed s
ĠÐŀÐ´ ÐµÑģ
ĠHard ware
prof ile
ĠTurn s
Ġdiv orce
UST AN
ĠWI PRO
ĠÑĢÐµÑĪ ÐµÐ½Ð¸Ñı
ĠÐ¡Ð¾ ÑĨ
Ġstrugg les
Ġscient ist
Ð¾ÑģÐ¿ Ð¾ÑĢÑĤ
ĠÐĵÐ¾Ð²Ð¾ÑĢ ÑĥÑĪ
Ġencour aged
Ġencour aging
ĠREL IANCE
ĠBa iley
ĠMail ing
Ġhy per
Ġcamp ing
ĠStat ewide
ĠÐĵÐ¾ÑĢ Ð¾Ð´
asc ular
ĠÐ¡Ð¿ÐµÑĨ Ð¾Ð¿ÐµÑĢ
ĠÐ³Ð¾Ð» Ð¾Ñģ
Ġfram e
ĠCR J
ĠJer emy
Ġautom atic
Ġbow l
ĠÐ¿ÑĢÐ¸Ð·Ð² Ð°Ð»
ĠÐ¾ÑĤÐ¿ÑĢÐ°Ð² Ð¸Ð»ÑģÑı
ĠFIN SER
ĠMOT OC
ÑĥÑĢÐ½ Ð°Ð»
Ġteach ing
ĠGoal ies
Ġcat ast
ĠRash trapati
ĠGR ASIM
ĠINF OSYS
ĠChem ical
ĠFinanc ials
Ġdiscl osed
ĠAIR TEL
ĠÐ¿Ð¾Ñħ ÑĥÐ´
ĠÐºÐ¾Ð½Ðº ÑĥÑĢ
ĠENTER TAIN
Ġstretch ing
ĠKO TAK
Ġanc ient
Ġspirit ual
ĠHIND USTAN
ĠMV P
ĠÐ´Ð°Ð² Ð½Ð¾
ĠKN OW
ĠMeh ta
ĠLIV ING
Ġuncon stitutional
ockt ail
ĠÐ´ÐµÐº Ð°Ð±
Ġcomplic ated
ĠNev ada
ĠÐĸÐµÐ½ ÑģÐºÐ¸Ðµ
ĠBH ARTI
Americ an
Top pers
ĠCONSU MER
àµĪ âĢĭ
wr ite
ĠTOUR BO
Ġresett lement
ĠPLA Y
ĠDix on
ĠÐºÐ¾Ð¼Ð¼ÑĥÐ½Ð¸Ðº Ð°ÑĨÐ¸Ð¹
ĠMcIl roy
ĠCIP LA
ĠMARUT I
ĠLARS EN
ĠEcu ador
ĠHOSP ITALS
ĠUNILE VER
ĠBRITAN NIA
ĠÐ¡Ð¿ÐµÑĨÐ¾Ð¿ÐµÑĢ Ð°ÑĨÐ¸Ñı
ĠFINSER VE
! '
: #
C ap
D el
F eed
K Y
O il
U F
V ideo
d ev
h ave
l ox
m all
s ign
t ip
z one
Ġ Ä°
in ue
Ġa vi
Ġa uthors
ĠS ECT
Ð½ Ñİ
Ð½ Ð¸ÑģÑĤÑĭ
Ġs essions
ĠT an
ic ian
ĠA ash
ĠA CCO
ĠA jay
Ġw ire
Ġf utures
ĠN ESTLE
ĠM ik
ĠM ale
Ġp oured
ĠB au
ĠB achelor
Ġb en
ĠF I
âĢ Į
ĠD X
ĠD ar
ĠD iss
ĠL ip
ĠL NG
Ġd ining
Ġd oubles
Ġd rawn
Ġh un
ĠG ap
ĠG LP
ĠO c
ĠO vert
ĠJ av
ĠJ udd
Ġe uro
Ġg aining
ĠÑģ ÑĢÐ°Ð·
Ġr ar
Ġr um
Ġr itu
ĠÐ² Ð¾ÑĢÐ¾ÑĤ
Ġst im
ĠK IFI
ak ash
ÑĨ Ð¾Ð²
ĠÐº ÑĢÐµÐ¼
ĠÐº Ð°Ð¶Ð´
ĠTr afficking
Ñİ ÑĤÐ°
ee v
Ð¸Ðº ÑĤÐ¾ÑĢ
Ġhe ight
ĠY oga
act ives
ĠCh ain
ĠÐ¿ÑĢ Ð¾Ñģ
ĠSc roll
ĠÐ¡ Ð¾Ð±
ĠÐ¡ Ðĳ
ĠÐľ Ð¾Ð±Ð¸Ð»ÑĮ
ĠÐĴ ÑħÐ¾Ð´
ĠÐł ÐķÐĿ
ĠSh o
ÐµÐº Ð°
ĠÑĤ ÐµÑģÑĤÑĭ
âĢĿ )
Ġsh ield
Ġ4 35
Ġ4 59
Ð¸Ñģ ÑģÐ¸Ð¸
ĠAll u
ĠÐĶ ÐµÐ½
ĠÐ³ ÑĢÐ°ÑĦÐ¸Ðº
ĠDe port
ĠDe part
hen ols
Ð¾Ðº Ð¾Ð´Ñĭ
Ġall erg
Ġout rage
ĠUS C
Ġacc us
Ð»Ñı ÑİÑĤ
ĠEm power
ĠÐ¤ Ð¾ÑĤ
hed ge
Ġar m
Ð¸Ð· Ð¾ÑĢ
Ġover ha
ĠÐ° Ð·
con nect
AT ECH
ĠAm rav
ĠÐ¿Ð¾Ð´ Ð¾Ð·
Ġno ise
Ġgr ateful
atur ally
EN Y
arm a
ĠML K
ĠTrans cript
Ġuse ful
ĠGold berg
Ġ14 0
ĠAP OLL
Ġdel ight
Ġdes erve
Ġrece ives
Ġfund ament
ĠPR IVACY
ĠCons ervation
icon duct
onom ic
yp henols
Ġkey board
ĠDav ids
Ġappro ves
Ġappro ached
ĠId le
ĠCrypt os
Ġperform s
Ġ100 00
RA STR
ĠÐ¥ ÐµÑĢÑģÐ¾Ð½
isc oll
ĠRob lox
ĠHis p
Ġsent iment
ĠEvery body
Ġest imate
ĠGe Force
roph ies
ĠSn ub
ÐĹ Ðĵ
ĠBo om
ĠFund ra
ĠDE IA
place ment
ĠÑįÐº Ñģ
ĠFre edom
ĠFre eway
ÑĥÑħ Ð°
ĠGar uda
Ġocc ur
ĠCas ey
ĠKR HD
ĠID BI
ole c
Ġunl ikely
ĠMel bourne
ĠIslam ic
ÑĢÐ°Ð· Ð¸Ð»
Ġprofit able
Ä± r
Ġbeg un
Ġprepar ation
den ed
Ġprosecut ion
ĠDesign er
88 8
ĠGuard ian
Ġachieve ments
Ġaccept ance
TR ATECH
Ġpers istent
cont rolled
ĠKA BEL
Ġsuper hero
ĠCoach ing
ATE G
Ð½Ð¸ÑĨ Ñĥ
ĠCou gars
ĠÑĢÐ°Ð¹ Ð¾Ð½
Ġmil estone
ĠRat io
ĠInit iatives
ĠðŁĶ į
ĠMach t
ĠÑģÐ´ÐµÐ» Ð°ÑĤÑĮ
ĠExcell ent
Ġpet ition
Ġscen es
Ġpack age
Ġanaly ze
Ġwid ely
ĠProgress ive
ĠBat on
Ġstake holders
ĠCC TV
ĠINF RASTR
ĠGil roy
ĠFurther more
ĠÐ´Ð¾Ð¿ ÑĥÑģÑĤ
ĠSW IM
ĠSaskat oon
ĠFE ATUR
ĠÐºÐ¾Ð» Ð¸ÑĩÐµÑģÑĤÐ²Ð¾
Ġexcell ence
ĠSustain ability
ĠÐ¿Ð¾ÑĤÑĢÐµÐ± Ð¸ÑĤÐµÐ»Ñı
ĠÐ²ÑĢ Ð°Ð³
ĠÐľÐµÐ¶Ð´ÑĥÐ½Ð°ÑĢÐ¾Ð´ Ð½ÑĭÐ¹
ĠHIND ALCO
ĠÐĴÑĭÑģÑĤÐ°Ð² ÐºÐ°
ĠÐĶÐµ ÑĦÐ¸ÑĨÐ¸ÑĤ
ĠReun ion
ĠÐĶÐ¾Ðº ÑĤÐ¾ÑĢ
ĠAqu arium
ĠConv ocation
Ġchap ter
Ġalum inum
Ġbrut ally
ĠBI OTECH
ĠÐ´ÑĥÑĪ Ð°
ĠGPU s
ĠÑģÑĥÑĤ ÐºÐ¸
ĠÑĥÐ³ Ð¾Ð»Ð¾Ð²
ĠÐ¶ÐµÐ»ÐµÐ· Ð°
ĠÐ¿ÑĢÐ¸Ð½ÑıÑĤ Ð¸Ñı
ĠMons ter
ĠÐĶÐ°Ñı Ð½Ð°
Class ical
graph ical
ĠÐŁÑĢÐ¾Ð¼ Ð¾ÐºÐ¾Ð´Ñĭ
affe ine
ĠOPT IONS
UCT URE
ĠPok emon
ĠÐ¤ÑĥÑĤ Ð·Ð°Ð»
ĠÐļÐ¾Ð½ÐºÑĥÑĢ ÑģÑĭ
ĠRi hanna
ĠÐ¢ÐµÐ»ÐµÐ² Ð¸Ð·Ð¾ÑĢ
ĠNico le
ĠÐ¾ÐºÐµ Ð°Ð½Ðµ
ÐļÐ¾Ð¼ÑģÐ¾Ð¼Ð¾Ð» ÐºÐ°
ĠUL TRATECH
ĠÐŁÑĥÑĤÐµÐ² Ð¾Ð´Ð¸ÑĤÐµÐ»ÑĮ
ĠÐļÐ¾Ð»ÑĥÐ¼ Ð½Ð¸ÑģÑĤÑĭ
Ġfry er
ĠREDD YS
ĠCORPOR ATE
ĠPOP ULAR
ĠÐ¡Ð¾ÑĨ Ð¿Ð¾Ð´Ð´ÐµÑĢÐ¶ÐºÐ°
ĠAmrav ati
ĠAPOLL O
ĠINFRASTR UCTURE
. :
E IF
G L
H amas
M AN
O r
P D
Q L
S F
S up
a ic
h as
l ings
n on
s ee
s app
t itle
w ana
Ð° Ðµ
or os
Ð½ Ð¸Ðµ
Ġs id
Ġs ends
ĠC ey
ĠT ina
ĠT ypes
Ġc ow
Ġc atal
Ġw ing
Ġf olks
as ant
Ġp ills
ĠB USINESS
ĠW at
ĠW ard
ĠW ave
ĠW arrant
Ġm ir
Ġm ask
ĠD illing
ĠL ecture
Ġd a
Ġd ip
am on
ĠH ass
ĠH undreds
el ph
Ġth rows
ĠG ains
ĠO cc
ir at
Ġn ic
Ð¾Ð² Ð¾ÑĢÐ¾Ð²
Ð´ ÑĢÐ¾
ĠÐ¿ Ð¾Ð±
ĠÐ¿ Ð°ÑĢÑĤÐ½ÐµÑĢ
Ġr ivals
ĠV intage
ÐµÑĢ Ñħ
Ġy ellow
Ġbe ats
à´ ĺ
ĠÐº Ð°Ð´
ĠÐº ÑĢÑĭ
Ð¾Ð¼ Ð¼ÐµÐ½ÑĤ
ĠÐ´ Ð°Ð»ÑĮ
ĠÐ´ ÑĥÑħÐ¾Ð²
Ð°Ð² ÑĪÐ¸Ð¹
ÐµÐ´ Ð¸ÑĤ
Ð¸Ð½ ÑĪÑĤ
Ð°Ð¼ ÐµÐ´
ĠSh ak
erv ous
ĠAd verts
ĠPl aces
Ġk icks
ĠCl ient
ĠCr own
Ġle aked
ĠSp ectrum
und i
ĠÐ¼ Ð¸Ðº
ĠÐ¼ Ð°ÑĪ
ĠÐ¼ Ð¸ÑģÑģÐ¸Ñı
ĠAll ison
ÐµÐ² Ð¾Ð¹
ĠPh ase
ĠÐĶ Ð°Ð³ÐµÑģÑĤ
are a
ÐµÐ½ÑĤ Ñĭ
ĠÐ» Ð¾Ð¶
ĠÐ» ÑĮÐ²
ĠAl ger
ĠBy standers
ĠÐĳ ÐŁÐĽÐĲ
ang s
ÑĥÑĢ Ð°ÑĤÑĥÑĢÐ°
Ġ10 8
àµį âĢĮ
Ġdis asters
ĠYour s
Ġem bed
ĠÐ£ Ñģ
Ð¢ Ð°Ð½ÐµÑĨ
Ġany body
ĠCar rie
Ġfl avor
Ġwhat sapp
ĠFl ood
ĠX I
Ġâ Ŀ
Ġmed ications
ĠDr iscoll
att a
ĠCare g
ath on
Ġexpl oration
ĠRo le
Ġtake aways
ĠTravel ers
ĠInter ior
Ġrece ipt
Ñĳ ÑĤÐ°
ĠEst onia
Ġinv ent
ĠÐ½Ð¾Ð² ÑĥÑİ
ĠÐ¿Ð¾Ð» Ð¾Ð¶
ĠÑģÐ°Ð¼ ÑĭÐ¹
ĠÐŁÐµÑĢ Ð¼
ĠDes erve
ĠOk ite
Ġlocal s
Ġlocal ly
ĠCalcul ate
ĠBig g
ĠEmploy er
Ġform ation
ĠBengal i
ogn itive
Ġpick ing
ĠSu k
ĠMake up
str and
Ġve gan
ĠChrist ie
ĠÐºÑĢ Ð¾Ð²
ĠFund ing
Ġmet ab
su its
Ġsearch es
ĠÐ²Ñģ ÐµÐ¼Ñĥ
ĠFilm s
ĠPay ment
Ġdesign s
ĠÐļÑĥÑĢ Ñģ
ĠOl ivia
Ġfre ed
Ġhard ware
Ġur ges
Ġexplos ions
Ð°Ð½Ð´ Ð¸Ð´
Ġded ication
rem lin
ĠÑĤÑĥÑĢ Ñĭ
ĠÐ²Ð¾ÐµÐ½ Ð½ÑĭÐµ
ĠÐ²Ð¾ÐµÐ½ Ð½ÑĭÐ¹
ĠÐľÐ¸Ð½ ÐºÑĥÐ»ÑĮÑĤÑĥÑĢ
ÑĥÐº ÐµÑĢ
ĠÐ²Ð· ÑıÑĤ
ĠNiger ian
erg us
ĠÐ¢ÑĢ ÐµÐ½Ð´Ñĭ
Ġbreak through
ĠHawai ian
Ġcur ated
ĠColumb us
ĠGrand e
ĠÐĶÐ¶ Ð¾Ð½Ñģ
Ġcir cles
Ġple ad
ĠHold ings
Ġàª Ĺ
Ġmig ration
ba um
Ġacqu isition
Ġrepl acing
ÑĪÐµÐ³Ð¾ ÑģÑı
ĠÐ¿ÐµÑĢÐµÐ´ Ð°ÐµÑĤ
ĠSem i
Ð¼Ð¸Ð½ Ð¸ÑģÑĤ
ĠÑĤÐµÐ¼ Ðµ
Con nor
ĠÐ³ÑĢÑĥÐ¿Ð¿ Ð¸ÑĢÐ¾Ð²ÐºÐ¸
Ġsym bol
ĠÑģÐ´ÐµÐ» Ð°ÐµÑĤ
Ġchair man
ĠRay mond
Ġtim ing
Ġdelay ed
ĠWJ Z
ĠÐ¸Ð³ ÑĢÑĥ
Ġnegoti ating
ĠTer rit
ĠLiter acy
ĠKir k
ĠÐ²ÑĭÐ´ Ð°Ð½Ð¾
ĠÐ¿ÑĢÐ¾Ðº Ð¾Ð¼Ð¼ÐµÐ½ÑĤ
ĠPART NERS
Ġrail way
ĠÐļÐ°Ð» Ð¸Ð½
Ġlicense es
Ġdiplom at
ÐĽÐ¯ ÐĶ
ĠÐ¾Ð±ÑĢÐ°ÑĤ Ð¸Ð»ÑģÑı
Ġstarr ed
ĠÐĴÑģ ÐµÐ³Ð¾
ÑĥÐ¹ ÑģÑĤÐ°
ĠUnve ils
ĠPhilipp ines
ĠÑĦÐ¸Ð½Ð°Ð½Ñģ Ð¾Ð²
ĠKur d
ĠÑįÑĦÐ¸ÑĢ Ðµ
ĠÐ½Ð°Ð± Ð»ÑİÐ´
ĠCOMM ENTS
CM P
ĠProb able
ĠBrut al
ĠÐļÐ°Ð·Ð°Ñħ ÑģÑĤÐ°Ð½
ĠSald ana
Ġsubstant ial
Ġmarginal ized
Ġcrimin als
ĠÑĢÐµÐ³Ð¸ÑģÑĤÑĢ Ð°ÑĨÐ¸Ð¸
ĠSPONS ORS
ĠÐ¸ÑģÑĤ Ð¾ÑĢÐ¸Ð¸
believ able
ĠÐļÐ¾Ðº Ð¾ÑĢ
Ġindict ment
LECT ION
ĠILL USTRATED
ĠÐĴÐ¸Ð½ Ð¸ÑģÐ¸
Ð¼ÐµÑĢÑģÐ°Ð½ÑĤ ÑĬ
ĠPWM ania
ĠÐ²ÑĢÑĥÑĩ ÐµÐ½Ð¸Ñı
ĠÐ¿Ð¾ÑģÑĤÐ¾ ÑıÐ½
ĠMOTOC ORP
ĠENTERTAIN MENT
ĠACCO UNT
Ġritu als
ÐĹÐĵ ÐĽÐ¯ÐĶ
ĠSWIM SUIT
EIF FER
ĠDilling ham
Ð´ÑĢÐ¾ Ð¸Ð´
ĠÐľÐ¸Ð½ÐºÑĥÐ»ÑĮÑĤÑĥÑĢ Ñĭ
) (
B ig
F r
L SS
O Y
Q CS
S ec
S ource
X U
e in
g ian
s up
v ids
v ideo
ã Ģ
Ġt ab
he art
Ñģ Ð°
ĠC overs
ĠT X
ĠT ack
is i
is le
ĠA valanche
ĠP W
ĠP es
ĠP ET
ĠP athan
ĠP OST
Ġw rap
Ġw alks
ion es
ĠN at
ĠN eb
ĠM is
Ð» Ð¾Ð¼
Ð» Ð°Ñģ
ĠB ord
ĠB GR
Ġb ell
Ġb arr
Ġb ought
ĠF art
ĠF aso
ĠF ergus
ĠR ape
ĠR entals
ĠR CMP
ĠD utch
ĠL ights
Ġd ose
ĠE lev
id ad
ay am
ow ment
ÐµÐ½ Ð»Ð°Ð½Ð´
Ġe pisodes
Ġr ises
ut o
ĠÐ² ÐµÑĤÐµÑĢ
Ġst ating
un ed
od er
ĠK FF
ĠK NS
ĠK remlin
um s
Ð¿ Ð¾Ð½
Ð¿ Ð¾ÑĢÑĤ
Ð¾ÑĢ Ð¾Ð²Ð¸Ñĩ
Ð°Ð½ Ð¾Ð²Ð¸Ñĩ
ĠÐº Ð¾ÑĪ
Ð¸ÑĤ Ð°Ð¹
ĠÐŁ Ð¾Ð·
Ð°Ð» Ñĥ
ÐµÑĤ Ð¸Ð»Ð¸
Ð°ÑĢ Ñı
Ð¾Ð´ Ð½ÑĭÑħ
Ġex clud
ĠÐ´ Ð°ÑĤ
Ð¸Ð½ Ð´
ĠÐ¡ ÐµÑĢ
ĠÐ¡ Ð²ÐµÑĤ
ĠÐ¡ Ð±Ð¾ÑĢ
ĠÐĴ Ð¸Ð´
ans om
Ġtr ains
Ð¾ÑģÑĤ Ð°Ð½
ĠÐļ ÑĤÐ¾
ĠÐļ ÑĢÑĥÑĪÐµÐ½Ð¸Ðµ
Ġ31 1
ĠÐĿ Ð°Ð´
Ġsh outed
ĠÐ¼ Ð¾Ð¼
ĠCon ley
Ġsp ect
Ġsp are
Ġoff set
ĠAl p
Ġwe aken
Ġun expected
Ġun iform
com fort
ĠÐĳ ÑĢÐ¸ÑĤ
ĠCol in
ĠBr ennan
Ġsc ar
àµį .
Ġsu c
ĠGu elph
ĠTop ps
ÑĥÑĤ ÑģÑı
ĠÑĦ Ð¾ÑĤ
Ġind eed
we gian
Ġsub scriptions
ĠMy Mint
ĠNo ah
ator ial
ĠReg ina
Ð¾Ð»Ð¾Ð³ Ð¸Ñı
Ġfin ances
int imate
ribut ions
ĠÐ¿Ð¾ Ð¸ÑģÐº
Ġsm ooth
ĠDec l
Ġpublic ation
Ġsk illed
ĠÐ¿ÐµÑĢ ÐµÐ¶
ĠÑĨ Ð²ÐµÑĤ
ĠÐĵÐ»Ð°Ð² Ð½Ð¾Ðµ
ĠDirect ions
Ġrun ways
Ġshar ply
ÐµÑĩ ÑĩÐµ
ĠEvent o
Ġed ges
ĠMov es
ĠComm encement
ĠLeg ends
ĠAb c
ĠÐ¿Ð¾ÑģÑĤ ÑĢÐ¾
writ ing
ĠSen iors
ĠBig gest
ĠAut hentic
Ġref ugees
Ġdiffer ences
ĠWild life
77 329
Ġfact ory
ĠÐĵÐµ Ð¾ÑĢÐ³
ĠMot ion
ĠMot oring
ĠÐ¯ Ð½
ĠMedic aid
ĠEd ward
Ġorgan isation
ĠMah omes
ĠBo ise
ĠSim mons
ĠTom my
ĠÐ¿ÑĢÐ°Ð² Ð¸ÑĤÐµÐ»ÑĮ
Ġsol ic
ĠNav bharat
ĠÐ½Ð°Ð´ Ð·Ð¾ÑĢ
ĠNight line
ĠVenezuel ans
Ġrep ut
ĠÑı Ð³Ð¾Ð´
Ġded uction
bl og
32 209
ĠÑĤÑĥÑĢ Ð¸ÑģÑĤ
ĠNov a
ĠHost age
Ġ32 209
ĠBur kina
ĠÐ¿ÑĢÐ¾Ð³ Ð½Ð¾Ð·
ĠRef uses
ĠHal en
ĠÑĩÐ°ÑģÑĤ ÑĮ
ĠÑģÐ¾Ð² ÐµÑĢÑĪ
ĠÐŁÐ¾Ð» Ð½Ð°Ñı
Ġne ither
ÑĭÑĪ Ðµ
Ġdest ruction
dr ive
ĠÐľÐ°ÑĢ Ðº
ĠVer u
ĠPC B
ÑĩÐµ ÑģÐºÐ¾Ð¹
gar h
Ġcorre ction
Ġsurround ed
Ġsem if
ĠRonald o
ĠFac ility
ĠWS VN
ĠRom ance
ĠChair man
Ġrenew ed
ĠPsych ology
WNI U
ĠMatthew s
Ġrepeat ed
Ġkid ney
Ġchem icals
ÐµÑĢÐ² ÑĮÑİ
Ġprompt ing
ĠÐ°Ð²Ð¸Ð°ÐºÐ°ÑĤÐ°ÑģÑĤÑĢÐ¾ÑĦ Ñĭ
ĠÑģÑĤÐ¾Ð»Ðº Ð½ÑĥÐ»
ĠÐĳÐ¾ÑĢ Ð¸Ñģ
ĠBry ce
ÑģÑĤÑĢÑĥ Ðº
Ġfirefight ing
Ġawa its
ĠLin ux
Ġterror ists
ĠÑģÑĤÐ°ÑĢ ÑĪÐµ
Ġdemocr atic
ĠÐ·Ð°Ð½ Ð¸Ð¼
ĠPF EIFFER
Ġgro cery
```````````````````````````````` ````````````````````````````````
ĠÐ¾Ð±Ð²Ð¸Ð½ Ð¸Ð»
âĺħ âĺħ
ĠÐ¾Ð±ÑĭÐ³ÑĢ Ð°ÑĤÑĮ
Ġcontem porary
ĠBos nia
ingu ished
ĠÐĵÐ¾Ð³Ð¾ ÑħÐ¸Ñı
erd ale
ĠÐ¿Ð¾ÑģÐ°Ð´ ÐºÐµ
ĠÐĺÑĤÐ°Ð» Ð¸Ñı
ĠSCH ED
ĠFX Street
ĠÐ¿ÑĢÐ¸Ð¾ÑģÑĤÐ°Ð½Ð¾Ð² Ð¸ÑĤÑĮ
LED GE
ĠVouch ers
ĠÐ¿ÐµÑĢÐµÐ³ Ð¾Ð²Ð¾ÑĢÐ¾Ð²
ĠWebc ams
ĠPrin cess
ĠBhut an
ĠÐĹÐ°ÑĢÐµÐ³Ð¸ÑģÑĤÑĢ Ð¸ÑĢÐ¾Ð²Ð°ÑĤÑĮÑģÑı
ĠLaud erdale
ĠÐ¿ÑĢÐµÐ¾Ð´ Ð¾Ð»
ĠKNOW LEDGE
ĠAash ram
ĠCey lon
ĠAlger ia
ĠÐ¡Ð±Ð¾ÑĢ Ð½Ð°Ñı
! )
A GE
B udget
O f
U nder
W ATCH
d ig
e als
f est
f alse
g man
k ind
r ise
r ising
y na
Ġt ons
Ġt iny
Ġt rophies
es ars
ĠS ector
Ð½ Ð¸Ð²ÐµÑĢÑģ
it ism
ĠC IS
ĠT ail
is en
is ely
ĠA NI
ĠP O
ĠP adel
Ġc ousin
ion eer
ĠN M
ĠN ep
ĠN RL
ĠM ash
ĠM ON
Ġb ans
ĠR uns
Ðº Ð°Ð¼
Ġm ultip
Ñĥ ÑģÐºÐ°
Ġd rones
Ġh al
ĠH indu
ow yn
Ñĭ Ñģ
ot ics
ir atory
Ġl ights
ĠJ erry
ÐµÐ½ Ð¸ÑĤ
ÐµÐ½ Ð°ÑĤÐ¾ÑĢ
Ġe p
im ation
Ð´ Ð¸Ð½Ð³
ĠÐ¿ Ð¾ÑĢÑĤ
ver ly
Ġr aw
ĠK er
ĠK ick
ĠK abad
ary a
Ð¸ÑĤ ÐµÑĤÐ°
Ġan imated
ÐµÐ» Ñİ
ard ier
Ġv ocal
Ð¾Ð´ Ñĥ
ĠY OUR
ĠCh ha
ant e
ant on
ĠÂ ®
ĠÐ¡ Ð¸Ð¼
Ġcon d
ĠÑĤ Ð°Ð¹
Ġres h
get t
ĠÐĵ Ð¾ÑģÑĥÐ´Ð°ÑĢ
Ð¸Ñģ Ð»Ð°Ð²
ĠCon ver
Ð¾Ðº ÑĢÐ°ÑĤ
Ð¾Ðº ÐºÐµ
ĠÑģÑĤ Ð°Ð²
Ġout put
ĠRad i
ĠÐĽ ÐµÐ³
ĠÐ¢ Ð¸Ð¼Ð¾
ĠÐĲ Ðł
pr us
anc ials
ĠBl aze
Ġen orm
ĠBr une
ĠÐ²Ñĭ Ð¿Ð»Ð°ÑĤ
row th
ĠÐ° ÑĦ
ĠÐ° Ð´ÑĢÐµÑģ
Ġ19 5
Ġrec alls
ĠÑģÐ² Ð¾Ðµ
ĠGu yan
ĠBe quests
ĠSe al
ĠShow biz
ĠAcc uracy
Ġpre vention
Ð°Ð± Ð°ÑĤ
ĠRec overy
ĠZ inc
ĠOff ensive
Ð¸Ð² Ð°ÐµÑĤÑģÑı
ĠÐķ Ð»
Ġatt ends
Ġback s
oh n
Ġread s
ĠPresident ial
ĠÐ¿ÑĢÐ¾ Ð¸Ñģ
ĠGr oss
ĠGr ants
ĠAss ignment
ÑĢÑĥÐ· Ð¸ÑĤÐµÑģÑĮ
ling ton
ĠBu ying
Ġ18 0
ĠAre as
ĠÑģÐ¿ Ð¾ÑĢÑĤÐ¸Ð²
ĠNet any
ĠSw ord
ĠHer bert
ĠÐ½Ð¾Ð² Ð¾Ð³Ð¾
ĠWork place
Ġenter prise
ĠÐ¥ Ð¸Ð½ÑĪÑĤ
Ð£ ÐºÑĢÐ°Ð¸Ð½Ð°
Ġinvol ve
ĠForm ula
ĠLaw s
Ġpop ulations
ĠAtt end
ĠTake over
ĠÐĲÐ½ Ð°Ð»Ð¸ÑĤ
ĠDev ice
ĠMal one
Ġstand ings
ĠÐ°Ð² ÑĤÐ¾
Ġappear ances
ĠSpe aks
Ġconst itu
ĠInquir ies
Ñĸ Ð²
ĠSpring ste
ĠMart inez
ĠSport ing
622 7
Ġfall en
bar ic
amm ers
ĠNor wegian
Ġbreak down
Ġburn ing
ÑĤÑĢ Ð°Ðº
Ġbad ly
aut am
Ġpopular ity
Ġlo oms
ĠÐ³Ð»Ð°Ð² Ð°
Ġcommit ments
ĠÑĢÐµÑĪ ÐµÐ½Ð¸Ð¹
ĠSom etimes
ĠBul gar
iy ama
ÐŃ Ðº
ĠIran ian
odd ess
ĠÐ¾ÑĪÐ¸Ð± ÐºÑĥ
Ġadvoc ates
ĠRece ived
ĠTre asury
Ġaffect ing
Ġpo et
Ġlab el
Ġintegr ity
ĠBuzz Feed
ĠÐĹÐ¸Ð¼Ð½ Ð¸Ð¹
Ġdepart ments
ĠÑģÐ»ÐµÐ´ ÑĥÐµÑĤ
ĠBell ator
Ġfix ed
ortg ages
Ġpropos als
ĠBomb ardier
ĠÑįÑĦ ÑĦÐµÐºÑĤÐ¸Ð²
ĠThr iller
ĠChem icals
ĠÑĢÐµÐ³Ð¸Ð¾Ð½ Ð°
Ġaver aged
ĠÐŁÐ¾Ð³ ÑĢÑĥÐ·Ð¸ÑĤÐµÑģÑĮ
ĠÐ¿Ð¾Ð¼Ð¾Ð³ Ð°ÐµÑĤ
Ġadapt ed
Ġmilit ants
Ġload ing
Ġsac r
ĠSTAT S
pre ced
ĠHappen ed
ĠÑģÐ»ÑĥÐ¶Ð± Ñĭ
ĠMART IN
ĠÐĺÐ½ÑĤ ÐµÑĢÐ²ÑĮÑİ
ĠÐ¢Ð°ÑĤÐ°ÑĢ ÑģÑĤÐ°Ð½
Ð¸Ð´Ð¶ Ð¸ÑĤ
ĠDor rington
ĠÐ±ÑĢÐ¸Ð³ Ð°Ð´
ĠBee f
ĠSug ar
Ġperman ent
ĠCa esars
ĠSpoil er
ĠBond s
ĠÐ·Ð°Ð³ Ð¾ÑĢ
ĠÑĥÐ³ÑĢ Ð¾Ð¶
ĠTerr ace
Ġunders c
ĠSlovak ia
ĠGamb ia
apeut ics
ĠMcCon nell
ĠÑĩÑĤ ÐµÐ½Ð¸Ð¹
ĠArchae ology
ĠÐŀÐ´ÐµÑģÑģ Ñĭ
ĠHern andez
Ġsuc ceed
ĠSCHED ULE
ĠKabad di
ĠChha ava
ĠÐ¢Ð¸Ð¼Ð¾ ÑĦ
ĠBrune i
ĠSpringste en
ĠBulgar ia
6 23
A SSOCIATED
B ull
H igh
K R
L ike
N EZ
S ite
f illed
f eld
h ooting
i ol
j amin
m m
m ay
r ab
u i
w ins
x y
ª ŀ
Ã į
è ªŀ
Ġt one
ĠS v
an ich
ar ag
Ñģ Ð¾
al en
ĠT ed
ĠT ask
ĠT agged
ĠA w
ĠP av
ĠP atch
ĠM aced
Ġp or
Ġp ics
ĠB ot
ĠB ust
Ġin hib
ĠF ew
ĠR B
ĠD a
ĠD re
ĠD ip
ĠD ale
ĠD ialogue
Ñĥ ÐµÐ¼
Ñĥ ÑĤÐ¸
Ġd il
Ġh am
Ġ2 25
am ents
ĠH ack
ĠH arm
ĠH atha
ac re
ac as
ig ree
ĠG am
ĠG em
ĠG ambling
ĠG ym
ĠG autam
ur ai
Ġl in
Ġl oses
ch ant
Ñĩ Ð°Ð½
ĠÑģ ÐµÑĢÐ¸Ð°Ð»Ñĭ
Ġr ub
Ð¼ ÐµÑĤ
ĠÐ² Ð¿
ĠÐ² ÐµÑĩ
Ġst ops
Ġst unned
ĠK iller
ĠV IR
Ð°Ð½ Ð¸Ð»
ct ure
em itism
Ġas pect
Ġhe ist
Ġv owed
ĠCh ase
av i
ĠÐľ Ð½
ĠÐľ Ð§
ĠÑĢ ÐµÐ·
ĠÐĴ Ðŀ
ans hu
ĠSh annon
ass ion
Ġpl ate
Ġal gorith
ĠÑĤ Ð²Ð¾ÑĢ
ĠÑĤ ÑĢÐ°Ð½ÑģÑĦ
let t
âĢĭ âĢĭ
ĠPro be
àµ Ĭ
ĠPol ish
ĠÐ¼ Ð¾ÑĢ
ĠCon n
ich ael
ĠDe ol
ah an
ĠTo ys
ĠÑĩ ÐµÑĤÐ²ÐµÑĢÑĤ
Ġint ention
ank ar
orn s
Ġì ŀ¥
Ġ7 9
Ġapp le
ÐĲ Ðĺ
Ġ9 99
Ġrec ip
ĠÑģÐ² ÑĭÑĪÐµ
ÑĥÐ´ Ð¸ÑĤ
ÑĥÐ¶ Ð´
Ġpre ced
Ġany more
ĠÑĦ Ð°ÐºÑĤ
ĠWatch es
ull ah
ĠRec over
Ġbl ind
ĠFl at
ĠFl air
ĠChe ers
Ġro ot
ĠInst ruct
Ġmar ine
ĠÐ§ Ð°ÑģÐ¾Ð²
AN E
ĠCo ache
eg ov
Ġinter act
Ġinter pret
ĠPar ts
Ġsm ugg
ĠÐ¡ÑĤ ÑĢ
Ðł Ðĵ
Ġsur pass
ĠRo an
uch a
Ġdr inks
ĠHer z
ĠTax es
Ġadv ances
Ġlong time
à¥ ģ
ĠVe kar
ĠPart ies
ĠOver drive
Ġred dit
Ġred isc
Ġred uces
wood s
AS CO
ĠÐ¿Ð¾Ð» Ð¸ÑĨÐ¸Ð¸
Ġaff irm
Ġsup erm
Ġsup erstar
hind ustan
AL D
aun ch
Ġsom ebody
ĠFest ive
Ġdem anding
ĠWork force
ĠÑĢÐ°Ñģ ÑģÐ»ÐµÐ´
Ð¸ÑĤÐµÐ»ÑĮ Ð½ÑĭÐ¹
Ġdist inct
Ġcor ruption
ĠAdd ed
ĠÐ¸Ð½Ð´ Ð¸Ð²Ð¸Ð´
ĠSa anich
Ġplan es
ĠÐ²Ð¾Ð· Ð»Ðµ
ĠDev ast
Ġthreat ens
ĠPa ige
Ġland ed
ĠCy prus
ĠProp oses
ĠMain tenance
Ġsports book
Ð²ÐµÑģÑĤ Ð¸
Ġdisc ip
Ġlik es
gr at
Ġfun ctions
Ġpolitical ly
Ġcheck ing
acc ine
Ġsen ators
ĠEnd owment
Ġenh anced
ĠCustom s
Ġwild life
ĠÐļÐ¾Ð½ ÑĦ
ĠBob de
Ġenc ounter
ĠSol ver
ĠPlan et
ĠInv ite
ĠÐķÐ²ÑĢÐ¾Ð¿ Ð°
ĠÐĵÑĢ ÐµÐ½Ð»Ð°Ð½Ð´
ĠBirth s
ĠÐ½Ð°ÑĪ Ð¸Ñħ
Ġden y
ĠÑĥÐ² Ð¾Ð»
ga e
Ġpers ons
ĠMcC arthy
ĠPredict ed
ĠJo ey
ĠWilliams on
Ġstorm s
USD N
Ġgradu ated
Ġbi op
Ġbur gers
Ġreflect ed
ĠCou p
ĠÐ¿ÑĢÐ¾ÐµÐºÑĤ Ðµ
Ġconv iction
ĠÐ½Ð¸Ðº Ð¾Ð³Ð´Ð°
Ġspons or
ĠÐ´ÐµÐ¹ÑģÑĤÐ² Ð¸Ð¹
ĠJess e
Ġdepart ure
Ð¾ÑģÐº Ð¾Ð²
Ġsqu are
Ġdomin ance
ĠEUR O
Ġdemonstr ate
ĠÐĳÑĥÐ´ÑĮ ÑĤÐµ
ĠBab a
ĠKD LG
Ġemb assy
ĠÐ³Ð¾ÑģÑĥÐ´Ð°ÑĢ ÑģÑĤÐ²ÐµÐ½
Ġcred entials
ĠÐ¤ÑĢÐ°Ð½ ÑĨÐ¸Ð¸
ĠTreat ment
Ġawa iting
ĠÐ¸Ð½ÑĤÐµÑĢÐµÑģ Ð½Ð¾
Ġtrib es
ĠAchieve ment
ĠBM W
ĠÑıÐ² Ð»ÑıÐµÑĤÑģÑı
âĢ¢ âĢ¢
ĠðŁı Ī
Ġbenef icial
ĠÐ¿ÐµÐ½Ñģ Ð¸Ð¾Ð½
Ġsteal ing
Ġinsult ed
Ġglass es
ĠMART Ãį
ĠLot tery
Ġexclus ively
ĠÐ¼Ð¸Ð³ÑĢÐ°Ð½ ÑĤÐ¾Ð²
ĠÐĶÐµÐ½ÑĮ Ð³Ð¸
ĠÐļÐ» Ð°ÑĢÐ°
ĠæĹ¥æľ¬ èªŀ
ĠÐ²ÐºÐ»ÑİÑĩ Ð°Ñı
ĠTai wan
ĠArv ind
ĠElement ary
Ġbarg aining
Ð½Ð°Ð´ Ð·Ð¾ÑĢ
ĠCrist iano
ĠGaur av
ĠÐ½ÐµÐ²Ð¾Ð· Ð¼Ð¾Ð¶Ð½Ð¾
ĠÐĵÑĥÐ±ÐµÑĢÐ½ Ð¸ÐµÐ²
ĠToy ota
ĠFergus on
ĠGuyan ese
ĠNetany ahu
preced ented
ĠMaced onia
ĠCoache lla
ĠVekar ia
ĠMARTÃį NEZ
G B
T Y
W ise
a els
d ocument
f eed
l u
l est
p ost
u er
u zz
u ja
Ġ ),
in agar
Ġt ear
Ġt ap
es ome
or et
or ial
at he
at ible
ĠS ook
ĠS IV
Ñģ Ð¸
ĠC els
ĠC ATEG
ed ia
ĠT i
ĠT olerance
is garh
ĠA verage
ĠP as
ĠP ears
Ġw aves
Ġf itness
Ġf irings
ĠN in
ĠM ort
ĠM ason
ĠM AT
ĠM ortgage
ĠB orn
Ġin her
Ġin ches
Ġto ler
ĠI U
ĠW B
ĠW alt
Ġm ock
ĠD erm
ĠL T
ĠL ith
ĠL ite
ĠE rit
ĠE aves
ac ies
ig ieg
iv ation
ur ches
Ġn ostalgia
Ġl ists
ro v
th ouse
Ġre tain
ch ild
ĠSt ellar
ĠThe mes
ver ev
Ġr igor
ĠÐ² Ð¾ÑĤ
ĠÐ² Ð»Ð¸Ñı
Ġst omach
ĠK T
if ier
st op
Ð· Ð°Ð¿
ĠÐ½ ÐµÐ³Ð¾
har ova
ĠÐŁ Ð¾Ð¶
ĠTr oubles
ÐµÐ» Ð¸Ð»Ð°ÑģÑĮ
ĠTh read
ust ing
ust le
Ð°ÑĢ Ð°Ð±
ect ors
ĠCh hatt
av id
av ish
pp er
Ġpro of
ĠÐľ Ð¾Ð´Ð°
ell aneous
ĠCont roll
ĠÐł Ðļ
ĠSh am
ra it
ĠÑĤ Ð°Ð½
ĠÑĤ Ð°ÑĢ
Ġres ume
Ġsh irts
Ġ4 31
ĠÐ¼ ÐµÐ½
ĠCon c
ĠAn c
ÐµÐ¹ Ð´
ĠLive hindustan
iz za
Ð¾Ðº Ð¾Ð¼
ĠUn ique
ĠAl ice
ĠAl ways
ĠNew hall
Ġun iverse
ĠÐĺ ÐĿÐĿ
à¤ ¬
ĠÐ¢ Ðŀ
ps e
20 23
ft ime
ang i
Ġ. "
oss il
ÐµÐ»ÑĮ Ð³
ĠAir tel
Ġsc al
Ġsc ams
Ð¾Ð¶ ÐµÐ½Ð¸Ñı
Ġdis ruption
Ġdis plays
Ġper imeter
Ġà´ «
ÑĥÐ´ Ð¾Ð¶
Ġcrash ing
Ġpol icing
Ġro cks
Ġmin imize
ourn aments
ĠSk ills
ĠInst ru
ĠAmerican a
ĠComp rehensive
ĠEng strand
Ġgr oss
Ġgr atitude
ÑģÐ» ÑĥÐ¶
ott est
ĠGr adu
ĠBas ics
Ġgu ides
ĠTrans formation
ÐµÐºÑĤ Ð°Ðº
ĠGold stream
yl ist
ĠÑĨ ÐµÐ½Ðµ
ĠÑĨ Ð¸ÑĦÑĢ
Ġchar ging
Ġ25 2
Ġbas ically
ĠMich aels
Ġset back
ĠTH W
ateg orized
Ġrespons es
Ġpar a
Ġaccount ability
ĠRet ro
ÑĥÐ¼ Ð°Ð½
ĠPal ace
Ġcomplet eness
ĠExp ands
ĠÑħ Ð¾ÐºÐºÐµ
ĠInt el
ĠÐ²Ð¾Ð· Ð½Ð¸Ðº
ĠMer z
Ġground s
ĠMiss ed
Ġspecial ist
ĠÐĲÑĢ Ð°Ð²
Ġi Stock
ĠAuthor ed
Ġgen re
ĠWin ery
gr ades
ĠFilm ing
ĠCard i
ÑĥÐ½ Ð´
ÑĥÐ½ ÐºÑĤ
ĠEnd ocr
ĠSam uel
ĠSam antha
Ġcapt ures
Ġstay ed
gu ard
ĠÐ²Ð¾ÐµÐ½ Ð½Ð¾Ð³Ð¾
ĠWH L
news Point
ĠEqu atorial
ĠÐ½Ð°Ñģ ÐµÐ»ÐµÐ½
Ġemot ion
Ġemot ions
Ġvis ited
ĠPe ac
Ġnomin ation
Ġmaintain ed
ĠÐ½Ð°Ñĩ Ð°Ð»Ð¸
Ġhope ful
Ð¸ÑĢÐ¾Ð²Ð°Ð½ Ð½ÑĭÑħ
ĠMS ME
ĠPS C
Ġprevent ed
ĠBur undi
ĠÐ³Ð»Ð°Ð² Ð½Ð¾Ð³Ð¾
Com p
ĠMcC art
He zbollah
Ġpurch ased
ĠCast aic
Ġmax imize
ĠHo over
ĠSqu are
Ġgather ed
Ġsal ary
ĠÐ·Ð°Ð² Ð¸Ñģ
Pr ime
ĠÐļÐ°ÑĢÐ¿ Ð¸Ð½
ĠÐ²Ð½ ÐµÑĪ
Ġpartnership s
Ġsym b
ĠÐłÐµÐ´Ð°Ðº ÑĨÐ¸Ð¾Ð½
ĠÐĴÐ°Ð» ÑİÑĤÐ°
ĠÐ¿Ð¾Ð³Ð¸Ð± ÑĪÐ¸Ñħ
ĠZak harova
ĠBomb ers
Ġboy cott
ĠLO CAL
ĠMemor ial
Ġeg g
Ġmist ake
ÐŁÑĢ ÐµÑģÑģ
Ġneighb ors
ĠBright on
ĠVar iety
ĠUnc overed
Ġcoast al
ĠÐĺÑĢ Ð¸Ð½Ð°
ĠFeder er
ĠFeder ation
Ġsac red
Ġanonym ity
ĠÐºÑĢÐ°Ñģ Ð¸Ð²
Ġconfront ed
ĠÐ¨Ð°Ñħ ÑĤÐµÑĢ
ĠÐ²Ð¾Ð¾ÑĢÑĥÐ¶ Ð¸Ð»Ð°ÑģÑĮ
ĠFR OM
ĠUg anda
ĠÑģÐºÐ°Ð½Ð´ Ð°Ð»ÑĮÐ½Ð¾Ðµ
ĠNicol as
ĠNich ols
ĠÑģÑĤÐ¾Ð»ÐºÐ½Ð¾Ð² ÐµÐ½Ð¸Ñı
ĠÐĿÐ°Ð· Ð²Ð°Ð½
Ġvess el
ĠÐ¸ÑģÐ¿ÑĭÑĤ Ð°ÑĤÑĮ
ĠCOVER AGE
ĠÑįÐºÑģÐº ÑĥÑĢÑģ
aS eat
ĠÐĲÑĢÑĤ ÐµÐ¼
ĠÑģÑĩ ÐµÑĤ
Ġneut ral
Ġbacter ia
ĠJes us
ĠÐ¿Ð°Ð´ ÐµÐ½Ð¸Ñı
ĠMent ha
ìķ ł
Ġengulf ed
ðŁ¤¦âĢįâĻĤï¸ı ðŁ¤¦âĢįâĻĤï¸ı
Ġvill ages
Ġmun icip
ĠÐŁÑĢÐ¸ÑģÐ¾ÐµÐ´Ð¸Ð½ÑıÐ¹ ÑĤÐµÑģÑĮ
ĠÐ¡Ð»Ð¾Ð²Ð°Ðº Ð¸Ð¸
ĠTob acco
Ġdeleg ation
ĠÐ²ÐµÑĢÐ½ ÑĥÐ»
Ġrar ely
ĠHisp anic
ĠÐļÐ¾ÐºÐ¾ÑĢ Ð¸Ð½Ð°
ĠÐĴÐ¸Ð½Ð¸ÑģÐ¸ ÑĥÑģ
ĠAlp ine
ĠÐ¥Ð¸Ð½ÑĪÑĤ ÐµÐ¹Ð½
Ġìŀ¥ ìķł
egov ina
ĠHerz egovina
ĠSook e
ĠCels ius
ĠErit rea
ĠChhatt isgarh
0 25
1 04
A CH
B ash
D P
D eep
E F
K ann
M us
N N
R isk
f r
f olk
g overnment
h ad
h ika
l ow
l ove
m ajor
o ch
r iders
v illa
ä º
å ħ
æ ĸ
in th
Ġt ensions
Ġa vo
on ge
or ie
ĠS hed
ÑĤ ÑıÐ½
ĠT error
ĠT umblr
ĠA ly
ĠP ounds
Ġc itizen
Ġc affeine
ĠM t
Ġp ard
ĠB T
ĠB U
ĠB ass
Ġb ols
ĠF ish
ĠF err
ĠF avour
ĠW ade
ĠD ot
ĠD est
ĠD ON
et e
ĠL emon
Ġd ire
ĠH iring
ĠG U
ĠG ossip
Ġn arrow
Ð¾Ð² Ð¾Ð»ÑĮ
ĠJ ake
est ed
im ag
ĠÐ¿ ÑĭÑĤ
Ñĩ ÑĤÐ¾
Ð² Ð°ÐºÑĥ
ĠÑģ Ð°Ñħ
ĠIn augur
ĠÐ² ÐµÑĢÐ½ÑĥÑĤÑĮÑģÑı
Ġst eam
ĠK aus
ĠK ID
um ing
ear t
à´ ´
Ð± Ð¾
ÑĨ Ð°Ð¼
ĠÐº Ð¼
Ð¸ÑĤ Ð°Ð»
har es
ud h
ok o
Ġhe d
og an
Ð¸Ñı ÑĤ
Ð¸Ñı Ð¼Ð¸
ĠÐ¿ÑĢ Ð¾ÑģÐ¿
Ð¾Ð½ Ð±
Ð¾Ð½ Ð¾Ð²Ð¸Ñĩ
ÑģÑı ÑĤ
qu er
ĠÐ¡ ÐŁ
ĠÑĢ Ð°Ð½ÐµÐµ
Ð³ Ð»Ð°Ð²
Ð³ Ð¾ÑĤÐ¾Ð²
ĠÐĴ ÐĹÐĵÐĽÐ¯ÐĶ
ĠCom fort
Ġtr acks
ĠCont acts
ĠÐł Ð°ÑģÐº
ĠÐŀ Ð½Ð¸
ÐµÐº ÑĤÐ°
Ġal ly
ĠÐļ Ð¸
ĠÐļ ÐµÐ»
ĠEn nis
ĠÑĤ ÐµÐ½Ð½Ð¸Ñģ
ĠAr c
ĠAr med
Ġres erve
ĠInd ies
ĠInd eed
ĠCl ay
Ġcr uel
Ð°Ðº Ð¸
Ġnot iced
Ġj ourn
Ġsh ifts
àµ ĥ
Ġ5 28
ĠAn ne
ĠEx ternal
Ġch ose
ĠUn til
ons o
Ġacc ent
ĠÐ¤ ÐµÐ¾Ð´
ĠÐ¤ Ð°Ð±ÑĢ
Ġ. )
ÑĥÑĢ ÑģÐ¸Ð¸
Ð¾Ð¶ Ð¸Ð´
ĠAnd aSeat
Ðļ Ðŀ
Ġrec ruiting
Ġev olving
urn ing
eng ine
ĠÑĦ Ð¾Ð½Ðµ
Ð°Ð± Ð¾Ð²
Ġbl ess
ĠZ verev
min i
ĠChe yenne
Ġback door
Ġadd ict
ours es
eg ree
Ð¾Ð²Ð°Ð½ ÑİÐº
CA F
Ġdown turn
ĠÐ²Ð¾Ð¹ Ð½Ñĥ
Ð°ÑĤÐµÐ» Ñı
Ġdr ives
Ġdel ivers
Ġph ones
Ġà¤ Ĺ
ĠÐŃ ÑĤÐ°
ĠÐŃ Ð¢Ðŀ
Ġprom inent
UN KS
aun ga
ĠLife Site
Ġrest oring
Ġfilm ing
ÑĥÐ¼ Ð½ÑĭÑħ
ĠStates man
Ġequ ally
Ġrespond ents
ĠÐ¾Ð±Ð»Ð°ÑģÑĤ ÑıÑħ
ĠÐ½Ð°ÑħÐ¾Ð´ Ð¸Ð»Ð¸ÑģÑĮ
ĠSu it
ĠDev ils
ĠCN A
ĠGame Sense
OP ENY
Ġra ids
force ful
Ġactiv ist
ĠMain e
ung s
Ġboard s
Ġview ed
Ġopp onent
Ġcelebr ities
ĠMil roe
ĠÐ¿Ð¾Ðº Ð¾Ð»
Ġhard er
ĠÐĸ ÑĥÑĢÐ½Ð°Ð»
BO OK
ĠWind s
Ġded uct
Ġwar mer
Ġblock ed
ĠWR UF
622 8
ĠÐ´Ð² ÑĥÑħ
ĠÐ® Ð¶
ĠCall ed
ĠAT H
Ġphot ography
Ġroom s
Ġreveal ing
ĠPA CAF
iot ic
ĠRobert o
ĠWL NY
ĠGh ost
ĠÐ¢ÑĥÑĢ ÑĨÐ¸Ð¸
ĠMid west
Ġabs ence
ĠBiz Bash
Ġthr illed
ĠÑģÐµÑĢ Ð´
Ġserious ly
ĠBald wins
ĠÐ²Ð°ÑĪ Ð°
ĠSPORTS BOOK
oms day
ĠGD C
Ġcritic ized
Ġclub s
ĠButt igieg
ĠÐ¸Ð¼ Ð¿Ð¾ÑĢÑĤ
Ġcorpor ation
ĠÐ¾Ð±Ð½Ð¾Ð² Ð»ÐµÐ½Ð¸Ñı
ĠSus an
Ġadvis ory
des ign
Ġwarm ing
Ġchampions hips
Ġcopyright ed
idi ary
ĠÐ±ÑĢÐ¾Ñģ Ð¸Ð»Ð°
ĠOak land
ĠDu ke
ĠÐ²Ð·ÑĢÑĭÐ² Ñĭ
ĠÐĳÐ¾ÑĢ ÑĮÐ±Ð°
Ġsad dened
ĠÐ½Ð¾Ð¼ ÐµÑĢ
ĠÑģÑĨÐµÐ½ Ð°ÑĢ
ĠÐŁÐ¾Ð³ Ð¾Ð´Ð°
ĠKY MA
ĠÐµÐ² ÑĢÐ¾
ĠWP TV
ĠÐ²ÐµÑĢÑĤÐ¾Ð»ÐµÑĤ Ð¾Ð¼
ĠPN B
Ġrepro duced
Ð¾Ð´Ð¸ Ð°ÐºÐ°
ĠÐ¡ÑĤÐµÐ¿Ð°Ð½ Ð¾Ð²Ð¸Ñĩ
ĠRepresent ative
Ġexem ptions
ĠIng raham
ĠÐ»Ð¸Ð´ ÐµÑĢÐ¾Ð²
ĠÐ½ÐµÐ± Ð¾Ð»ÑĮÑĪ
dis play
Ġstarr ing
ĠÐ±ÐµÑģÐ¿Ð¸Ð»Ð¾ÑĤ Ð½Ð¸ÐºÐ¾Ð²
ĠFL OR
Ġunve ils
ĠStarr er
ĠÐ¿ÑĢÐ¾Ð±Ð»ÐµÐ¼ Ñĭ
Ð¾ÑĢÐ¾Ð· Ð¾Ð²
Ġgam ble
ĠÐ¸Ð½Ð²ÐµÑģÑĤÐ¸ÑĨ Ð¸Ð¾Ð½
ĠÐ§ÐµÑĢÐ½ Ð¸Ð³
onc Ã©
Ð³Ð¾Ð² Ð½Ð¾Ð¼
ĠÐķÐºÐ°ÑĤÐµÑĢÐ¸Ð½ Ð±ÑĥÑĢÐ³
ĠAnalys ts
ĠÑįÐºÐ¸Ð¿Ð°Ð¶ Ð°
Ġhik ing
ĠJunk ie
ĠChrom ecast
Ġfro zen
ĠÐŁÐµÑĢÐ² Ð°Ñı
ĠÑĢÐµÑģÑĥÑĢÑģ Ð¾Ð²
ĠAyurved a
Ġextraordin ary
ĠRough riders
Ġjur is
ĠHass an
ĠÐ»ÑĮÐ² Ð°Ð¼
Ġenorm ous
ĠCATEG ORIES
ĠGameSense MA
ĠBaldwins ville
! âĢĿ
6 46
B harat
C D
C KS
P odc
R ec
R ight
S ee
S chool
W I
W Y
W in
W eek
d egree
e ven
f its
g irl
k an
m o
m al
m outh
p ink
t em
y ou
à ¸
á »
å ı
Ġ u
in fl
er k
Ġt abled
Ðµ ÐµÐ²
or rect
an tern
an ium
al uation
ĠC ord
ĠC aus
ed ition
ĠT ul
ĠA K
ĠA i
ĠP eng
ĠP OD
Ġc ream
Ġc ognitive
Ġf ab
ĠN ights
ĠN icks
Ġp orts
om ens
Ġin appropriate
Ġb er
ĠF ork
ĠF ired
ĠD er
ĠD ivers
ol and
ĠH ST
ow ing
ĠO L
ĠO z
ter as
Ġn urs
Ġn obody
ĠU k
ĠJ oan
ÐµÐ½ Ð½Ð¾Ð¹
th at
im ony
ch anging
Ġg onna
Ñĩ Ð¸ÐºÐ¸
ment ia
ĠÐ² Ð¼ÐµÑģÑĤ
Ġst akes
od ied
ĠV ery
ĠV ince
um m
and o
ist icated
st and
ĠÐ½ Ð¾ÑĩÑĮ
ĠÐº Ð°Ð½
ĠÐŁ ÐµÐ½ÑĤÐ°Ð³Ð¾Ð½
ab us
Ð°Ð» ÑĤÐ¸Ð¹
Ð¾Ð´ ÑģÐºÐ°Ñı
Ġ- :
ĠÐ´ Ð¸Ð·
ĠÐ´ Ð¸ÑģÐº
Ð¸Ð½ Ð¾Ð¿
Ð°Ð¼ Ð¿
ĠÐ¡ Ð¾Ðº
ĠÐ¡ Ð¾ÑĩÐ¸
ĠÐľ Ð°Ð»
ĠÐĴ Ð¾ÑĤ
ĠÐĴ Ðļ
ĠÐĴ Ð¸ÐºÑĤÐ¾ÑĢ
ĠÑĤ Ð¾Ð²
ĠÑĤ Ð¾Ð½
ĠÐ· Ð°ÑģÑĤ
ĠInd ices
ens or
Ð°Ðº Ð¾Ð½
ĠÐĵ Ð¾Ð±
ĠSp y
Ġad oles
Ð°ÑĨ Ð¸
sc ienced
Ġch amber
ĠÐ± ÑĥÐºÐ¼ÐµÐº
ĠDe ion
Ð¾Ðº ÑĥÐ±
ĠEm pire
ĠEm otional
Ñį ÑĢ
20 1
ĠFr action
Ġdo ors
ÐµÐ»ÑĮ Ð·
Ġ10 3
row ing
ĠBe verly
con f
ĠIm ran
aus er
Ð°Ð³ Ð¾Ð¼
19 0
BA LL
ĠZ el
Ġimp aired
Ġro c
Ð°Ð¶ Ð¸
ĠÐ¸Ð½ÑĦÐ¾ÑĢÐ¼ Ð°ÑĨÐ¸Ñİ
ÑıÑĤ Ð½Ð¸Ðº
ĠComp atibility
Ġweek day
ĠMe ga
Ġshow ers
ject ion
Ġsign atures
ploy ment
ĠShe ep
Ġinter actions
oth es
ĠHigh er
Ġevery where
ĠPar aly
ĠÐºÐ¾Ð½ ÑĤ
Ð¸Ð³ ÑĢÐ°Ð»
ĠÐºÐ°Ðº Ð¸Ðµ
ĠSup erman
Ġexpl ainer
ĠShop per
Ġshould n
arr ass
Ġcol umn
ĠAng le
Ġchar m
ĠUnder ground
rain ed
Ġcoll apse
Ġinv ite
Ġinv asion
ĠPost al
Ġkill er
ĠAct ivity
ÐµÑĩ ÐºÐ°
ĠDet ained
ĠÑģÐ°Ð¼ ÑĭÐ¼Ð¸
AL L
Ġbre w
ĠFree p
St ars
Ġreal ized
26 5
OT O
ĠPal estine
rop he
mp ics
ĠShar p
pro cessed
ĠÐ½Ð°ÑĢ ÑĥÑĪ
EM AP
Ġclos ure
ĠDan ia
ĠSl am
Ġpoint ing
Ġhon our
ĠBo at
Ġprop ag
Ġhear ings
ĠRest acks
ĠÐ²Ñģ ÐµÐ³Ð´Ð°
Ġinfl amm
Ġcontact ed
ĠMuseum s
Ġcourt esy
ĠÐ¾Ð´ Ð½
ĠBang la
Ġtest ed
ĠÐ¿Ð¾Ð»ÑĥÑĩ Ð¸ÑĤÑĮ
ĠÐĲÐ² Ð¸
ĠWind ows
[...]
