{"<s>":0,"<pad>":1,"</s>":2,"<unk>":3,"<mask>":4,"!":5,"\"":6,"#":7,"$":8,"%":9,"&":10,"'":11,"(":12,")":13,"*":14,"+":15,",":16,"-":17,".":18,"/":19,"0":20,"1":21,"2":22,"3":23,"4":24,"5":25,"6":26,"7":27,"8":28,"9":29,":":30,";":31,"<":32,"=":33,">":34,"?":35,"@":36,"A":37,"B":38,"C":39,"D":40,"E":41,"F":42,"G":43,"H":44,"I":45,"J":46,"K":47,"L":48,"M":49,"N":50,"O":51,"P":52,"Q":53,"R":54,"S":55,"T":56,"U":57,"V":58,"W":59,"X":60,"Y":61,"Z":62,"[":63,"\\":64,"]":65,"^":66,"_":67,"`":68,"a":69,"b":70,"c":71,"d":72,"e":73,"f":74,"g":75,"h":76,"i":77,"j":78,"k":79,"l":80,"m":81,"n":82,"o":83,"p":84,"q":85,"r":86,"s":87,"t":88,"u":89,"v":90,"w":91,"x":92,"y":93,"z":94,"{":95,"|":96,"}":97,"~":98,"¡":99,"¢":100,"£":101,"¤":102,"¥":103,"¦":104,"§":105,"¨":106,"©":107,"ª":108,"«":109,"¬":110,"®":111,"¯":112,"°":113,"±":114,"²":115,"³":116,"´":117,"µ":118,"¶":119,"·":120,"¸":121,"¹":122,"º":123,"»":124,"¼":125,"½":126,"¾":127,"¿":128,"À":129,"Á":130,"Â":131,"Ã":132,"Ä":133,"Å":134,"Æ":135,"Ç":136,"È":137,"É":138,"Ê":139,"Ë":140,"Ì":141,"Í":142,"Î":143,"Ï":144,"Ð":145,"Ñ":146,"Ò":147,"Ó":148,"Ô":149,"Õ":150,"Ö":151,"×":152,"Ø":153,"Ù":154,"Ú":155,"Û":156,"Ü":157,"Ý":158,"Þ":159,"ß":160,"à":161,"á":162,"â":163,"ã":164,"ä":165,"å":166,"æ":167,"ç":168,"è":169,"é":170,"ê":171,"ë":172,"ì":173,"í":174,"î":175,"ï":176,"ð":177,"ñ":178,"ò":179,"ó":180,"ô":181,"õ":182,"ö":183,"÷":184,"ø":185,"ù":186,"ú":187,"û":188,"ü":189,"ý":190,"þ":191,"ÿ":192,"Ā":193,"ā":194,"Ă":195,"ă":196,"Ą":197,"ą":198,"Ć":199,"ć":200,"Ĉ":201,"ĉ":202,"Ċ":203,"ċ":204,"Č":205,"č":206,"Ď":207,"ď":208,"Đ":209,"đ":210,"Ē":211,"ē":212,"Ĕ":213,"ĕ":214,"Ė":215,"ė":216,"Ę":217,"ę":218,"Ě":219,"ě":220,"Ĝ":221,"ĝ":222,"Ğ":223,"ğ":224,"Ġ":225,"ġ":226,"Ģ":227,"ģ":228,"Ĥ":229,"ĥ":230,"Ħ":231,"ħ":232,"Ĩ":233,"ĩ":234,"Ī":235,"ī":236,"Ĭ":237,"ĭ":238,"Į":239,"į":240,"İ":241,"ı":242,"Ĳ":243,"ĳ":244,"Ĵ":245,"ĵ":246,"Ķ":247,"ķ":248,"ĸ":249,"Ĺ":250,"ĺ":251,"Ļ":252,"ļ":253,"Ľ":254,"ľ":255,"Ŀ":256,"ŀ":257,"Ł":258,"ł":259,"Ń":260,"ĠÐ":261,"in":262,"er":263,"Ġt":264,"Ġa":265,"Ð¾":266,"on":267,"Ð°":268,"Ð¸":269,"es":270,"Ðµ":271,"or":272,"he":273,"en":274,"at":275,"ĠS":276,"ÑĤ":277,"an":278,"ar":279,"Ð½":280,"Ñģ":281,"it":282,"al":283,"ÑĢ":284,"Ġs":285,"ĠC":286,"Ð¾Ð":287,"ed":288,"ing":289,"ĠT":290,"ic":291,"is":292,"ĠA":293,"Ġthe":294,"ou":295,"re":296,"ĠP":297,"Ġc":298,"Ġw":299,"nd":300,"Ġf":301,"ion":302,"as":303,"ĠN":304,"ĠM":305,"le":306,"Ġp":307,"om":308,"Ġo":309,"Ð»":310,"ĠB":311,"Ġin":312,"Ġb":313,"Ġto":314,"ĠF":315,"ent":316,"âĢ":317,"ĠR":318,"il":319,"ĠI":320,"Ðº":321,"ĠW":322,"Ġand":323,"Ġof":324,"Ġm":325,"ĠD":326,"ew":327,"et":328,"Ñĥ":329,"ĠL":330,"ol":331,"Ġd":332,"Ñı":333,"Ġh":334,"ĠE":335,"Ġ2":336,"am":337,"ĠH":338,"el":339,"ac":340,"id":341,"ad":342,"Ð°Ð":343,"us":344,"ay":345,"ÑĮ":346,"ow":347,"ig":348,"iv":349,"ts":350,"Ñĭ":351,"ÐµÐ":352,"ec":353,"ews":354,"Ġth":355,"ers":356,"ĠG":357,"os":358,"ur":359,"ot":360,"ation":361,"Ġ20":362,"ĠO":363,"ir":364,"ter":365,"Ġn":366,"ĠNews":367,"ÑģÑĤ":368,"Ġl":369,"ĠU":370,"Ġ202":371,"ro":372,"Ð¾Ð²":373,"Ġon":374,"ĠJ":375,"ÐµÐ½":376,"Ġfor":377,"th":378,"Ġre":379,"est":380,"Ġe":381,"im":382,"ch":383,"Ð´":384,"Ġ1":385,"Ġg":386,"ĠÐ¿":387,"ĠSt":388,"Ñĩ":389,"ess":390,"Ð²":391,"ĠThe":392,"ment":393,"ĠÑģ":394,"ver":395,"âĢĻ":396,"ly":397,"ith":398,"our":399,"ĠâĢ":400,"Ġr":401,"op":402,"ĠIn":403,"ut":404,"por":405,"Ð¼":406,"oc":407,"ag":408,"ce":409,"ul":410,"ĠÐ²":411,"ub":412,"Ġ2025":413,"Ġst":414,"un":415,"od":416,"ia":417,"Ð°ÑĤ":418,"ĠK":419,"ies":420,"igh":421,"ĠÐ¸":422,"Ġis":423,"ĠV":424,"um":425,"ÐµÑĢ":426,"ate":427,"ive":428,"ve":429,"Ð¿":430,"Ġwith":431,"if":432,"Ð¾ÑĢ":433,"ain":434,"Ð°Ð½":435,"ak":436,"Ġy":437,"and":438,"ity":439,"ist":440,"st":441,"ont":442,"ary":443,"ear":444,"out":445,"Ñħ":446,"Ð·":447,"ĠÐ½":448,"ct":449,"Ġbe":450,"em":451,"Ġ(":452,"à´":453,"ill":454,"ri":455,"Ġ3":456,"up":457,"Ġthat":458,"Ð±":459,"ore":460,"ĠRe":461,"end":462,"ÑĨ":463,"ĠÐº":464,"ap":465,"Ð¸ÑĤ":466,"har":467,"Ð¾Ð»":468,"ud":469,"'s":470,"ĠÐŁ":471,"all":472,"ld":473,"ab":474,"ok":475,"Ġwh":476,"eb":477,"rom":478,"Ġat":479,"ĠTr":480,"Ð°Ð»":481,"ast":482,"Ð¾Ð¼":483,"Ġan":484,"Ñİ":485,"ĠÐ¾":486,"Ġas":487,"ice":488,"ial":489,"Ð¸Ð¸":490,"ll":491,"ÑĦ":492,"Ġ&":493,"..":494,"ip":495,"Ġit":496,"ee":497,"ff":498,"Ð¸Ðº":499,"Ġhe":500,"ÐµÐ»":501,"ÐµÑĤ":502,"ĠTh":503,"port":504,"Ġpr":505,"ere":506,"Ð¾Ð³":507,"ust":508,"ard":509,"Ġcom":510,"ĠPr":511,"Ġv":512,"Ð°ÑĢ":513,"Ð¾Ð´":514,"ĠY":515,"io":516,"ions":517,"og":518,"ÑĪ":519,"ail":520,"ect":521,"ight":522,"Ġby":523,"ome":524,"art":525,"Ð½Ñĭ":526,"ÑģÐº":527,"Ġ-":528,"uary":529,"Ð¸Ñı":530,"ide":531,"act":532,"ack":533,"ook":534,"00":535,"lic":536,"Ð¾Ð¹":537,"Ġex":538,"ĠCh":539,"ĠÐ¿ÑĢ":540,"ĠJan":541,"ĠÐ´":542,"Ġfrom":543,"oun":544,"Ð¹":545,"Ð°Ð²":546,"av":547,"du":548,"ÐµÐ´":549,"ant":550,"ĠSc":551,"her":552,"Ð¾Ð½":553,"Ġ0":554,"ks":555,"Ð¸Ð½":556,"Ð°Ð¼":557,"pp":558,"Ð°ÑĤÑĮ":559,"Ġpro":560,"Ġare":561,"ÑģÑı":562,"ĠÂ":563,"eat":564,"Ġor":565,"ine":566,"qu":567,"ĠÐ¡":568,"hare":569,"ash":570,"ĠÐľ":571,"ĠÑĢ":572,"bout":573,"Ð³":574,"cc":575,"ĠÐĴ":576,"ost":577,"ĠCom":578,"ports":579,"ge":580,"ans":581,"Ġtr":582,"ure":583,"Ð¸Ð»":584,"Ġwas":585,"ave":586,"ire":587,"ell":588,"Ð¾ÑģÑĤ":589,"Ð¾ÑĤ":590,"ĠCont":591,"ind":592,"pl":593,"ĠÐł":594,"ĠÐŀ":595,"ĠUs":596,"age":597,"ket":598,"ĠSh":599,"Ð¾Ñģ":600,"ass":601,"Ġpl":602,"Ġthis":603,"ÐµÐ¼":604,"Ġcon":605,"oll":606,"ÐµÐº":607,"Ġal":608,"ĠâĢľ":609,"erv":610,"ik":611,"ĠÐļ":612,"ĠÐ½Ð°":613,"ĠAd":614,"ĠEn":615,"ign":616,"ra":617,"ĠÑĤ":618,"ays":619,"âĢĿ":620,"Ð¸Ðµ":621,"ram":622,"Ġyou":623,"ĠÐ·":624,"ĠAr":625,"ations":626,"ĠÑĥ":627,"ĠPl":628,"Ġres":629,"let":630,"Ġ31":631,"ĠInd":632,"ors":633,"Ñī":634,"Ġsa":635,"ex":636,"Ġk":637,"orm":638,"ings":639,"ĠCl":640,"Ġcr":641,"Ġde":642,"ĠHe":643,"ated":644,"Ð°Ñı":645,"Ð¶":646,"ens":647,"ie":648,"ĠCr":649,"Ð°Ðº":650,"Ġ\"":651,"âĢĭ":652,"rou":653,"ĠOn":654,"ĠJanuary":655,"Ġcont":656,"Ġnot":657,"get":658,"ical":659,"ĠÐĵ":660,"ord":661,"ublic":662,"ĠWh":663,"ance":664,"ĠPro":665,"Ð°Ð·":666,"ĠÐĿ":667,"ence":668,"Ġj":669,"Ġle":670,"ob":671,"pt":672,"ory":673,"ĠSp":674,"Ġsh":675,"àµ":676,"Ġhas":677,"Ġag":678,"Ġ4":679,"ous":680,"Ġ|":681,"ĠPol":682,"ile":683,"own":684,"und":685,"ĠÐ¼":686,"ood":687,"per":688,"Ġad":689,"Ð¸Ñģ":690,"ĠCon":691,"ents":692,"ics":693,"Ġhave":694,"Ġus":695,"ey":696,"ĠAll":697,"Ġ5":698,"ÐµÐ²":699,"ite":700,"over":701,"ould":702,"ĠAn":703,"Ð¸Ð¹":704,"ov":705,"Ġsaid":706,"ĠSports":707,"...":708,"orld":709,"mer":710,"atch":711,"rib":712,"ork":713,"ian":714,"ĠSub":715,"ÐµÐ¹":716,"ĠEx":717,"Ð°ÑĨ":718,"iness":719,"ount":720,"ÐµÑģ":721,"ry":722,"amil":723,"gh":724,"ump":725,"earch":726,"usiness":727,"ĠPh":728,"ue":729,"Ġsp":730,"ĠLive":731,"ime":732,"Ġup":733,"ĠÐĶ":734,"aw":735,"Ð¸ÑĢ":736,"ock":737,"iz":738,"sc":739,"Ð¸ÑĤÑĮ":740,"ĠÐ³":741,"ich":742,"ong":743,"form":744,"Ð½Ð¸Ðº":745,"Ġwill":746,"ates":747,"Ġmore":748,"ber":749,"alth":750,"ult":751,"ise":752,"ree":753,"cl":754,"fter":755,"Ġch":756,"Ð¾Ñĩ":757,"ĠMar":758,"ĠÐ±":759,"ose":760,"day":761,"ĠFeb":762,"ĠDe":763,"Ġoff":764,"ase":765,"az":766,"ĠâĢĶ":767,"ech":768,"hen":769,"Ð°Ñģ":770,"ake":771,"vi":772,"ah":773,"ĠFor":774,"ational":775,"PR":776,"enc":777,"ĠSche":778,"hip":779,"ther":780,"ame":781,"able":782,"Ġcan":783,"are":784,"Ð¾Ðº":785,"ĠUn":786,"udget":787,"Ġ,":788,"Ð½Ð¾":789,"Ġ8":790,"Ġ6":791,"ices":792,"eek":793,"Ġall":794,"dit":795,"Ð¾Ð±":796,"ĠTo":797,"mun":798,"dule":799,"ĠTrump":800,"ĠÑĩ":801,"Ġim":802,"Ġshare":803,"ĠÑģÑĤ":804,"ib":805,"ett":806,"ons":807,"Ġyour":808,"Ġhis":809,"ÐµÐ½ÑĤ":810,"lect":811,"ĠSchedule":812,"Ġcl":813,"ĠÐ»":814,"ĠThis":815,"ĠAl":816,"ĠAbout":817,"old":818,"ach":819,"ocal":820,"eather":821,"ort":822,"ĠAs":823,"ph":824,"Ġcomp":825,"Ġint":826,"Ġout":827,"ĠNew":828,"ĠRad":829,"Ġwho":830,"ĠContact":831,"erm":832,"ĠUS":833,"ÑİÐ´":834,"ĠBusiness":835,"oy":836,"Ġ2024":837,"ĠÐĽ":838,"ink":839,"Ġprice":840,"oin":841,"tain":842,"Ġwe":843,"ĠQ":844,"ane":845,"Ġun":846,"ident":847,"ank":848,"ĠPublic":849,"Ġacc":850,"ÐµÑģÑĤ":851,"Ð°Ð¹":852,"als":853,"Ð»Ñı":854,"Ġse":855,"acy":856,"ĠÂ«":857,"Ġtheir":858,"ĠLe":859,"ond":860,"Ð½ÑĭÐµ":861,"ĠÐĺ":862,"ĠÐĹ":863,"ru":864,"Ð¾ÑĢÐ¼":865,"ĠDon":866,"à¤":867,"ace":868,"ĠBudget":869,"ick":870,"ict":871,"Â»":872,"ĠÐ¢":873,"Ġabout":874,"vest":875,"Ð°Ð´":876,"com":877,"ike":878,"ĠVide":879,"icy":880,"ĠShare":881,"eed":882,"ĠRadio":883,"ĠEv":884,"ĠÐĲ":885,"Ð¸Ñĩ":886,"ĠEm":887,"ÑĦÐ¾ÑĢÐ¼":888,"ments":889,"odc":890,"pr":891,"aff":892,"ÑĢÐ°Ð½":893,"ps":894,"Ñį":895,"ities":896,"anc":897,"ĠÐ¤":898,"hed":899,"Ġnews":900,"ĠMed":901,"Ð¸Ð¼":902,"ĠWorld":903,"20":904,"ĠFr":905,"ĠBy":906,"upport":907,"ball":908,"eam":909,"Ġar":910,"ft":911,"ĠÐĳ":912,"ish":913,"eop":914,"ang":915,"iss":916,"orn":917,"ĠPlay":918,"ĠRes":919,"ÐµÐ½Ð¸Ñı":920,"gram":921,"ĠIndia":922,"Ġ.":923,"Ð¸Ð·":924,"Ġafter":925,"ĠCol":926,"ove":927,"Ġ'":928,"munity":929,"ck":930,"ĠHome":931,"oss":932,"Ġì":933,"ĠUp":934,"ruary":935,"Ġour":936,"any":937,"Ð¾Ð¿":938,"ĠBl":939,"Ġen":940,"irst":941,"eople":942,"ĠCal":943,"ĠNewslet":944,"Ð°Ð¿":945,"Ð°ÑģÑĤ":946,"ĠFebruary":947,"so":948,"Ð¾Ð»ÑĮ":949,"one":950,"ories":951,"ĠPodc":952,"Ġ7":953,"Ġthey":954,"ebook":955,"olog":956,"Ð½Ð°Ñı":957,"ĠMin":958,"atest":959,"ights":960,"ĠâĢĵ":961,"Ð¾Ð³Ð¾":962,"acebook":963,"pen":964,"ound":965,"ÑĥÑĢ":966,"org":967,"les":968,"vel":969,"vert":970,"Ġits":971,"Ġ+":972,"ĠÐ¾ÑĤ":973,"ĠMus":974,"Ġ/":975,"ĠWeather":976,"ĠBr":977,"ĠIs":978,"ĠApp":979,"ĠÐŀÐ±":980,"Ġbut":981,"ĠHealth":982,"ĠÐ²Ñĭ":983,"ĠLocal":984,"Ð¿ÑĢ":985,"ĠSearch":986,"ĠMore":987,"Ġdo":988,"Ġyear":989,"ool":990,"Ġapp":991,"ÐµÐ»ÑĮ":992,"ĠÑį":993,"scrib":994,"ally":995,"amilio":996,"ĠAir":997,"mit":998,"ĠIt":999,"ÑĤÐ¾":1000,"tern":1001,"Ð¾ÑģÑĤÐ¸":1002,"now":1003,"ÑĢÑĥ":1004,"Ġbeen":1005,"Ġsc":1006,"Ð¾Ð¶":1007,"ĠCan":1008,"Ð»Ð¸":1009,"reat":1010,"ST":1011,"ines":1012,"Ġ10":1013,"ÐµÐ½Ð¸Ðµ":1014,"Ġover":1015,"Ð°ÑĨÐ¸Ð¸":1016,"ĠÐ¸Ð½":1017,"Ġalso":1018,"ild":1019,"amp":1020,"25":1021,"ÐĲ":1022,"ely":1023,"ade":1024,"ax":1025,"Ġ9":1026,"ĠAnd":1027,"Ð°Ð»ÑĮ":1028,"meric":1029,"àµį":1030,"Ġnew":1031,"ĠâĢĺ":1032,"duc":1033,"overn":1034,"ĠPolicy":1035,"oot":1036,"ollow":1037,"asts":1038,"row":1039,"ivacy":1040,"very":1041,"Ġdis":1042,"ÑĢÐ°":1043,"ĠYour":1044,"ĠÐ°":1045,"ĠÐ¸Ð·":1046,"Ġ19":1047,"ĠAmeric":1048,"Ðļ":1049,"Ġwere":1050,"Ġwhich":1051,"Ð¸ÑĨ":1052,"ital":1053,"ĠSign":1054,"Ġrec":1055,"ĠÂ©":1056,"ĠÑģÐ²":1057,"ai":1058,"Ġme":1059,"Ġ$":1060,"wit":1061,"ĠAdvert":1062,"ater":1063,"Ġserv":1064,"ann":1065,"Ġev":1066,"ĠFacebook":1067,"ĠPrivacy":1068,"ĠÐ¾Ð±":1069,"ience":1070,"aking":1071,"Ð¾ÑĩÐ½Ð¸Ðº":1072,"ets":1073,"Ġpart":1074,"ĠEnter":1075,"tainment":1076,"Ġem":1077,"Ġsu":1078,"Ð¸Ð¾Ð½":1079,"ĠHow":1080,"ĠQu":1081,"ÐµÐ³":1082,"ĠGu":1083,"ton":1084,"urn":1085,"Ġher":1086,"ĠBe":1087,"ark":1088,"iff":1089,"ress":1090,"ivers":1091,"scribe":1092,"ĠÐ£":1093,"erson":1094,"ĠPhil":1095,"con":1096,"ÑĤÐ¸":1097,"Ð¸Ð´":1098,"familio":1099,"ĠTV":1100,"Ð¢":1101,"Ġper":1102,"ĠSe":1103,"eral":1104,"tic":1105,"round":1106,"pect":1107,"ĠCommunity":1108,"ĠYou":1109,"ĠNow":1110,"ÑĤÐ°":1111,"Ð¸Ñħ":1112,"witter":1113,"CC":1114,"ility":1115,"ĠNPR":1116,"ology":1117,"Ġpeople":1118,"ower":1119,"ues":1120,"ction":1121,"ĠList":1122,"ĠShow":1123,"Ðĺ":1124,"uss":1125,"IN":1126,"ĠLatest":1127,"Ð¾ÑģÑģ":1128,"ĠTop":1129,"opy":1130,"rit":1131,"ĠNational":1132,"clud":1133,"ward":1134,"oday":1135,"Ġà´":1136,"cer":1137,"Ġwork":1138,"Ð¾Ð²Ð°ÑĤÑĮ":1139,"Ġinto":1140,"ages":1141,"iday":1142,"ÑĥÑĤ":1143,"Ðŀ":1144,"ĠEntertainment":1145,"ĠIm":1146,"ÑĥÐ´":1147,"eng":1148,"land":1149,"ĠÐºÐ¾Ð¼":1150,"ream":1151,"Ġgo":1152,"Ð¸ÐºÐ°":1153,"Ġfirst":1154,"oard":1155,"ext":1156,"BS":1157,"ĠPodcasts":1158,"Ġone":1159,"ĠWith":1160,"Ġlike":1161,"ER":1162,"ĠAcc":1163,"BC":1164,"ese":1165,"ED":1166,"ĠNot":1167,"ĠMusic":1168,"Ġqu":1169,"ĠTech":1170,"ending":1171,"formation":1172,"ĠToday":1173,"Ð¾Ð·":1174,"ÑĥÑİ":1175,"overnment":1176,"ÐĿ":1177,"ters":1178,"ited":1179,"Ġ01":1180,"arn":1181,"ĠâĢ¢":1182,"right":1183,"ĠSubscribe":1184,"Ġcrash":1185,"Ð¼ÐµÐ½ÑĤ":1186,"ric":1187,"ÑĥÐ±":1188,"ars":1189,"aus":1190,"ÑĥÐ¶":1191,"ĠMon":1192,"ional":1193,"wo":1194,"Ġpol":1195,"ox":1196,"adel":1197,"Ġab":1198,"ific":1199,"ason":1200,"ration":1201,"Ð°Ð³":1202,"OR":1203,"ÐµÑħ":1204,"iew":1205,"ĠClass":1206,"Ġpre":1207,"erms":1208,"ĠÐ¿ÑĢÐµÐ´":1209,"chool":1210,"ÐµÐ·":1211,"Ġ30":1212,"Ġhad":1213,"Ġany":1214,"ures":1215,"ames":1216,"au":1217,"ĠAdvertise":1218,"der":1219,"phia":1220,",âĢĿ":1221,"Ġund":1222,"ĠPre":1223,"tt":1224,"adelphia":1225,"Ġjust":1226,"ÑİÐ´Ð¸":1227,"ĠÑĦ":1228,"ĠWatch":1229,"Ð°Ð±":1230,"Ġind":1231,"ĠRead":1232,"enter":1233,"ÑģÑĤÐ²":1234,"ene":1235,"uring":1236,"ĠEdit":1237,"Ġso":1238,"ĠPhiladelphia":1239,"ĠWhat":1240,"ĠWe":1241,"ĠProgram":1242,"line":1243,"ied":1244,"Ġinclud":1245,"ĠCopy":1246,"air":1247,"irect":1248,"Ð¿Ð¸Ñģ":1249,"Ð¡":1250,"ele":1251,"eep":1252,"ĠLif":1253,"ember":1254,"ĠMedia":1255,"esident":1256,"ĠÐĽÑİÐ´Ð¸":1257,"itics":1258,"umb":1259,"ĠVideo":1260,"19":1261,"ĠÐĿÐ¾Ð²":1262,"ĠCanad":1263,"Ġother":1264,"emb":1265,"we":1266,"ins":1267,"Ġam":1268,"ating":1269,"eries":1270,"its":1271,"ĠFriday":1272,"ull":1273,"ĠCar":1274,"Ġtime":1275,"ives":1276,"etting":1277,"aily":1278,"ĠRec":1279,"Ð°ÑĪ":1280,"ials":1281,"ĠMan":1282,"ĠMarket":1283,"ĠInc":1284,"Ġsec":1285,"ĠEmail":1286,"Ġfl":1287,"Ġbl":1288,"Ġinc":1289,"ĠDay":1290,"Ġwould":1291,"Ġwhat":1292,"ĠSupport":1293,"ership":1294,"ĠEvents":1295,"ata":1296,"Ð¼ÐµÐ½ÑĤÐ°ÑĢ":1297,"BA":1298,"view":1299,"Ġsome":1300,"icket":1301,"ĠZ":1302,"ÑıÐ·":1303,"ency":1304,"Ð½ÑĭÐ¹":1305,"ĠStories":1306,"ys":1307,".âĢĿ":1308,"ÐºÐ¸":1309,"hi":1310,"ĠOur":1311,"Ġsub":1312,"ĠState":1313,"ual":1314,"ange":1315,"raft":1316,"'t":1317,"ĠFl":1318,"Ġshe":1319,"ĠNewsletter":1320,"Ð¸ÑģÑĮ":1321,"ĠÐłÐ¾ÑģÑģ":1322,"FL":1323,"ÑģÐµ":1324,"ÑĭÐµ":1325,"min":1326,"aj":1327,"Ð¾Ð»ÑĮÐ·":1328,"enn":1329,"ĠÐĵÐ»":1330,"ĠOff":1331,"oad":1332,"ĠTerms":1333,"Ġtwo":1334,"istory":1335,"ÑıÐ½":1336,"ÑĥÑĩ":1337,"Ð¾ÑĤÐ¾ÑĢ":1338,"Ð¸Ð²":1339,"ough":1340,"Ð¼ÐµÐ½ÑĤÐ°ÑĢÐ¸Ð¸":1341,"ĠDel":1342,"ĠX":1343,"Ġreg":1344,"ĠAg":1345,"AT":1346,"ĠListen":1347,"ĠÐ·Ð°Ð¿":1348,"ÐµÑĢÐ½":1349,"ative":1350,"Ġwhen":1351,"ces":1352,"Ġact":1353,"ĠMy":1354,"IV":1355,"Ġnow":1356,"ix":1357,"Ġâ":1358,"ĠChe":1359,"ĠÐŁÑĢ":1360,"ĠPolitics":1361,"Ġcould":1362,"Ġimp":1363,"iel":1364,"man":1365,"Ġinvest":1366,"ĠTwitter":1367,"Ġhigh":1368,"rough":1369,"Ġro":1370,"ocks":1371,"ÐºÐ°":1372,"ĠÐķ":1373,"Ġmin":1374,"Ġrem":1375,"ourn":1376,"ral":1377,"Ð°Ð¶":1378,"ÑĭÑħ":1379,"Ġthere":1380,"Ð°Ð»Ð¸":1381,"ĠSk":1382,"Ġthan":1383,"Ð°ÑĤÐµÐ»ÑĮ":1384,"uc":1385,"Ġmon":1386,"ĠAm":1387,"irm":1388,"ĠÑģÐ¾":1389,"ĠInst":1390,"ĠÐ¸Ð½ÑĦÐ¾ÑĢÐ¼":1391,"ĠDis":1392,"ulture":1393,"ĠOp":1394,"ĠÐ¿Ð¾Ð´":1395,"Ġhel":1396,"Ġprov":1397,"ootball":1398,"Ġmed":1399,"ĠÐºÐ¾ÑĤÐ¾ÑĢ":1400,"Ð¾Ð»Ð¸ÑĤ":1401,"ON":1402,"Ġlead":1403,"ĠPhot":1404,"ĠFollow":1405,"ĠÐ½Ðµ":1406,"Ð´Ð°":1407,"ug":1408,"Ġplay":1409,"ĠUpd":1410,"Ġmar":1411,"imes":1412,"ĠView":1413,"ful":1414,"nect":1415,"iving":1416,"ecial":1417,"Ġbr":1418,"Ġmay":1419,"AR":1420,"urr":1421,"app":1422,"Ġatt":1423,"ope":1424,"Ġvs":1425,"ĠNo":1426,"Ġknow":1427,"Ð½Ð¾Ð³Ð¾":1428,"lis":1429,"iver":1430,"ĠFin":1431,"Ġdec":1432,"ĠEduc":1433,"18":1434,"ĠTeam":1435,"ĠSoc":1436,"ends":1437,"ĠServ":1438,"Ġcontent":1439,"à´¿":1440,"ĠInvest":1441,"ĠAI":1442,"ĠNH":1443,"ep":1444,"ier":1445,"Ġplane":1446,"ĠSou":1447,"Ġagain":1448,"orth":1449,"ES":1450,"ator":1451,"ĠGet":1452,"Ġago":1453,"aper":1454,"Ġcons":1455,"lease":1456,"ĠÑģÐ²ÑıÐ·":1457,"ĠEcon":1458,"Ġno":1459,"ism":1460,"Ġthem":1461,",\"":1462,"ium":1463,"ÐµÐ½Ð´":1464,"uth":1465,"gy":1466,"ĠAmerican":1467,"Ġback":1468,"ĠEconom":1469,"inn":1470,"ÑģÑĤÐ¾ÑĩÐ½Ð¸Ðº":1471,"Ġstr":1472,"ÑĩÐ°ÑģÑĤ":1473,"icks":1474,"Ġbec":1475,"ĠÐ§":1476,"ĠElect":1477,"Ġtrans":1478,"fer":1479,"Ġair":1480,"yle":1481,"Ġhow":1482,"ÑıÑĤ":1483,"ĠReg":1484,"ĠEducation":1485,"ĠComp":1486,"ased":1487,"ĠÐ»ÑİÐ´":1488,"Ð¾Ð»Ð¾Ð³":1489,"ÑĢÐ°Ð½Ð¸ÑĨ":1490,"ode":1491,"Ġreport":1492,"Ġeff":1493,"OM":1494,"ĠDr":1495,"ouse":1496,"Ð¸ÑģÑĤ":1497,"ition":1498,"ĠSubmit":1499,"agram":1500,"ĠWeek":1501,"ision":1502,"noun":1503,"Ġweek":1504,"Ġadd":1505,"ÑĥÐ»":1506,"velop":1507,"Ġyears":1508,"ety":1509,"fore":1510,"ours":1511,"ĠMe":1512,"ĠÑĤÐµÑħ":1513,"ĠIns":1514,"ale":1515,"oh":1516,"asy":1517,"Ġac":1518,"Ġservices":1519,"ina":1520,"Ġfin":1521,"ness":1522,"AN":1523,"Ġteam":1524,"Ð°Ð·Ð°ÑĤÑĮ":1525,"ĠBut":1526,".\"":1527,"ÑİÑĤ":1528,"int":1529,"Ð¾Ð»Ð¸ÑĤÐ¸ÐºÐ°":1530,"ever":1531,"ĠPM":1532,"Ġshow":1533,"omen":1534,"erved":1535,"ĠÐ·Ð°Ð¿Ð¸ÑģÑĮ":1536,"ĠVideos":1537,"ause":1538,"ribut":1539,"ject":1540,"ĠÐ¿Ð¾":1541,"ĠCopyright":1542,"Ġsign":1543,"ederal":1544,"Ġass":1545,"04":1546,"ĠÐ´Ð»Ñı":1547,"avel":1548,"wn":1549,"),":1550,"Ġneed":1551,"Ġget":1552,"ĠBest":1553,"Ð¾Ðµ":1554,"50":1555,"ÑģÐ¿":1556,"Ġunder":1557,"ĠNFL":1558,"ploy":1559,"Ġman":1560,"other":1561,"osts":1562,"Ġrel":1563,"ĠÐŁÐ¾Ð»Ð¸ÑĤÐ¸ÐºÐ°":1564,"ĠEng":1565,"Ġhelp":1566,"Ð½Ð¾Ð»Ð¾Ð³":1567,"ĠCBS":1568,"Ġgr":1569,"Ð²Ð°ÑĢ":1570,"ĠShe":1571,"Ġonly":1572,"ashing":1573,"ĠCo":1574,"atur":1575,"ĠCanada":1576,"Ġread":1577,"Ġstate":1578,"Ġbet":1579,"Ġresp":1580,"ÑģÐ»":1581,"EN":1582,"way":1583,"read":1584,"ley":1585,"Ð¸ÑĤÐµ":1586,"Ġsays":1587,"ĠReport":1588,"eg":1589,"ĠÑĤÐµÑħÐ½Ð¾Ð»Ð¾Ð³":1590,"Ġif":1591,"Ð½Ð¾Ðµ":1592,"ĠSm":1593,"Ġhere":1594,"IC":1595,"Ġ24":1596,"ants":1597,"Ġcall":1598,"ĠAt":1599,"Ġexper":1600,"Ġret":1601,"br":1602,"ĠDaily":1603,"ĠPress":1604,"ÑĢÐ°ÑĤ":1605,"ÑģÐºÐ¾Ð¹":1606,"ĠNewsletters":1607,"ÐµÑģÑģ":1608,"Ġmy":1609,"hic":1610,"Ġtop":1611,"ĠFrom":1612,"ĠOf":1613,"30":1614,"ecut":1615,"Ðľ":1616,"Ð¾Ð²Ð°Ð½":1617,"Ġinter":1618,"ĠPresident":1619,"els":1620,"UT":1621,"ĠDown":1622,"ĠOr":1623,"oth":1624,"nology":1625,"Ġlaw":1626,"ests":1627,"ÐµÐ¿":1628,"ert":1629,"ular":1630,"ĠSchool":1631,"ĠCount":1632,"att":1633,"ases":1634,"affic":1635,"ald":1636,"ron":1637,"ĠLink":1638,"akes":1639,"ĠHol":1640,"iversity":1641,"ÑģÑĥÐ¶":1642,"ĠÐ¿ÑĢÐ¾":1643,"ĠHigh":1644,"ott":1645,"ĠFootball":1646,"endar":1647,"000":1648,"ana":1649,"ĠCare":1650,"lege":1651,"oint":1652,"ĠÑĤÐµÑħÐ½Ð¾Ð»Ð¾Ð³Ð¸Ð¸":1653,"alk":1654,"ĠMen":1655,"Ġevery":1656,"Ġwhere":1657,"Ð¿ÑĢÐ°Ð²":1658,"ĠOpen":1659,"ube":1660,"Ġcontin":1661,"Ġco":1662,"ĠSouth":1663,"ĠFCC":1664,"IVE":1665,"EW":1666,"ĠBlack":1667,"part":1668,"Ġlook":1669,"illion":1670,"CA":1671,"Ġthrough":1672,"Ġwhile":1673,"ĠSec":1674,"Ġdef":1675,"istration":1676,"ĠPar":1677,"Ġtar":1678,"lob":1679,"ersonal":1680,"esp":1681,"ery":1682,"ield":1683,"iron":1684,"ires":1685,"10":1686,"Ġpass":1687,"ĠScience":1688,"ĠÑıÐ½":1689,"Ġ12":1690,"ĠÑģÑĤÐ°ÑĤÑĮ":1691,"Ġgovernment":1692,"Ġsupport":1693,"Ġthese":1694,"ording":1695,"yst":1696,"roup":1697,"ĠÐŀÐ±ÑģÑĥÐ¶":1698,"ĠGo":1699,"antasy":1700,"reen":1701,"Ġdown":1702,"ilit":1703,"Ġmost":1704,"Ġday":1705,"ty":1706,"ĠÐºÐ¾Ð½":1707,"ĠGr":1708,"Ġ:":1709,"ĠRel":1710,"ĠAss":1711,"ath":1712,"ister":1713,"Ð½ÑĭÑħ":1714,"nes":1715,"ense":1716,"Ġinst":1717,"ĠHistory":1718,"vers":1719,"ĠÐ·Ð°":1720,"Ġsm":1721,"Ġ...":1722,"ĠÐ²Ð¾Ð¹":1723,"edit":1724,"ender":1725,"Ġstart":1726,"ÑģÐºÐ°Ñı":1727,"Ġconf":1728,"Ġoffic":1729,"ĠDelhi":1730,"go":1731,"ĠÑģÐ°Ð¹":1732,"ĠStaff":1733,"ands":1734,"ĠIntern":1735,"Ġiss":1736,"Ġ11":1737,"ĠDo":1738,"2025":1739,"ising":1740,"ĠLIVE":1741,"led":1742,"viron":1743,"arm":1744,"ÐµÐ¶":1745,"itt":1746,"eth":1747,"IT":1748,"ĠCalendar":1749,"ÐµÐ»Ð¾Ð²":1750,"ĠÐļÐ¾Ð¼":1751,"Ġincluding":1752,"ĠConnect":1753,"ission":1754,"ĠNBA":1755,"ider":1756,"igital":1757,"ĠEditor":1758,"ĠRep":1759,"ĠFile":1760,"Ġwell":1761,"leg":1762,"ĠSur":1763,"urity":1764,"Ð¸ÑĦ":1765,"ĠÐŁÐ¾Ð´":1766,"ÑģÐºÐ¸Ð¹":1767,"road":1768,"ĠCap":1769,"The":1770,"ĠDec":1771,"ÑĢÑĥÐ·":1772,"Ð¸Ð³":1773,"Ġbu":1774,"Ð¸Ð»ÑĮ":1775,"ĠJaz":1776,"ĠIN":1777,"ince":1778,"Ġagainst":1779,"ĠÑıÐ½Ð²Ð°ÑĢ":1780,"Ġins":1781,"ĠBas":1782,"estyle":1783,"ling":1784,"Ġcount":1785,"ĠML":1786,"ams":1787,"Ġgu":1788,"af":1789,"Ġ15":1790,"ĠSpons":1791,"ats":1792,"ĠLog":1793,"ĠÐĿÐ¾Ð²Ð¾ÑģÑĤÐ¸":1794,"ĠÑıÐ½Ð²Ð°ÑĢÑı":1795,"ims":1796,"ĠÑĩÐµÐ»Ð¾Ð²":1797,"Ġhome":1798,"inion":1799,"Ġcap":1800,"ĠCrash":1801,"vironment":1802,"osp":1803,"ĠTrans":1804,"ĠAfter":1805,"ÐºÑĥ":1806,"ebs":1807,"ĠFantasy":1808,"Ġrights":1809,"ÐĶ":1810,"ĠÐ¡ÑĤ":1811,"ĠÐ±ÑĥÐ´":1812,"ĠChar":1813,"ĠÑĩÐµÐ»Ð¾Ð²ÐµÐº":1814,"Ð¾Ð²Ð¸Ñĩ":1815,"Ð¼Ð¸":1816,"ĠNHL":1817,"ðŁ":1818,"ules":1819,"urs":1820,"ĠÐºÐ°Ðº":1821,"ashington":1822,"ife":1823,"Ġbefore":1824,"ption":1825,"ĠWashington":1826,"``":1827,"ven":1828,"Ġfree":1829,"In":1830,"ĠBu":1831,"ists":1832,"ĠWest":1833,"Ġmarket":1834,"ministration":1835,"ilm":1836,"views":1837,"lines":1838,"ĠStud":1839,"ĠÑĩÑĤÐ¾":1840,"ĠÑįÑĤ":1841,"istan":1842,"ĠCity":1843,"Ð½Ð¾ÑģÑĤÐ¸":1844,"Ðł":1845,"Ġthose":1846,"aining":1847,"ĠTrending":1848,"ĠYork":1849,"Ð¸Ð»Ð¸":1850,"Ð°ÑĤÐµÐ»":1851,"ĠClassical":1852,"ĠOut":1853,"ĠUnd":1854,"Ġbel":1855,"ĠLifestyle":1856,"ÑĥÑĩÑĪ":1857,"Ġsur":1858,"Ġ18":1859,"lished":1860,"ious":1861,"ĠÐ¶":1862,"ivid":1863,"Ð°Ð²Ð¸ÑĤÑĮ":1864,"ÐµÐºÑĤ":1865,"uthor":1866,"Ð¾Ð³Ð»":1867,"ĠRuss":1868,"Ð°ÑĨÐ¸Ð¾Ð½":1869,"ĠSup":1870,"Ġuse":1871,"hel":1872,"ote":1873,"ĠJazz":1874,"14":1875,"ÐĴ":1876,"Ġworld":1877,"ĠÐłÐµÐº":1878,"ĠGold":1879,"vail":1880,"yl":1881,"ĠCollege":1882,"ults":1883,"med":1884,"ĠBetting":1885,"Ġinformation":1886,"ĠFire":1887,"Ġnear":1888,"Ġexpl":1889,"Ġlast":1890,"ketball":1891,"ĠSo":1892,"Ġcre":1893,"ida":1894,"ĠÐľÐ¸ÑĢ":1895,"SS":1896,"Ġaround":1897,"ĠRo":1898,"ÐºÑĢÐ°":1899,"COM":1900,"ards":1901,"ustry":1902,"Ð½Ð¾Ð¼":1903,"Ġhealth":1904,"ible":1905,"ĠInstagram":1906,"Ġ89":1907,"Ġsee":1908,"IA":1909,"ecast":1910,"ief":1911,"TV":1912,"ergy":1913,"Ġdet":1914,"ĠOb":1915,"01":1916,"uch":1917,"ĠÐµ":1918,"ential":1919,"ĠService":1920,"Ġbeing":1921,"ĠBank":1922,"ĠÐ¡Ð¿":1923,"ĠAre":1924,"Ġinf":1925,"Ġ14":1926,"ĠCulture":1927,"ĠAP":1928,"ĠCricket":1929,"Ġë":1930,"Ð¾Ð´Ð°":1931,"ĠArtic":1932,"Ġduring":1933,"ĠJust":1934,"Ġresearch":1935,"Ġmake":1936,"ĠThat":1937,"ĠÐ»ÑİÐ´ÐµÐ¹":1938,"ÐµÑģÑĤÐ²":1939,"Ġeven":1940,"lobal":1941,"ĠBoard":1942,"ystem":1943,"uck":1944,"Ġdr":1945,"ĠÐ²Ð¾Ð¹Ð½Ñĭ":1946,"Ð½Ð°":1947,"Ġpost":1948,"ĠShop":1949,"ilitary":1950,"ĠÑĩÐµÐ»Ð¾Ð²ÐµÐºÐ°":1951,"ten":1952,"Ð¾Ð±Ð°Ð²Ð¸ÑĤÑĮ":1953,"esh":1954,"Ġcontr":1955,"ots":1956,"Ġsay":1957,"ĠÑģÐ°Ð¹ÑĤÐ°":1958,"cuss":1959,"Ġdel":1960,"Ġ#":1961,"ocus":1962,"ĠSeries":1963,"Ġdid":1964,"Ð½Ð¾Ð²":1965,"orning":1966,"Ġche":1967,"ĠPlane":1968,"à´¿âĢĭ":1969,"//":1970,"ified":1971,"ournal":1972,"ĠStream":1973,"Ġdirect":1974,"oci":1975,"amily":1976,"ĠDonate":1977,"ross":1978,"ites":1979,"ublished":1980,"ĠÐĶÐĿ":1981,"ĠÐĹÐ´":1982,"ĠÐ¸Ð½ÑĦÐ¾ÑĢÐ¼Ð°ÑĨÐ¸Ð¸":1983,"Ðķ":1984,"Ð¾Ð»ÑĮÐ·Ð¾Ð²":1985,"ĠOpinion":1986,"ĠWill":1987,"Ġthree":1988,"ĠÑģÐ¿":1989,"gan":1990,"EO":1991,"omes":1992,"ÑĢÑĭ":1993,"ĠNet":1994,"ured":1995,"ĠÐŁÐ¾Ðº":1996,"ĠÑģÑĤÑĢÐ°Ð½Ð¸ÑĨ":1997,"Ġph":1998,"Ġ2023":1999,"ibility":2000,"Ġhim":2001,"Ġartic":2002,"ects":2003,"osed":2004,"ĠÐºÐ¾ÑĤÐ¾ÑĢÑĭÑħ":2005,"ĠNorth":2006,"ĠÑģÐ¿ÑĢÐ°Ð²":2007,"Ġtake":2008,"ĠÐ¸ÑģÑĤÐ¾ÑĩÐ½Ð¸Ðº":2009,"Ġdes":2010,"ury":2011,"ĠHT":2012,"ute":2013,"ÑĥÐ»Ñı":2014,"ĠTravel":2015,"Ġdevelop":2016,"Ġshould":2017,"Ġemail":2018,"Ġgrow":2019,"Ġpublic":2020,"clus":2021,"ĠEl":2022,"Ġà¤":2023,"Ð°Ð±Ð¾ÑĤ":2024,"ient":2025,"back":2026,"Ð¾ÑģÑĤÐ°Ð²":2027,"cul":2028,"na":2029,"Ġmany":2030,"ĠÐŃ":2031,"Ð°ÐµÑĤ":2032,"ĠSw":2033,"ĠInter":2034,"Ġorder":2035,"ns":2036,"Ġtech":2037,"ĠCenter":2038,"ĠAust":2039,"Ġfollow":2040,"ired":2041,"ences":2042,"ĠOne":2043,"Ð°ÑĤÑĮÑģÑı":2044,"ĠHer":2045,"esent":2046,"ĠÐŀÐ±ÑĢÐ°ÑĤ":2047,"Ġ16":2048,"ĠÐĿÐ°":2049,"Ġmonth":2050,"ĠÑģÐ²ÑıÐ·ÑĮ":2051,"ĠMenu":2052,"ĠTax":2053,"ÐŁ":2054,"ains":2055,"ĠÐŀÐ±ÑĢÐ°ÑĤÐ½Ð°Ñı":2056,"ÑĢÑĥÐ·Ð¸ÑĤÑĮ":2057,"Ġstud":2058,"Ġfire":2059,"ĠFood":2060,"Ġdon":2061,"ĠÐĶÐĿÐļ":2062,"ĠIf":2063,"ĠGED":2064,"Ð¾ÑĩÐ½Ð¸ÐºÐ°":2065,"ĠÑģÐ¿ÑĢÐ°Ð²Ð¾ÑĩÐ½Ð¸ÐºÐ°":2066,"ĠGEDCOM":2067,"ÑħÐ¾Ð´":2068,"Ð¾Ð²Ð°ÑĤÑĮÑģÑı":2069,"FS":2070,"Ð¾Ð³Ð»Ð°ÑĪ":2071,"arr":2072,"ĠPun":2073,"ourt":2074,"ÑīÐ¸Ñħ":2075,"Ġadv":2076,"ĠCor":2077,"ised":2078,"Ġwant":2079,"ĠMay":2080,"ween":2081,"Ð½Ð¾Ð¹":2082,"uls":2083,"Ġown":2084,"ĠPicks":2085,"Ġdays":2086,"elebr":2087,"hicle":2088,"Ġsk":2089,"Ġbusiness":2090,"ĠPrem":2091,"Ġlong":2092,"ĠCent":2093,"://":2094,"ĠÐ¿ÐµÑĢ":2095,"ala":2096,"ĠTechnology":2097,"urrent":2098,"ĠÐļÐ¾Ð¼Ð¼ÐµÐ½ÑĤÐ°ÑĢÐ¸Ð¸":2099,"Ġelect":2100,"ĠMLB":2101,"Ġcol":2102,"Ġfederal":2103,"Ð°Ñħ":2104,"ĠPet":2105,"ÑĥÑģ":2106,"ĠUse":2107,"ruct":2108,"ĠÐŁÐ¾ÐºÐ°Ð·Ð°ÑĤÑĮ":2109,"oor":2110,"ĠÑĨ":2111,"Ġtoday":2112,"ior":2113,"ift":2114,"Ð¾ÑģÐ»":2115,"à¥":2116,"Ġ[":2117,"ĠFeat":2118,"Ð²ÐµÑĤ":2119,"ĠÐĵÐ»Ð°Ð²":2120,"ĠVal":2121,"Ð¿Ð»":2122,"ÑĩÐ°ÑģÑĤÐ½Ð¸Ðº":2123,"ĠRepublic":2124,"ĠInformation":2125,"iffs":2126,"ved":2127,"itical":2128,"ret":2129,"ble":2130,"ĠAng":2131,"my":2132,"ĠHere":2133,"ĠWhy":2134,"ĠLinked":2135,"24":2136,"ĠIndian":2137,"ources":2138,"gest":2139,"Ġchar":2140,"TS":2141,"ĠAdv":2142,"ĠPodcast":2143,"elf":2144,"ĠReal":2145,"´ì":2146,"ĠGames":2147,"ĠExpl":2148,"load":2149,"Ġexp":2150,"ttps":2151,"uel":2152,"ĠSatur":2153,"ÐµÐºÑģ":2154,"Ġwebs":2155,"FC":2156,"ener":2157,"ĠVe":2158,"Ġaccess":2159,"Ð¾Ð³Ð»Ð°ÑĪÐµÐ½Ð¸Ðµ":2160,"ĠPart":2161,"Ġbig":2162,"EL":2163,"Ġfe":2164,"ef":2165,"ĠNBC":2166,"US":2167,"ĠThey":2168,"Ġdata":2169,"ĠPrograms":2170,"Ġ23":2171,"ancial":2172,"ĠUnder":2173,"ĠVir":2174,"ĠTimes":2175,"Ġcar":2176,"ÐµÑĤÐ¸":2177,"ides":2178,"ĠSaturday":2179,"ĠBre":2180,"Th":2181,"Ġrece":2182,"ĠÐ±ÑĥÐ´ÐµÑĤ":2183,"ĠEnvironment":2184,"vailable":2185,"ced":2186,"ĠDirect":2187,"ĠArts":2188,"ds":2189,"Ġ201":2190,"ĠCalif":2191,"ĠâĤ":2192,"Ġmade":2193,"ĠStock":2194,"ĠDonation":2195,"Ġ17":2196,"Ġ25":2197,"UTC":2198,"ĠPower":2199,"cast":2200,"ĠStocks":2201,"ĠInvestig":2202,"Ð´Ñĥ":2203,"ĠArt":2204,"ĠRed":2205,"ĠHouse":2206,"ĠCounty":2207,"ized":2208,"wards":2209,"ĠAM":2210,"Ġ22":2211,"ĠOver":2212,"Ñĳ":2213,"ĠFA":2214,"Ġhttps":2215,"Ġsecond":2216,"aram":2217,"ÐĽ":2218,"Ð¾ÑĢÐ¾Ð²":2219,"rain":2220,"Ġfund":2221,"ĠUniversity":2222,"ĠÐŁÐ¾Ð´Ð¿Ð¸Ñģ":2223,"IS":2224,"Ġend":2225,"Ġcoll":2226,"erts":2227,"ĠPat":2228,"ÐºÐ°Ð·":2229,"Ð¾Ð¼ÐµÐ½Ð´":2230,"Ð¾ÑĢÑĤ":2231,"ĠEst":2232,"ÑĨÐ¸":2233,"ÑĥÐ»ÑıÑĢ":2234,"ĠNext":2235,"Ġred":2236,"ĠMonth":2237,"ner":2238,"Ġrun":2239,"Ġbetween":2240,"Ð»Ð°Ð¼":2241,"Ġsuch":2242,"Ġstory":2243,"ĠFirst":2244,"ĠAdvertisement":2245,"ators":2246,"oma":2247,"idd":2248,"heast":2249,"31":2250,"iam":2251,"wood":2252,"ĠMemb":2253,"Ġannoun":2254,"CH":2255,"ornia":2256,"Ð°ÑĤÐµÐ»ÑĮÐ½ÑĭÐµ":2257,".,":2258,"rest":2259,"ush":2260,"press":2261,"Ð¸Ð½Ð°":2262,"ĠInf":2263,"Ðĵ":2264,"lish":2265,"ĠÐľÐ¾":2266,"Ð¸Ð·Ð½":2267,"Ġcompany":2268,"Ġrequ":2269,"omin":2270,"Ġinv":2271,"Ð¾ÑģÑĤÑĮ":2272,"oints":2273,"partment":2274,"ored":2275,"ĠMc":2276,"ĠWeb":2277,"akistan":2278,"ĠÐ½Ð¾Ð²":2279,"ĠBar":2280,"Ġshar":2281,"ying":2282,"ĠÐŁÐ¾Ð´Ð¿Ð¸ÑģÐ°ÑĤÑĮÑģÑı":2283,"Ġ13":2284,"ĠGovernment":2285,"ering":2286,"ĠFeed":2287,"Ġlist":2288,"ĠStart":2289,"Ġprom":2290,"ĠET":2291,"Ġmedia":2292,"Ġbas":2293,"anies":2294,"ĠFM":2295,"ID":2296,"lear":2297,"Ġbest":2298,"ĠTraffic":2299,"Ð¾Ð¼ÐµÐ½Ð´Ð°ÑĤÐµÐ»ÑĮÐ½ÑĭÐµ":2300,"Ð¾Ð¿ÑĥÐ»ÑıÑĢ":2301,"Ð´Ð°ÐµÐ¼":2302,"ditions":2303,"ĠPost":2304,"Ġcare":2305,"Ġkill":2306,"Ġleg":2307,"ĠSocial":2308,"ecutive":2309,"ĠCalifornia":2310,"22":2311,"à´ķ":2312,"ÑīÐ¸ÑħÑģÑı":2313,"ĠÐŀÐ±ÑģÑĥÐ¶Ð´Ð°ÐµÐ¼":2314,"AS":2315,"uman":2316,"ĠSan":2317,"war":2318,"isit":2319,"ĠCheck":2320,"ĠAct":2321,"lick":2322,"ĠBook":2323,"hips":2324,"ĠShows":2325,"Ġgoing":2326,"ÐµÑĩ":2327,"Ġop":2328,"ĠUnion":2329,"ĠFlor":2330,"Ġprof":2331,"ĠÐ¸ÑģÐ¿":2332,"ĠPakistan":2333,"ĠPR":2334,"à´¾":2335,"pert":2336,"la":2337,"Ġec":2338,"ĠCO":2339,"ampa":2340,"ajor":2341,"ĠÐ¨":2342,"red":2343,"ĠClose":2344,"book":2345,"oes":2346,"ÑĨÐ¸Ð¸":2347,"Ġreserved":2348,").":2349,"imate":2350,"ĠGive":2351,"ĠÐ¿Ð¾Ð»":2352,"Ġadministration":2353,"ĠUnited":2354,"Ð°ÑĢÑĤ":2355,"ĠSpecial":2356,"amer":2357,"ĠMich":2358,"Ġreturn":2359,"for":2360,"ĠÐłÐ¾ÑģÑģÐ¸Ð¸":2361,"ĠCons":2362,"Ġgood":2363,"igation":2364,"ĠAf":2365,"ĠDet":2366,"ĠÑģÐ°Ð¼":2367,"rap":2368,"ĠBow":2369,"ips":2370,"Ġseason":2371,"Ġprogram":2372,"ÐºÐ¾":2373,"Ġmain":2374,"Ġstill":2375,"ĠÐ´ÐµÐ»":2376,"ĠMag":2377,"Ġmod":2378,"Ġprot":2379,"Ġext":2380,"ico":2381,"ĠÐŁÐµÑĢ":2382,"TA":2383,"Ġset":2384,"ĠÐºÐ¾Ð¼Ð¼ÐµÐ½ÑĤÐ°ÑĢÐ¸Ð¸":2385,"Ġhead":2386,"Ġbecause":2387,"Ġopen":2388,"ampions":2389,"ody":2390,"ĠDes":2391,"ĠOther":2392,"ails":2393,"ÐµÑģÑĮ":2394,"ĠHead":2395,"Ġgame":2396,"ĠEvent":2397,"inks":2398,"ids":2399,"ĠÐŁÐ¾Ð¿ÑĥÐ»ÑıÑĢ":2400,"ĠFlorida":2401,"Ġaff":2402,"Ġsup":2403,"Ġwrit":2404,"Ġincre":2405,"hind":2406,"to":2407,"ĠSee":2408,"ĠWhen":2409,"Ġdoes":2410,"ypt":2411,"icon":2412,"ĠPrice":2413,"olf":2414,"Ġright":2415,"Ð°Ð½Ð°":2416,"Ġexpect":2417,"obs":2418,"ha":2419,"onom":2420,"ptions":2421,"Ġcommunity":2422,"UN":2423,"par":2424,"ĠNEW":2425,"Ð³ÑĢ":2426,"ama":2427,"ulsa":2428,"Ġmov":2429,"à´¨":2430,"Ġdiff":2431,"ĠKar":2432,"ĠDownload":2433,"Ġway":2434,"cess":2435,"Ð¸Ñİ":2436,"ĠDigital":2437,"Ð¸ÐºÐ¸":2438,"AL":2439,"me":2440,"uru":2441,"ĠDFS":2442,"Ð¾Ð²Ð¾Ð¹":2443,"ĠRights":2444,"ĠOk":2445,"sp":2446,"Ġtax":2447,"ĠTH":2448,"ÐµÐ³Ð¾":2449,"ospital":2450,"AP":2451,"aun":2452,"ĠPer":2453,"ĠWed":2454,"ateg":2455,"yp":2456,"Ġed":2457,"ĠRs":2458,"uture":2459,"Ġwithout":2460,"scri":2461,"Ġkey":2462,"olut":2463,"Ġstories":2464,"ÑĢÐ°ÑĦ":2465,"ees":2466,"ĠArch":2467,"ĠÐĺÐ·":2468,"yn":2469,"lex":2470,"Ġsite":2471,"Ġsystem":2472,"gin":2473,"ize":2474,"ĠGuide":2475,"ĠPhoto":2476,"ĠMov":2477,"âĢĶ":2478,"iles":2479,"Ġmuch":2480,"ashed":2481,"ĠMembership":2482,"ĠÑģÑĤÐ°ÑĤÑĮÐ¸":2483,"ĠJoh":2484,"ĠPersonal":2485,"ĠDem":2486,"ĠBay":2487,"Ġ21":2488,"ĠPhotos":2489,"oan":2490,"àµģ":2491,"Ġsoc":2492,"ĠComm":2493,"ortheast":2494,"ears":2495,"enef":2496,"ĠLos":2497,"ÑĢÐ°Ð¼":2498,"Ġboth":2499,"Ġlocal":2500,"utes":2501,"ĠÑĢÐ°Ð·":2502,"ĠLead":2503,"ple":2504,"ued":2505,"Ġpower":2506,"ĠSkip":2507,"WE":2508,"ĠPeople":2509,"ĠWomen":2510,"Ġbre":2511,"agement":2512,"Ġ50":2513,"ĠWhite":2514,"orts":2515,"ĠLife":2516,"co":2517,"ĠMet":2518,"Ð¾Ð²Ð°":2519,"ĠHel":2520,"ĠÑĢÐ°Ð±Ð¾ÑĤ":2521,"ĠLeg":2522,"erst":2523,"ĠAccess":2524,"ĠStand":2525,"ccess":2526,"Ġacross":2527,"aid":2528,"ĠTar":2529,"ĠDav":2530,"Ġfac":2531,"thing":2532,"ĠLinkedIn":2533,"'re":2534,"ĠAmerica":2535,"ÐµÐ½Ð¸Ð¹":2536,"ĠCalcul":2537,"ÑĢÐ¾":2538,"ĠÐ£ÐºÑĢÐ°":2539,"Ġupd":2540,"Ġsince":2541,"Ġ27":2542,"Ġthink":2543,"ĠÐ±Ñĭ":2544,"Ġrespons":2545,"Ġhours":2546,"work":2547,"Ġappro":2548,"ĠÐºÐ¾Ð½ÑĦ":2549,"ĠÐĵÐ»Ð°Ð²Ð½Ð°Ñı":2550,"Ġweather":2551,"ĠMex":2552,"Ð¾Ð²Ð°Ð½Ð¸Ñı":2553,"ĠAb":2554,"ĠRules":2555,"ĠPremium":2556,"aim":2557,"Ġpar":2558,"ÐµÐ±":2559,"ĠBack":2560,"ĠÑĢÐµÐº":2561,"ea":2562,"rict":2563,"Ð¸ÑģÐº":2564,"Ġvi":2565,"ĠAustral":2566,"ĠWN":2567,"obile":2568,"Ġlink":2569,"head":2570,"ves":2571,"itu":2572,"ĠEstate":2573,"ÑĤÐµ":2574,"LE":2575,"Ġ2022":2576,"ended":2577,"ĠVehicle":2578,"ern":2579,"ĠFree":2580,"ĠEconomy":2581,"ily":2582,"St":2583,"unt":2584,"ĠAngel":2585,"ony":2586,"ĠResults":2587,"Ð±Ð¾ÑĢ":2588,"ĠPlaying":2589,"Ð¾Ñī":2590,"araman":2591,"be":2592,"Ġaccording":2593,"ĠSund":2594,"Ġlatest":2595,"Ġaccount":2596,"ĠÐ¸ÑģÐ¿Ð¾Ð»ÑĮÐ·":2597,"oices":2598,"ĠðŁ":2599,"Ġfound":2600,"anta":2601,"ĠFinance":2602,"ged":2603,"ection":2604,"alys":2605,"ino":2606,"ota":2607,"Ġicon":2608,"ĠProm":2609,"ival":2610,"ĠIncome":2611,"ĠElection":2612,"ustom":2613,"ĠMorning":2614,"duct":2615,"ÑıÑĤÑĮ":2616,"ĠId":2617,"itharaman":2618,"ĠDonald":2619,"ores":2620,"23":2621,"opter":2622,"ĠSponsors":2623,"ĠStr":2624,"ĠRSS":2625,"appen":2626,"Ð»ÐµÐ½Ð¸Ñı":2627,"off":2628,"ĠJoin":2629,"ĠInternational":2630,"Ġreal":2631,"bor":2632,"ways":2633,"Ð»Ð°ÑģÑĤ":2634,"ĠContest":2635,"ĠSitharaman":2636,"abad":2637,"portun":2638,"ĠWWE":2639,"ĠÐ¿Ð¾ÑģÑĤ":2640,"ĠÐ¾Ñģ":2641,"Ġsmall":2642,"Ġide":2643,"Ġthen":2644,"Ġnext":2645,"Ġrest":2646,"ually":2647,"Ġear":2648,"ĠMap":2649,"ĠIP":2650,"ĠRet":2651,"Ġsocial":2652,"We":2653,"atter":2654,"ĠWho":2655,"ided":2656,"Ġspe":2657,"ĠBec":2658,"anding":2659,"ague":2660,"ĠUSD":2661,"BI":2662,"Ġlar":2663,"ĠThere":2664,"ĠBowl":2665,"Ġfour":2666,"Ġeconom":2667,"writ":2668,"ÑĢÐµÐ¼":2669,"ĠSen":2670,"Ġtrad":2671,"ĠìĿ":2672,"Ġfilm":2673,"ĠChampions":2674,"ĠBig":2675,"Ġob":2676,"ĠBeng":2677,"AI":2678,"ĠÐ¸Ð»Ð¸":2679,"Ġfr":2680,"Ġmom":2681,"ained":2682,"Ġcountry":2683,"ĠArticles":2684,"ÉĻ":2685,"aster":2686,"mig":2687,"iting":2688,"Ð¼ÐµÐ½":2689,"Ġvery":2690,"Ġsl":2691,"Ġhelic":2692,"Ð°Ð½Ð¸Ð¸":2693,"MA":2694,"Ð¸ÑĤÑģÑı":2695,"Ð½ÑĤ":2696,"oman":2697,"acks":2698,"ĠCrypt":2699,"Ð¸ÑĤÑĮÑģÑı":2700,"hood":2701,"Ð°Ð»Ð¸Ð·":2702,"iat":2703,"Ġauthor":2704,"Ġtold":2705,"ÐµÐ´Ð°Ðº":2706,"Ð¸Ð±":2707,"otential":2708,"ĠÐ²ÑģÐµ":2709,"ĠPort":2710,"ĠSte":2711,"ÐµÑĢÐ¾":2712,"ÐµÐ²Ð¸Ñĩ":2713,"eigh":2714,"ÐµÐµ":2715,"ĠNortheast":2716,"ÑĥÐ¼":2717,"ashion":2718,"ĠWays":2719,"letter":2720,"RI":2721,"ĠEmploy":2722,"ĠColum":2723,"Ġoper":2724,"Ġperform":2725,"edict":2726,"Ġlife":2727,"ara":2728,"ĠTele":2729,"Ġfind":2730,"Ġvide":2731,"ĠUpdates":2732,"âĢĵ":2733,"ÑĮÐµ":2734,"krain":2735,"inc":2736,"ison":2737,"ĠRank":2738,"ols":2739,"ÑĮÑı":2740,"ĠDef":2741,"ĠNEWS":2742,"Ð´ÑĢ":2743,"ĠStory":2744,"Ð²ÐµÑĤÑģÑĤÐ²":2745,"ĠChr":2746,"ĠSust":2747,"ention":2748,"lywood":2749,"year":2750,"ÑģÐ»Ð¸":2751,"Ġsom":2752,"Ġschool":2753,"ĠFest":2754,"ĠÐĴÐ¾Ð¹":2755,"Ġmeet":2756,"ĠImages":2757,"Ð°ÑĨÐ¸Ñı":2758,"26":2759,"aries":2760,"aving":2761,"ĠBasketball":2762,"Ġ200":2763,"ÑĨÐ¸Ð°Ð»ÑĮ":2764,"ĠGen":2765,"ĠSuper":2766,"àª":2767,"err":2768,"ĠCalculator":2769,"ke":2770,"ĠÐ¼Ð¸ÑĢ":2771,"cle":2772,"sh":2773,"ÑĢÐ¸ÑĤ":2774,"ogle":2775,"ww":2776,"Ġpos":2777,"ĠDraft":2778,"ÐµÑĪ":2779,"Ð³Ð¸":2780,"ians":2781,"à´¤":2782,"augh":2783,"ĠEast":2784,"ather":2785,"ĠGroup":2786,"ÐµÑĢÑĭ":2787,"irl":2788,"ĠCareers":2789,"ĠCook":2790,"Ġarticle":2791,"ren":2792,"Ġfeat":2793,"vious":2794,"oto":2795,"ĠAngeles":2796,"ìĿ":2797,"ively":2798,"ĠMoney":2799,"ÐºÐ¾Ð²":2800,"Ġtariffs":2801,"ĠAut":2802,"ocu":2803,"ĠÐłÐµÐºÐ»Ð°Ð¼":2804,"ÐµÑĢÑĤ":2805,"rug":2806,"Ð¨":2807,"ĠTex":2808,"ills":2809,"Ġsaf":2810,"Ġcent":2811,"Ġdem":2812,"ĠAnnoun":2813,"Ġ199":2814,"ĠMeet":2815,"Ġ100":2816,"rael":2817,"ÑĥÐ»ÑĮ":2818,"RA":2819,"ning":2820,"ĠLear":2821,"ĠWork":2822,"Ġgrowth":2823,"ĠOnline":2824,"ĠMatch":2825,"ĠDC":2826,"Ġgreat":2827,"à´¯":2828,"Ġcomment":2829,"ĠAirport":2830,"LL":2831,"ING":2832,"ĠStay":2833,"jab":2834,"ĠPublished":2835,"Ġ28":2836,"15":2837,"OT":2838,"ĠPal":2839,"Ġwomen":2840,"ĠÐ´Ð°Ð½":2841,"umbai":2842,"ĠEconomic":2843,"World":2844,"ION":2845,"RE":2846,"ĠGlobal":2847,"ird":2848,"ags":2849,"Ġmemb":2850,"Ġform":2851,"encies":2852,"Ġcomplet":2853,"oon":2854,"thers":2855,"mitt":2856,"scription":2857,"Ġref":2858,"ĠFound":2859,"ÑħÑĢÐ°Ð½":2860,"ÑıÑħ":2861,"Ġvia":2862,"ĠFind":2863,"Ġmillion":2864,"ĠStates":2865,"Ð¾Ð¼Ð¾Ñī":2866,"ĠApps":2867,"Ð°Ð»ÑĮÐ½Ð¾Ð³Ð¾":2868,"Ġservice":2869,"Ġexperience":2870,"roadcast":2871,"imited":2872,"Ġenter":2873,"ession":2874,"ĠHor":2875,"ĠBengal":2876,"ĠSong":2877,"ĠPop":2878,"ability":2879,"ĠContests":2880,"ĠForecast":2881,"Ġ88":2882,"Ġclass":2883,"ature":2884,"ÐµÐ½ÑĤÐ°":2885,"Ð¸Ð´ÐµÐ½":2886,"Ġhappen":2887,"lications":2888,"Ġarea":2889,"ĠWhile":2890,"Ġallow":2891,"Ð»Ð°ÑĤ":2892,"ieve":2893,"eer":2894,"ource":2895,"ĠKh":2896,"Ð¿ÑĢÐ¾":2897,"ev":2898,"ani":2899,"Ð°Ð»Ð°":2900,"ords":2901,"ring":2902,"isk":2903,"Ġbudget":2904,"ĠDepartment":2905,"Ġanother":2906,"ĠÐ¤ÐµÐ´":2907,"iety":2908,"ĠMumbai":2909,"ĠÑĢÐ°Ñģ":2910,"Ġpolicy":2911,"ĠÐ¥":2912,"ÑĭÐ¹":2913,"ĠKV":2914,"Ġdead":2915,"Ġquest":2916,"oud":2917,"ĠCredit":2918,"ĠMexico":2919,"paper":2920,"ĠÑĪ":2921,"Ġhelicopter":2922,"ĠUkrain":2923,"ger":2924,"ÑĢÐµÐ²":2925,"isc":2926,"anda":2927,"iqu":2928,"Ð²Ð°Ð½":2929,"order":2930,"ĠCities":2931,"ises":2932,"ĠÑĤÐµÑĢ":2933,"Ġsim":2934,"ĠChina":2935,"Ġcook":2936,"gress":2937,"Ð¸Ð·Ð½ÐµÑģ":2938,"Ġdiffer":2939,"ĠRock":2940,"Ġ29":2941,"ades":2942,"ĠVol":2943,"ham":2944,"Ġsever":2945,"ĠElections":2946,"Ã©":2947,"ĠÑĦÐ¾ÑĢÐ¼":2948,"Ġfamily":2949,"ches":2950,"ĠRob":2951,"Ġstar":2952,"Ð£":2953,"Ġent":2954,"ĠOffice":2955,"rup":2956,"Ð¸ÑĤÐµÐ»ÑĮ":2957,"oo":2958,"osc":2959,"ÐµÐ½ÑĮ":2960,"Ġwind":2961,"ĠÐ·Ð½":2962,"ÐµÐ´Ð¸":2963,"ĠÐ°Ð½":2964,"uts":2965,"ĠDist":2966,"ĠDeep":2967,"ÐµÐ½Ñı":2968,"ago":2969,"ogn":2970,"ÑİÑĤÑģÑı":2971,"Ġinvol":2972,"ne":2973,"ones":2974,"Ġequ":2975,"Ġreported":2976,"Ġrele":2977,"Ġwin":2978,"ĠForm":2979,"Ġmiss":2980,"ÐµÐ½Ñĭ":2981,"ultip":2982,"Ġrespond":2983,"ĠWednes":2984,"Ð½Ñı":2985,"ĠPrint":2986,"Ð¸ÑĩÐµ":2987,"ĠLaw":2988,"Ġcompanies":2989,"ĠIsrael":2990,"Ð»Ð¾Ð³":2991,"à´¾âĢĭ":2992,"ĠÐĴÐ¾Ð¹ÑĤÐ¸":2993,"Ð¾Ð³ÑĢÐ°ÑĦ":2994,"Ġused":2995,"Ġwebsite":2996,"Ġmus":2997,"ipp":2998,"ĠRegional":2999,"ÑıÐ¼":3000,"ĠReviews":3001,"abor":3002,"ĠÑĥÐ»":3003,"ÑģÐ»ÐµÐ´":3004,"ĠAssoci":3005,"Ð¿ÑĢÐ¾ÐµÐºÑĤ":3006,"ries":3007,"Ġpick":3008,"ĠEur":3009,"ĠWednesday":3010,"alt":3011,"ĠThurs":3012,"Ġpresident":3013,"ĠÐ¦":3014,"Ġcover":3015,"ently":3016,"Ġdist":3017,"Ð°Ð¼Ð¸":3018,"ĠÐĴÐµÐ»":3019,"11":3020,"ma":3021,"ĠMod":3022,"Ð¾Ð²Ð¾ÑĢ":3023,"ĠHis":3024,"ĠGreen":3025,"eath":3026,"ĠÑĥÑģÐ»":3027,"ĠTenn":3028,"wa":3029,"Ġpat":3030,"Ġconcer":3031,"DA":3032,"Ðĳ":3033,"ĠJobs":3034,"ĠÑģÐ¾Ð·":3035,"une":3036,"Ġconfirm":3037,"ĠStudio":3038,"Ð¸Ð´ÐµÐ½ÑĨÐ¸Ð°Ð»ÑĮ":3039,"ĠTulsa":3040,"Ġpur":3041,"ĠHaw":3042,"Ġ2021":3043,"ĠCentral":3044,"ĠÐºÐ¾Ð½ÑĦÐ¸Ð´ÐµÐ½ÑĨÐ¸Ð°Ð»ÑĮ":3045,"ĠCelebr":3046,"ÐµÐ½Ð½Ð¾":3047,"ready":3048,"\",":3049,"ÑĤÐ¾ÑĢ":3050,"Ġpop":3051,"ĠÐºÐ¾Ð½ÑĦÐ¸Ð´ÐµÐ½ÑĨÐ¸Ð°Ð»ÑĮÐ½Ð¾ÑģÑĤÐ¸":3052,"Ð°Ð»Ð¾Ð³":3053,"ĠMinnes":3054,"ĠÐ¸ÑģÐ¿Ð¾Ð»ÑĮÐ·Ñĥ":3055,"Ġwatch":3056,"ĠWild":3057,"Ġmust":3058,"imin":3059,"Ġtri":3060,"ÑģÐºÐ¾Ðµ":3061,"Ġaddress":3062,"ĠMinnesota":3063,"77":3064,"ĠBio":3065,"Ġ2020":3066,"ler":3067,"ĠSU":3068,"Ġclear":3069,"ĠRelated":3070,"ĠGas":3071,"Ġpress":3072,"ĠÐ´Ð¸":3073,"ically":3074,"mon":3075,"ĠÐ²ÑĭÐ±":3076,"ĠÃ":3077,"rop":3078,"ĠÐłÐ°Ñģ":3079,"Ġperson":3080,"aur":3081,"ĠSC":3082,"ÐµÐ½Ðµ":3083,"merg":3084,"Ð¾Ð¼Ð¾ÑīÑĮ":3085,"Ġfact":3086,"ÐºÐµ":3087,"ĠHy":3088,"Ġnight":3089,"ĠÐĹÐ°Ðº":3090,"ĠÐ¾Ð±Ð»Ð°ÑģÑĤ":3091,"íķ":3092,"Ġpay":3093,"ado":3094,"ĠÐ¿Ð¾ÑģÐ»":3095,"atic":3096,"ĠTri":3097,"Ġthough":3098,"ĠÐĹÐ°Ð³":3099,"ĠFashion":3100,"Ġkn":3101,"Ġchild":3102,"Ġevent":3103,"itness":3104,"Ġmove":3105,"ĠProject":3106,"Ð°Ð·Ð°":3107,"mar":3108,"ĠCode":3109,"iven":3110,"Ġissues":3111,"alysis":3112,"mp":3113,"rast":3114,"Ġsent":3115,"Ġmem":3116,"ĠGiving":3117,"ĠExp":3118,"Ġcor":3119,"ĠÑĤÑĢ":3120,"Ġcrashed":3121,"36":3122,"````":3123,"ĠABC":3124,"ĠGood":3125,"ĠJournal":3126,"EC":3127,"Ġpotential":3128,"ivate":3129,"ĠCourt":3130,"Ġmilitary":3131,"irmala":3132,"ĠSunday":3133,"eter":3134,"ĠShar":3135,"ĠÐĴÐµÐ»Ð¸Ðº":3136,"itive":3137,"ĠCover":3138,"Ġmaking":3139,"à´°":3140,"ÐµÑĤÐ°":3141,"ĠThursday":3142,"ĠMagaz":3143,"lah":3144,"ĠAdd":3145,"ÐµÑģÑĤÐ°":3146,"ĠSI":3147,"Ġmajor":3148,"ocr":3149,"ĠÐ²Ð¾":3150,"ĠQuick":3151,"ĠAccount":3152,"Ð½ÐµÑĢ":3153,"Ġsuccess":3154,"ĠCompany":3155,"ĠÑģÐ¾Ð·Ð´":3156,"pro":3157,"vey":3158,"ultiple":3159,"ĠST":3160,"lement":3161,"ĠKL":3162,"17":3163,"Ġtrade":3164,"ĠCrime":3165,"ĠÐĺÑģÑĤÐ¾ÑĩÐ½Ð¸Ðº":3166,"Ġfull":3167,"ĠMint":3168,"ĠOklah":3169,"Ġpoints":3170,"ogs":3171,"Ð¨ÐĲ":3172,"ĠNirmala":3173,"ĠOklahoma":3174,"ĠSanta":3175,"Ġ03":3176,"ÑĥÑİÑī":3177,"Ġmembers":3178,"by":3179,"icago":3180,"Ġfocus":3181,"ĠÐ½Ð°ÑĢ":3182,"ya":3183,"ening":3184,"ĠAfric":3185,"ĠPlease":3186,"ÐµÐ½Ð°":3187,"ĠÐ¡Ð¨ÐĲ":3188,"ĠClub":3189,"ĠJohn":3190,"ÐµÑĨ":3191,"ĠMost":3192,"Ġhost":3193,"ĠStar":3194,"Ġpartic":3195,"ĠÑįÑĤÐ¾Ð¹":3196,"Ġcurrent":3197,"Ð²Ð¾Ð¹":3198,"Ð°Ð½Ð¸Ð¹":3199,"ĠChicago":3200,"Ġproduc":3201,"02":3202,"aces":3203,"ĠKnow":3204,"Ġplace":3205,"ĠÑĤÐ°Ðº":3206,"nov":3207,"alls":3208,"Ġprocess":3209,"ĠÐºÑĥ":3210,"Ġask":3211,"ĠPass":3212,"Ġstock":3213,"à´Ł":3214,"ĠEngland":3215,"ĠRankings":3216,"light":3217,"ĠÑħ":3218,"ĠAwards":3219,"Ġfuture":3220,"ĠÐĳÐ»Ð¾Ð³":3221,"Ġwr":3222,"ĠÐĵÐµ":3223,"ÑĥÑĢÑģÐµ":3224,"amb":3225,"ĠIndustry":3226,"name":3227,"Ġcomments":3228,"Ġfinancial":3229,"ĠHelp":3230,"ĠKLCC":3231,"eighbor":3232,"Ġturn":3233,"ĠAtt":3234,"Ġhistory":3235,"ĠTake":3236,"Ġpm":3237,"Ġval":3238,"ÑĦÐµÑģÑģ":3239,"ĠÐ¸Ð½Ð´":3240,"Ġdeliver":3241,"Ġkilled":3242,"ĠÐĲÐ½":3243,"ined":3244,"ĠEvery":3245,"Ġavailable":3246,"ÑĢÐ°Ð»":3247,"Ġreally":3248,"ÐĲÐ¢":3249,"epend":3250,"ental":3251,"used":3252,"ĠÐ¿Ð°Ð¼":3253,"ĠÑĢÐµÐ´Ð°Ðº":3254,"ĠÑįÑĤÐ°":3255,"ĠTexas":3256,"ĠRoad":3257,"ÑĥÑĤÑĮ":3258,"ĠSy":3259,"ĠÐľÑĭ":3260,"ĠComment":3261,"ĠÐķÑģÐ»Ð¸":3262,"ĠDecember":3263,"Seek":3264,"box":3265,"Ġposs":3266,"ĠReview":3267,"Ð¸ÑĢÐ¾Ð²Ð°ÑĤÑĮÑģÑı":3268,"ĠSecurity":3269,"ĠÑĢÐ°Ð±Ð¾ÑĤÑĭ":3270,"ĠInt":3271,"ĠEnergy":3272,"ÑīÐµÑģÑĤÐ²":3273,"ĠBengaluru":3274,"ĠSa":3275,"Ġcase":3276,"Ġlot":3277,"ĠÐ½Ð°ÑħÐ¾Ð´":3278,"ĠÐĶÐ¾Ð±Ð°Ð²Ð¸ÑĤÑĮ":3279,"Ġìł":3280,"ê°":3281,"arter":3282,"ĠÑĥÑĩÐ°ÑģÑĤÐ½Ð¸Ðº":3283,"ÑĥÐ»ÑĮÑĤ":3284,"ĠÐ½Ð°Ð¶":3285,"ĠÐ¼Ð°ÑĤ":3286,"Ġimport":3287,"ived":3288,"Ð¼Ð¸ÑĤÐµ":3289,"ify":3290,"ĠMad":3291,"Ð¾ÑĢÐ¾Ð²ÑĮÐµ":3292,"ware":3293,"ops":3294,"akers":3295,"Ġplan":3296,"ÐµÐ¼Ð¿":3297,"Ġalong":3298,"craft":3299,"ĠAc":3300,"ĠMobile":3301,"ille":3302,"Ġnational":3303,"ĠÐºÐ½":3304,"Ð°Ð¹ÑĤÐ¸":3305,"Ġart":3306,"EM":3307,"ÑıÑĤÐ¸":3308,"ĠÐ¸Ñģ":3309,"ude":3310,"ensive":3311,"ĠSmall":3312,"ĠÑĥÐ»ÑĥÑĩÑĪ":3313,"Ġeach":3314,"ĠEurope":3315,"Ġest":3316,"Ġfacebook":3317,"Ð¾ÑĤÐ²ÐµÑĤÑģÑĤÐ²":3318,"Ġagree":3319,"rew":3320,"ĠJustice":3321,"ĠEmployment":3322,"Ġsect":3323,"ething":3324,"Ġput":3325,"Ġshort":3326,"ĠEdition":3327,"Ð½Ð¾Ñģ":3328,"ĠÐ²Ð¾Ð·":3329,"ÑģÐºÐ¾Ð³Ð¾":3330,"ĠÐ²ÑĭÐ³":3331,"ĠÐºÐ¾Ð¼Ð¿":3332,"ĠSil":3333,"ected":3334,"Ġ04":3335,"ĠÑĥÐºÐ°Ð·":3336,"ael":3337,"Ð°Ð²ÐµÑĢ":3338,"It":3339,"ĠLoan":3340,"Ġformer":3341,"ĠMarch":3342,"dds":3343,"ĠSing":3344,"ĠMot":3345,"Ġ26":3346,"cept":3347,"Ð°Ð½Ð½ÑĭÐµ":3348,"ĠÑģÐ¾Ð¾ÑĤÐ²ÐµÑĤÑģÑĤÐ²":3349,"Ġfive":3350,"ĠÐ¢Ð°ÑĢ":3351,"CAA":3352,"mil":3353,"Ð¾ÑĢÐ¸Ð¸":3354,"ĠAmaz":3355,"ĠHeadlines":3356,"ÑĦÐµÑģÑģÐ¸Ð¾Ð½":3357,"Ġleast":3358,"ĠÐ³ÐµÑĢÐ¾":3359,"39":3360,"Ð¾Ñĥ":3361,"ĠÑģÐ¾ÑħÑĢÐ°Ð½":3362,"Ġofficials":3363,"Ð¸ÑĦÑĢ":3364,"ĠRussian":3365,"ĠExplore":3366,"ĠÐ½Ð°Ð¶Ð¼Ð¸ÑĤÐµ":3367,"Ð¸Ð»Ð°":3368,"Ġpolice":3369,"ĠUpdate":3370,"ĠSal":3371,"aged":3372,"ĠContent":3373,"ĠProf":3374,"ita":3375,"Ġlevel":3376,"Ð¿Ð»Ð¾Ð¼":3377,"last":3378,"ĠLine":3379,"ĠConcer":3380,"ĠServices":3381,"til":3382,"Ġnum":3383,"Ġclos":3384,"ta":3385,"ĠSch":3386,"udge":3387,"ĠDeepSeek":3388,"Ġindustry":3389,"ges":3390,"ĠNCAA":3391,"ĠÐĹÐ´Ð¾ÑĢÐ¾Ð²ÑĮÐµ":3392,"Ð¸ÑģÐºÐ¸":3393,"Ð»Ð°ÑĤÑĦÐ¾ÑĢÐ¼":3394,"ici":3395,"li":3396,"ĠÐ´Ð¸Ð¿Ð»Ð¾Ð¼":3397,"ĠÑĥÑĩÐ°ÑģÑĤÐ½Ð¸ÐºÐ¾Ð²":3398,"Ġident":3399,"Ġseries":3400,"ĠJu":3401,"Ð¸Ð½Ð³":3402,"ĠÐ¤Ðĺ":3403,"ÑģÐ»ÐµÐ´Ð¾Ð²Ð°Ð½Ð¸Ñı":3404,"ĠSu":3405,"ÑĥÐ±ÐµÑĢÐ½":3406,"iddle":3407,"Ð°ÑĤÐµÐ»ÐµÐ¹":3408,"29":3409,"ET":3410,"ĠWar":3411,"ĠDev":3412,"Ð¾Ð»ÑĮÐ·Ð¾Ð²Ð°ÑĤÐµÐ»ÑĮ":3413,"Ġcer":3414,"ĠMer":3415,"ellig":3416,"velt":3417,"oice":3418,"ÑĭÐ½":3419,"ĠÑģÐ¾Ð³Ð»Ð°ÑĪÐµÐ½Ð¸Ðµ":3420,"ĠApplications":3421,"Ġemploy":3422,"ĠÐ¸Ð½ÑĦÐ¾ÑĢÐ¼Ð°ÑĨÐ¸Ð¾Ð½":3423,"ĠÐĴÐµÐ»Ð¸ÐºÐ¾Ð¹":3424,"vron":3425,"Ġaction":3426,"Ð½ÑĥÑİ":3427,"Ġmakes":3428,"ĠGolf":3429,"Ð±Ð¾Ð»":3430,"ĠReserved":3431,"ĠÐłÐ¾ÑģÑģÐ¸Ð¹":3432,"ĠÐ¿Ð°Ð¼ÑıÑĤÑĮ":3433,"word":3434,"Ġsame":3435,"ĠIcon":3436,"ÑĥÐ³Ð¸":3437,"Ġkeep":3438,"Ð¿Ð¸ÑģÐ¾Ðº":3439,"ĠÐ¿ÑĢÐ¾ÑĦÐµÑģÑģÐ¸Ð¾Ð½":3440,"erve":3441,"reet":3442,"ĠÑĢÐµÑģ":3443,"Ġcontinue":3444,"ĠPunjab":3445,"ructure":3446,"ĠÑģÐµÐ¼":3447,"index":3448,"Ġleft":3449,"ÑĩÐ°ÑģÑĤÐ²":3450,"ĠEnglish":3451,"ĠÑģÐ¿Ð¸ÑģÐ¾Ðº":3452,"orks":3453,"ĠClick":3454,"Ġthreat":3455,"Ġearn":3456,"ĠÐŁÐ¾Ð»ÑĮÐ·Ð¾Ð²Ð°ÑĤÐµÐ»ÑĮ":3457,"Ġcoming":3458,"Ġvisit":3459,"Ġimpact":3460,"ÐµÐ·Ð´":3461,"the":3462,"estin":3463,"ĠÑģÐ»":3464,"Ð¾ÑģÑĭ":3465,"anned":3466,"ĠÐºÐ¾Ð¼Ñĥ":3467,"Ð¸Ð»ÑĮÐ½ÑĭÐ¹":3468,"ĠÐ·Ð½Ð°Ð½Ð¸Ð¹":3469,"find":3470,"zz":3471,"Ð¤":3472,"Ġless":3473,"ĠÐŁÐ°Ð¼":3474,"portation":3475,"Ð¸ÑĦÑĭ":3476,"ĠBioWorld":3477,"ĠMal":3478,"Ð»Ð°":3479,"ĠGe":3480,"ĠÐĳÐ°Ð·Ð°":3481,"ĠColor":3482,"Ð¸ÑģÑĤÐµÐ¼":3483,"ĠÐ¤ÐµÐ´ÐµÑĢ":3484,"55":3485,"ĠMic":3486,"ĠMake":3487,"Ġpersonal":3488,"ĠÐĺÐ²Ð°Ð½":3489,"Ġlive":3490,"ances":3491,"Ġeffect":3492,"ittle":3493,"ench":3494,"Ġwon":3495,"ĠCanadian":3496,"osevelt":3497,"ĠRussia":3498,"Ð¸Ð»Ð¸Ð¸":3499,"ĠÐĲÐ»":3500,"ĠÑģÐ²ÑıÐ·Ð°Ð½Ð½ÑĭÐµ":3501,"Ð¾Ð³ÑĢÐ°ÑĦÐ¸Ñı":3502,"ĠAmazon":3503,"Ġcity":3504,"ÑĭÐ²":3505,"Ġ36":3506,"ĠÑģÑĤÑĢÐ°Ð½Ð¸ÑĨÑĥ":3507,"ersion":3508,"Ġlove":3509,"Ġchall":3510,"annel":3511,"ĠRoosevelt":3512,"ĠIST":3513,"ÐµÑĢÐ¸ÑĤÐµ":3514,"Ġvideo":3515,"ĠÐ³ÐµÑĢÐ¾ÐµÐ²":3516,"ĠOct":3517,"Ġnon":3518,"Ġprovide":3519,"ĠÐ¯":3520,"ĠMedic":3521,"ĠÐĹÐ°ÐºÐ°Ð·Ð°ÑĤÑĮ":3522,"ĠÐŁÐ¾Ð»ÑĮÐ·Ð¾Ð²Ð°ÑĤÐµÐ»ÑĮÑģÐºÐ¾Ðµ":3523,"AM":3524,"ĠÐ¾ÑĤÐ½Ð¾Ñģ":3525,"aterials":3526,"ĠQuery":3527,"ĠÑĥÑģÐ»ÑĥÐ³Ð¸":3528,"Ð°Ð»Ð¾Ð³Ð°":3529,"str":3530,"ĠÐĿÐ°Ð¹ÑĤÐ¸":3531,"ÐµÐºÑģÐ°ÑĨÐ¸Ð¸":3532,"ĠÐ¸ÑģÐ¿Ð¾Ð»ÑĮÐ·ÑĥÐµÐ¼":3533,"ĠÑģÐ¾Ð·Ð´Ð°Ð»Ð¸":3534,"OW":3535,"chel":3536,"ĠCN":3537,"ĠÑģÐ¸ÑģÑĤÐµÐ¼":3538,"ÐµÑĢÐ¶":3539,"Ġvict":3540,"ÑĢÐ°Ð½Ð¸ÑĨÑĭ":3541,"Ġefforts":3542,"ĠÐĹÐ´ÐµÑģÑĮ":3543,"ĠÐºÐ½Ð¾Ð¿":3544,"ÑĩÐ°ÑģÑĤÐ²Ð¾Ð²Ð°ÑĤÑĮ":3545,"Ġcost":3546,"cussion":3547,"ĠÐ¿Ð¾ÑģÑĤÐµÐ¿":3548,"ĠÐ¢Ð°ÑĢÐ¸ÑĦÑĭ":3549,"ĠSaf":3550,"ĠÐŁÐ¾Ð¼Ð¾ÑīÑĮ":3551,"Ġrecord":3552,"Ġsecurity":3553,"ĠâĤ¹":3554,"ĠTim":3555,"ĠDan":3556,"idents":3557,"Ġchange":3558,"Ġseveral":3559,"ĠÐ¸ÑģÑģÐ»ÐµÐ´Ð¾Ð²Ð°Ð½Ð¸Ñı":3560,"ĠÐºÐ½Ð¾Ð¿ÐºÑĥ":3561,"Paper":3562,"sw":3563,"ÑģÑĤÐ°Ð½":3564,"roph":3565,"Ġground":3566,"ĠÐ¿Ð¾Ð»ÑĮÐ·Ð¾Ð²":3567,"Ġfollowing":3568,"ĠÑģÐ¾ÑħÑĢÐ°Ð½Ð¸ÑĤÑĮ":3569,"ÑĤÐµÑģÑĤ":3570,"ĠColl":3571,"ĠGame":3572,"Ġgroup":3573,"ĠSeason":3574,"ĠÐĵÐµÐ¾Ð³ÑĢÐ°ÑĦÐ¸Ñı":3575,"ĠÐ¸Ð½Ð´ÐµÐºÑģÐ°ÑĨÐ¸Ð¸":3576,"oring":3577,"ĠMiss":3578,"oming":3579,"ĠEd":3580,"Ġstand":3581,"Ġ60":3582,"Ġ1914":3583,"ĠÐ¸ÑģÑĤÐ¾ÑĩÐ½Ð¸ÐºÐ¾Ð²":3584,"ĠÑĤÐµÑĢÑĢÐ¸ÑĤ":3585,"ĠÐ¿Ð¾ÑģÑĤÐµÐ¿ÐµÐ½Ð½Ð¾":3586,"eal":3587,"ups":3588,"ÑĪÐ¸ÑĦÑĢ":3589,"heroes":3590,"Ġorgan":3591,"raw":3592,"ĠDevelop":3593,"Ð¾Ð¶Ð°Ð»":3594,"ĠÐŁÐµÑĢÐ²Ð¾Ð¹":3595,"ĠÑĥÐ»ÑĥÑĩÑĪÐµÐ½Ð¸Ñı":3596,"ĠÑģÐ¾Ð¾ÑĤÐ²ÐµÑĤÑģÑĤÐ²ÑĥÑİÑī":3597,"ĠÐ¿ÑĢÐ¾ÑĦÐµÑģÑģÐ¸Ð¾Ð½Ð°Ð»ÑĮÐ½Ð¾Ð³Ð¾":3598,"ĠÐ¾ÑĤÐ½Ð¾ÑģÐ¸ÑĤÑģÑı":3599,"ÑĪÐ¸ÑĦÑĢÐ¾Ð²Ð°ÑĤÑĮ":3600,"OP":3601,"ĠPa":3602,"Ġcome":3603,"ĠÐ¤Ð°Ð¼":3604,"Ġnewsletter":3605,"ĠÑĦÐ°Ð¼":3606,"ĠÐ´Ð°Ð½Ð½Ð°Ñı":3607,"ĠRate":3608,"Ġged":3609,"ĠReports":3610,"ĠÐľÐµÑģÑĤÐ°":3611,"ĠÐłÑĥÐ±":3612,"ĠÐŀÐļ":3613,"expert":3614,"ĠÐ£ÑĩÐ°ÑģÑĤÐ²Ð¾Ð²Ð°ÑĤÑĮ":3615,"ĠÐ»ÑİÐ´ÑıÑħ":3616,"ĠÐ¡ÑĤÑĢÐ°Ð½Ð¸ÑĨÑĭ":3617,"ĠÐľÐ¸ÑĢÐ¾Ð²Ð¾Ð¹":3618,"ÑĢÐµÐ²Ð¾":3619,"ĠÐĹÐ°Ð³ÑĢÑĥÐ·Ð¸ÑĤÑĮ":3620,"gwar":3621,"gospital":3622,"ĠFamilio":3623,"Ġdna":3624,"Ġland":3625,"Ġjet":3626,"ĠÐĶÑĢÐµÐ²Ð¾":3627,"ockey":3628,"ĠÐ³ÐµÐ½Ðµ":3629,"ovek":3630,"1918":3631,"ÐµÑĢÐ½ÐµÑĤ":3632,"ĠÐ·Ð°Ð¿Ð¸ÑģÑĮÑİ":3633,"ÐĶÐ¾Ð±Ð°Ð²Ð¸ÑĤÑĮ":3634,"ĠÐ¡Ð¿Ð¸ÑģÐºÐ¸":3635,"ĠÑģÑĤÑĢÐ°Ð½Ð¸ÑĨÑĭ":3636,"ĠÐ´ÐµÐ»Ð¸ÑĤÑĮÑģÑı":3637,"ĠÑĦÐ¾ÑĢÐ¼Ð¸ÑĢÐ¾Ð²Ð°ÑĤÑĮÑģÑı":3638,"ĠÐ²ÑĭÐ±ÐµÑĢÐ¸ÑĤÐµ":3639,"ĠÐłÐ°ÑģÑĪÐ¸ÑĦÑĢÐ¾Ð²Ð°ÑĤÑĮ":3640,"ĠÐºÑĥÐºÐ¸":3641,"ĠÐ²ÑĭÐ³ÑĢÑĥÐ·Ð¸ÑĤÑĮ":3642,"ĠÑĥÐºÐ°Ð·Ð°Ð½Ð°":3643,"lastname":3644,"ĠÐ¤ÐĺÐŀ":3645,"indexing":3646,"ĠÐŁÐ°Ð¼ÑıÑĤÐ¸":3647,"chelovek":3648,"ĠÐ¸ÑģÑģÐ»ÐµÐ´Ð¾Ð²Ð°Ð½Ð¸ÑıÐ¼Ð¸":3649,"ĠÑģÐ¾Ð¾ÑĤÐ²ÐµÑĤÑģÑĤÐ²ÑĥÑİÑīÑĥÑİ":3650,"ĠÐ¤Ð°Ð¼Ð¸Ð»Ð¸Ð¸":3651,"ĠÑĦÐ°Ð¼Ð¸Ð»ÑĮÐ½ÑĭÐ¹":3652,"Ġgedcom":3653,"ĠÐ³ÐµÐ½ÐµÐ°Ð»Ð¾Ð³Ð°":3654,"tion":3655,"Ġstocks":3656,"ĠÐĵÐ¾Ð³":3657,"ĠÐ¿Ð¾Ð´Ð¿Ð¸Ñģ":3658,"Ġra":3659,"ĠPlayer":3660,"ĠChen":3661,"ÑīÐ¸Ðµ":3662,"ality":3663,"outs":3664,"Ġhold":3665,"Ġchang":3666,"ĠLeague":3667,"Ġenergy":3668,"ply":3669,"Ð¾Ð±Ñī":3670,"inese":3671,"Ð¶ÐµÑĢ":3672,"ena":3673,"ĠSn":3674,"ows":3675,"Ġthings":3676,"Ġmoney":3677,"12":3678,"ĠMall":3679,"ĠGall":3680,"Ġgames":3681,"outube":3682,"ĠConditions":3683,"ÐĹ":3684,"ĠÐ¾ÑĤÐ½Ð¾":3685,"Ġsug":3686,"ĠWeekly":3687,"ÑĥÑĩÑĪÐ¸Ðµ":3688,"ĠDavid":3689,"elligence":3690,"ze":3691,"ilities":3692,"cent":3693,"Ġwater":3694,"quir":3695,"ĠBel":3696,"ĠÑģÐ±Ð¾ÑĢ":3697,"ifts":3698,"ĠÐ¿ÑĢÐ¸Ð¼":3699,"Ġtraffic":3700,"ĠÑĦÐµÐ²":3701,"ÐĲÐ¢Ð":3702,"Ġexecutive":3703,"Ġmedical":3704,"oe":3705,"of":3706,"ĠSun":3707,"ĠCy":3708,"Ġtook":3709,"Ð°ÑĢÑĤÐ½ÐµÑĢ":3710,"enefits":3711,"Ġfri":3712,"Ġinj":3713,"ĠFederal":3714,"urther":3715,"Ġoffer":3716,"ĠÐŃÐº":3717,"ĠUN":3718,"Ġeduc":3719,"ders":3720,"ĠData":3721,"Ð¶Ðµ":3722,"ĠÐ³ÑĥÐ±ÐµÑĢÐ½":3723,"ĠAustralia":3724,"ÑģÑĤÐ°Ð²":3725,"Ð°ÑĢÐ¸Ñı":3726,"ÐľÐ¾Ð´":3727,"VID":3728,"ĠON":3729,"elling":3730,"ference":3731,"ĠÑĢÐµÐ´Ð°ÐºÑĨÐ¸Ð¸":3732,"ĠRele":3733,"ÐµÑĢÐ½ÑĥÑĤÑĮ":3734,"migration":3735,"nai":3736,"ĠSl":3737,"Ġpoint":3738,"Ġdate":3739,"Ġhuman":3740,"Ġroad":3741,"ĠHorosc":3742,"less":3743,"ĠHar":3744,"ĠÐ°Ð½Ð°Ð»Ð¸Ð·":3745,"ÑĢÐ¸ÐºÐ¸":3746,"Ġintern":3747,"ĠRE":3748,"Ġusing":3749,"Ġevents":3750,"ĠColumns":3751,"ĠUpdated":3752,"ĠGoogle":3753,"Ġtwitter":3754,"ĠTime":3755,"Ġlog":3756,"Ð´ÐµÐ½Ð¸Ðµ":3757,"ĠHowever":3758,"ĠÐ¾ÑģÐ½Ð¾Ð²":3759,"Ġ*":3760,"dition":3761,"ĠMagazine":3762,"ĠÐ°Ð²":3763,"Ġadded":3764,"Ġstream":3765,"Ġoffice":3766,"13":3767,"LD":3768,"Ġsus":3769,"Ġmatch":3770,"ĠProp":3771,"Ġindivid":3772,"Ġbetter":3773,"Ġcoach":3774,"Ġbuild":3775,"force":3776,"Ġhon":3777,"avor":3778,"clusive":3779,"ĠÐºÐ¾Ð¼Ð¿Ð°Ð½Ð¸Ð¸":3780,"ÑģÑĭ":3781,"ĠÐ¿ÑĢÐµÐ´Ð¾ÑģÑĤÐ°Ð²":3782,"Ġactiv":3783,"Ġahead":3784,"Ġgot":3785,"ĠÐ¿Ð¾Ð»ÑĮÐ·Ð¾Ð²Ð°ÑĤÐµÐ»ÐµÐ¹":3786,"board":3787,"ĠRem":3788,"Ġpresent":3789,"ÐµÐ¼Ð¿Ð¸Ð¾Ð½":3790,"ÐµÑĢÐ½ÑĥÑĤÑĮÑģÑı":3791,"gender":3792,"hy":3793,"Ġpast":3794,"ĠÐ½Ð°ÑĢÐ¾Ð´Ð°":3795,"ĠÐłÑĥÐ±ÑĢÐ¸ÐºÐ¸":3796,"Ġreview":3797,"aken":3798,"Ð¾ÑĩÑĤ":3799,"Â».":3800,"Ġstatement":3801,"ĠRoy":3802,"ĠAsia":3803,"lock":3804,"Ġposts":3805,"ĠÑģÐ¾ÑģÑĤÐ°Ð²":3806,"Ð¸Ð·Ð°ÑĨÐ¸Ð¸":3807,"Ġsomething":3808,"27":3809,"Ġtem":3810,"igin":3811,"ĠArmy":3812,"merc":3813,"IP":3814,"Ġfew":3815,"Ġhomes":3816,"akh":3817,"etty":3818,"ĠBreaking":3819,"ping":3820,"uff":3821,"ĠÂ°":3822,"Ġsignific":3823,"ĠÐ¨Ð¾Ñĥ":3824,"Ġhand":3825,"Ð±Ð¸Ð·Ð½ÐµÑģ":3826,"ĠExper":3827,"ĠTennis":3828,"28":3829,"OS":3830,"UR":3831,"ĠThings":3832,"Ð¾Ð½Ð¾Ð¼":3833,"ĠÐ¡Ð²":3834,"AD":3835,"ÑĬ":3836,"ĠRan":3837,"ĠThese":3838,"ĠChennai":3839,"Tube":3840,"uty":3841,"Ġdep":3842,"ĠÐ³ÑĥÐ±ÐµÑĢÐ½Ð¸Ñı":3843,"Ġve":3844,"Ġcommun":3845,"fl":3846,"ĠApr":3847,"ĠMilitary":3848,"Ġappear":3849,"Ġcame":3850,"ĠBh":3851,"Ġmen":3852,"ober":3853,"ĠAnnounce":3854,"ĠÑĤÐµÑĢÑĢÐ¸ÑĤÐ¾ÑĢÐ¸Ð¸":3855,"ĠChrist":3856,"LC":3857,"ĸ¼":3858,"Ġtaking":3859,"ĠTampa":3860,"ĠPark":3861,"ĠÐ´Ð¾":3862,"Ġconsider":3863,"ĠNetwork":3864,"ÐµÑģÐµÐ½":3865,"Ġspecial":3866,"ĠIND":3867,"retary":3868,"inem":3869,"Ġ40":3870,"ĠÐķÐ²":3871,"portunities":3872,"ape":3873,"Ġalways":3874,"ĠÐĿÐ¾Ð²ÑĭÐµ":3875,"Ġmusic":3876,"eighborhood":3877,"16":3878,"Ġfar":3879,"ĠMah":3880,"SU":3881,"ĠChinese":3882,"ovt":3883,"rows":3884,"ividend":3885,"field":3886,"veal":3887,"ograp":3888,"ÑģÐºÐ¸Ðµ":3889,"ĠÑģÑĤÐ°ÑĤÑĮÐµ":3890,"agan":3891,"ĠChief":3892,"Ð¸Ð½ÑĦÐ¾ÑĢÐ¼":3893,"Ġfunding":3894,"Ġens":3895,"ĠMain":3896,"Ġreports":3897,"ĠYouTube":3898,"ĠValley":3899,"34":3900,"thern":3901,"ĠÐĲÑĢ":3902,"Ð°ÑĤÐµÐ»ÑıÐ¼":3903,"ÑĢÐ°Ð¼Ð¿":3904,"ĠBecome":3905,"ĠCM":3906,"ĠBo":3907,"Ġdeb":3908,"Ġpredict":3909,"àµĨ":3910,"ĠTik":3911,"ural":3912,"ĠAlerts":3913,"ĠBooks":3914,"ĠAccessibility":3915,"OG":3916,"oke":3917,"Ġinstagram":3918,"Ð½ÑĤÐµÑĢÐ½ÐµÑĤ":3919,"Ð»Ð°ÑĤÑĦÐ¾ÑĢÐ¼Ð°":3920,"Ġi":3921,"Ġfield":3922,"Ġrepr":3923,"ĠÐºÑĢ":3924,"ĠYear":3925,"lists":3926,"ji":3927,"Ġlater":3928,"ĠSpe":3929,"35":3930,"ask":3931,"ĠFund":3932,"Ġnever":3933,"ĠÑģÐµÑĤÐ¸":3934,"lection":3935,"ĠÐ¿ÑĢÐµÐ´Ð¿":3936,"Ġimpro":3937,"ĠColorado":3938,"ĠÐ°Ð½Ð°Ð»Ð¸Ð·Ð°":3939,"mercial":3940,"down":3941,"ming":3942,"ĠMember":3943,"Ð»ÐµÐ½":3944,"Ġexc":3945,"Ġaut":3946,"Ġsix":3947,"ĠDE":3948,"ĠMedical":3949,"ĠAdvis":3950,"Ġfight":3951,"à´Ĥ":3952,"ĠSubscription":3953,"ĠAdvertising":3954,"Ġsports":3955,"Ġmet":3956,"ung":3957,"ĠÐ»ÐµÐ½ÑĤÐ°":3958,"ĠSim":3959,"ĠStats":3960,"à´±":3961,"ĠÐľÐµÐ´Ð¸":3962,"ĠÐŁÐ¾Ð¿ÑĥÐ»ÑıÑĢÐ½Ð¾Ðµ":3963,"ĠÐ¿ÑĢÐ¸Ð¼ÐµÐ½Ñı":3964,"37":3965,"ization":3966,"Ġcrashes":3967,"ĠUnderwrit":3968,"Tok":3969,"ched":3970,"ĠLight":3971,"Ð²ÐµÑģÑĤ":3972,"oys":3973,"Ġdisc":3974,"Ġnumber":3975,"ĠÐ¸Ð½ÑĦÐ¾ÑĢÐ¼Ð°ÑĨÐ¸Ð¾Ð½Ð½Ð¾Ð¼":3976,"ĠÐ¿ÑĢÐ¸Ð¼ÐµÐ½ÑıÑİÑĤÑģÑı":3977,"mber":3978,"Ġ@":3979,"Ġtoo":3980,"Ġgener":3981,"ĠSpot":3982,"ĠÑĢÐµÐºÐ¾Ð¼ÐµÐ½Ð´Ð°ÑĤÐµÐ»ÑĮÐ½ÑĭÐµ":3983,"ĠÑĢÐµÑģÑĥÑĢÑģÐµ":3984,"ĠNear":3985,"ĠLinks":3986,"Ġlik":3987,"ĠÐŁÐ°ÑĢÑĤÐ½ÐµÑĢ":3988,"Ġvar":3989,"ENT":3990,"Ġbelow":3991,"ting":3992,"ĠÐŁÐ¾Ð¶Ð°Ð»":3993,"Ġrecogn":3994,"ĠSoccer":3995,"Ġdifferent":3996,"ĠÐ¾Ð±Ð»Ð°ÑģÑĤÐ¸":3997,"Ð°Ð³Ð¾":3998,"ĠUkraine":3999,"Ġcaus":4000,"Ð»Ð°Ð´":4001,"ĠFO":4002,"room":4003,"rior":4004,"ĠÐĽÑĥÑĩÑĪÐ¸Ðµ":4005,"ĠAirlines":4006,"Ġmonths":4007,"06":4008,"ait":4009,"son":4010,"Ġfood":4011,"ĠWX":4012,"Ġboard":4013,"ĠFri":4014,"ĠChange":4015,"ĠPlaylists":4016,"ĠÑģÐµÐ¼ÑĮÑı":4017,"ĠAuthor":4018,"Ġwhe":4019,"ĠMill":4020,"ĠStations":4021,"ĠAnn":4022,"ÐµÐ½Ð¸ÑıÐ¼":4023,"ĠMichael":4024,"eum":4025,"iance":4026,"ĠHockey":4027,"ĠUK":4028,"ĠÐĶÐµÑĤÐ¸":4029,"ĠÐ¢ÑĢÐ°Ð¼Ð¿":4030,"ÑĥÐ»Ð¸Ð½":4031,"ĠFeatures":4032,"ĠTikTok":4033,"ĠAccording":4034,"ĠHam":4035,"Ġgen":4036,"eball":4037,"Ġreceive":4038,"Ġmoment":4039,"ĠDen":4040,"iger":4041,"ĠÐĴÐµÑĢÐ½ÑĥÑĤÑĮÑģÑı":4042,"Ð¾ÑĤÐ¾":4043,"ĠConf":4044,"ĠBrand":4045,"Ġamong":4046,"Ġhit":4047,"Ð½ÑĭÐ¼":4048,"ĠÐŀÐ¿ÑĢ":4049,"Ġclose":4050,"ovember":4051,"ĠÐŀÐ±ÑģÑĥÐ¶Ð´Ð°ÐµÐ¼ÑĭÐµ":4052,"ocument":4053,"res":4054,"wh":4055,"ĠKn":4056,"Ġofficial":4057,"Ð°ÑĨÐ¸Ð¾Ð½Ð½ÑĭÐµ":4058,"':":4059,"41":4060,"ead":4061,"ney":4062,"ĠEth":4063,"ĠìĨ":4064,"ickets":4065,"ĠÐ½Ð°ÑħÐ¾Ð´Ñı":4066,"ĠFBI":4067,"ĠQuest":4068,"ucks":4069,"Ġviews":4070,"OL":4071,"ĠÐļÑĥÐ»Ð¸Ð½":4072,"EX":4073,"idel":4074,"Ġtarget":4075,"ĠÐłÐ¾ÑģÑģÐ¸Ð¹ÑģÐºÐ¾Ð¹":4076,"ĠOctober":4077,"ĠÐ¾ÑģÐ½Ð¾Ð²Ðµ":4078,"Ġcontribut":4079,"Ġbring":4080,"ĠÐľÐ¾Ñı":4081,"Ġexpected":4082,"ĠÐ¤ÐµÐ´ÐµÑĢÐ°ÑĨÐ¸Ð¸":4083,"ĠÐ½Ð°ÑħÐ¾Ð´ÑıÑīÐ¸ÑħÑģÑı":4084,"ĠWin":4085,"ĠHom":4086,"Ġprop":4087,"ĠÐľÐµÑģÑģ":4088,"ĠÑįÑĤÐ¾":4089,"ĠDirectory":4090,"Ġtyp":4091,"ĠTom":4092,"ÑĭÐ´Ñĥ":4093,"Ġhear":4094,"ĠReleases":4095,"gers":4096,"Ġcal":4097,"Ġstop":4098,"Ġscene":4099,"ĠSky":4100,"ĠÐ¾ÑĤÐ½Ð¾ÑģÑı":4101,"ĠìĨĮ":4102,"ĠÐļÑĥÐ»Ð¸Ð½Ð°ÑĢÐ¸Ñı":4103,"list":4104,"ĠTips":4105,"Ð¾Ð´Ð°ÑĤÐµÐ»ÑıÐ¼":4106,"ĠÑģÐ²ÐµÐ´":4107,"ĠÐ¿ÑĢÐµÐ´Ð¿Ð¾ÑĩÑĤ":4108,"Ġline":4109,"Ġonline":4110,"ocation":4111,"rief":4112,"Ġinterest":4113,"ĠÑģÐ¿Ð°Ð¼":4114,"ĠÐłÐµÐºÐ»Ð°Ð¼Ð¾Ð´Ð°ÑĤÐµÐ»ÑıÐ¼":4115,"ĠWell":4116,"ĠJos":4117,"ĠÐ½Ð°Ð²ÐµÑĢ":4118,"ĠÐ¿ÑĢÐ°Ð²":4119,"ĠÑģÐ±Ð¾ÑĢÐ°":4120,"ĠÐľÐµÐ´Ð¸Ð°Ð¿":4121,"thlet":4122,"ĠPolice":4123,"ĠImp":4124,"ĠÐĳÐ»Ð¾Ð³ÐµÑĢÑĭ":4125,"Ġsignificant":4126,"gr":4127,"ĠAug":4128,"ĠÐľÐ¢":4129,"ĠDep":4130,"ÐµÐ½Ð´Ð¶ÐµÑĢ":4131,"ĠÐŀÐ±ÑģÑĥÐ¶Ð´Ð°ÐµÐ¼Ð¾Ðµ":4132,"iate":4133,"Ġalready":4134,"ÐĺÐ½ÑĤÐµÑĢÐ½ÐµÑĤ":4135,"ĠÐĵÐ»Ð°Ñģ":4136,"ĠÐŀÐ±ÑģÑĥÐ¶Ð´ÐµÐ½Ð¸Ðµ":4137,"ê°ľ":4138,"ĠÐ¿ÑĢÐµÐ´Ð¾ÑģÑĤÐ°Ð²Ð»ÐµÐ½Ð¸Ñı":4139,"ĠÐŁÐ°ÑĢÑĤÐ½ÐµÑĢÐ°Ð¼":4140,"¤ë":4141,"ĠEEO":4142,"Ð°ÑĤÐ¸Ð·Ð°ÑĨÐ¸Ð¸":4143,"ĠVi":4144,"ĠIss":4145,"ĠÐłÐµÐºÐ¾Ð¼ÐµÐ½Ð´Ð°ÑĤÐµÐ»ÑĮÐ½ÑĭÐµ":4146,"ĠÐ¿Ð¾Ð´Ð¿Ð¸ÑģÑĩ":4147,"ĠÐľÐµÑģÑģÐµÐ½Ð´Ð¶ÐµÑĢ":4148,"ĠÐ¿ÑĢÐµÐ´Ð¿Ð¾ÑĩÑĤÐµÐ½Ð¸ÑıÐ¼":4149,"rol":4150,"ĠNation":4151,"à´®":4152,"ĠÐ¡Ð¾Ð³Ð»Ð°ÑĪÐµÐ½Ð¸Ðµ":4153,"Ð¢ÐµÑģÐµÐ½":4154,"ĠÐĵÐ»Ð°Ð³Ð¾":4155,"ĠÐ§ÐĲÐ¢Ð":4156,"espite":4157,"ĠÐľÐ¸ÑĢÐ¢ÐµÑģÐµÐ½":4158,"àµģâĢĭ":4159,"ĠÑģÐ¸ÑģÑĤÐµÐ¼Ð°ÑĤÐ¸Ð·Ð°ÑĨÐ¸Ð¸":4160,"Ð¸Ð½ÑĦÐ¾ÑĢÐ¼Ð°ÑĨÐ¸Ð¾Ð½Ð½ÑĭÐµ":4161,"ĠÐŁÐ¾Ð¶Ð°Ð»Ð¾Ð²Ð°ÑĤÑĮÑģÑı":4162,"ĠÐŀÐ¿ÑĢÐ¾ÑģÑĭ":4163,"ĠÐ¾ÑĤÐ½Ð¾ÑģÑıÑīÐ¸ÑħÑģÑı":4164,"ĠÑģÐ²ÐµÐ´ÐµÐ½Ð¸Ð¹":4165,"ĠÐľÐµÐ´Ð¸Ð°Ð¿Ð»Ð°ÑĤÑĦÐ¾ÑĢÐ¼Ð°":4166,"ĠÐĵÐ»Ð°Ð³Ð¾L":4167,"ĠÐ§ÐĲÐ¢Ð«":4168,"fire":4169,"Ġold":4170,"ĠÐ¿ÑĢÐµÐ´ÑĭÐ´Ñĥ":4171,"05":4172,"atory":4173,"ĠNewsw":4174,"Ġeng":4175,"ĠHoroscope":4176,"Ð¸ÑĤÐµÐ»":4177,"Ġworking":4178,"Ġsw":4179,"ĠMatt":4180,"Ġmight":4181,"Ġnav":4182,"Ġloss":4183,"place":4184,"ĠMinister":4185,"ĠTeams":4186,"ĠCorpor":4187,"Ġfeel":4188,"ÑīÐµÑģÑĤÐ²Ð¾":4189,"ĠÐ½Ð°Ð²ÐµÑĢÑħ":4190,"Ð¸ÑĪ":4191,"ĠLI":4192,"urt":4193,"ania":4194,"ĠFocus":4195,"ousing":4196,"mission":4197,"Ġbased":4198,"appy":4199,"ĠÐ¿ÑĢÐµÐ´ÑĭÐ´ÑĥÑīÐ¸Ðµ":4200,"ĠCamer":4201,"ÑĩÐ°ÑģÑĤÐ½Ð¸ÐºÐ¸":4202,"Ð½Ð¾ÑģÑĤÑĮ":4203,"ÑĥÐ¿":4204,"aint":4205,"ĠÐ£ÑĩÐ°ÑģÑĤÐ½Ð¸ÐºÐ¸":4206,"Ġë§":4207,"Ġimportant":4208,"ī´ì":4209,"Ġfun":4210,"Ġbo":4211,"ĠIr":4212,"iding":4213,"aker":4214,"ĠClassified":4215,"ĠWhats":4216,"ĠSongbook":4217,"¤ëī´ì":4218,"Ġë§¤ëī´ì":4219,"Ġë§¤ëī´ìĸ¼":4220,"Ġ)":4221,"atform":4222,"duction":4223,"viation":4224,"icies":4225,"ĠNovember":4226,"Ġinit":4227,"aks":4228,"Ġresponse":4229,"ĠApril":4230,"umer":4231,"ĠÑĦÐµÐ²ÑĢÐ°Ð»":4232,"su":4233,"Ð¾ÑĪ":4234,"itut":4235,"Ġsearch":4236,"ĠMess":4237,"ĠRest":4238,"Ã³":4239,"ĠCoverage":4240,"Ġbook":4241,"idence":4242,"ĠÐ²Ñģ":4243,"Ġjournal":4244,"blem":4245,"ĠJe":4246,"Ġforecast":4247,"à¤¾":4248,"ependent":4249,"44":4250,"Ġdigital":4251,"Ġlearn":4252,"Ġdidn":4253,"Ġmultiple":4254,"aced":4255,"otes":4256,"Ġconst":4257,"Ġbasketball":4258,"Ġinfl":4259,"Ġdevelopment":4260,"ĠMedicine":4261,"rophy":4262,"Ġpolitical":4263,"Ġattack":4264,"ĠFAQ":4265,"ĠAuto":4266,"'ve":4267,"estern":4268,"acts":4269,"aza":4270,"ners":4271,"ĠBroadcast":4272,"ĠFilm":4273,"Ġstaff":4274,"ÐµÑĢÐ¸":4275,"ĠIsland":4276,"ĠÐŀÐ±ÑīÐµÑģÑĤÐ²Ð¾":4277,"care":4278,"ĠPay":4279,"ĠJim":4280,"Ġview":4281,"Ġspec":4282,"Ġuntil":4283,"Ð¾Ð»ÑĮÑĪ":4284,"ĠDemocr":4285,"udio":4286,"Ġlaun":4287,"Ġbank":4288,"Ġwhy":4289,"ĠÐ¾Ð¿":4290,"ĠThom":4291,"Ġseen":4292,"ĠArea":4293,"IM":4294,"ĠHind":4295,"ĠVolunt":4296,"ately":4297,"ĠRight":4298,"ĠEar":4299,"irth":4300,"ptim":4301,"Ġstrong":4302,"Ġel":4303,"Ġmid":4304,"ounc":4305,"Ġinvestig":4306,"ĠEditorial":4307,"ĠBill":4308,"Ġmember":4309,"Ġ--":4310,"ĠResources":4311,"ounds":4312,"ÐµÐ¶Ð¸Ðµ":4313,"ĠGeneral":4314,"ĠAD":4315,"ĠFamily":4316,"ĠTrust":4317,"Ð¸ÑĢÐ¾Ð²":4318,"ĠStreaming":4319,"ĠLou":4320,"ĠHall":4321,"play":4322,"Ġjoin":4323,"Ġlarge":4324,"ĠSustaining":4325,"tr":4326,"ĠSab":4327,"ÑĢÐ¾Ð¿":4328,"ĠCard":4329,"icated":4330,"ĠKel":4331,"Ġkind":4332,"Ġcontact":4333,"coming":4334,"ĠBehind":4335,"Ġannounced":4336,"38":4337,"ĠSit":4338,"Ġeconomic":4339,"ĠRana":4340,"Ġwithin":4341,"Ġabove":4342,"Ġbus":4343,"ĠLove":4344,"Ġaway":4345,"ĠTalk":4346,"ĠPac":4347,"Ð´ÐµÐ»":4348,"Ġconnect":4349,"Ġsol":4350,"ĠCre":4351,"Ġcases":4352,"ĠEag":4353,"Ġglobal":4354,"ĠVersion":4355,"ĠStreams":4356,"ĠFAA":4357,"Ð°ÑİÑĤ":4358,"ĠAlex":4359,"ĠInquir":4360,"Ð½ÐµÐ¹":4361,"ĠAff":4362,"ĠMuseum":4363,"Ġcheck":4364,"Ġwinn":4365,"ĠSept":4366,"ĠÐľÐ¾ÑģÐº":4367,"mergency":4368,"alf":4369,"ĠBro":4370,"ĠFox":4371,"ĠLLC":4372,"Ġagencies":4373,"Ð¸Ð´Ðµ":4374,"Ġunderst":4375,"Ġcalled":4376,"time":4377,"ĠTrophy":4378,"Ġothers":4379,"Ġmess":4380,"ĠÑįÐº":4381,"ĠÐ¡Ð²ÐµÐ¶Ð¸Ðµ":4382,"ĠGard":4383,"Ġalleg":4384,"Ð»ÑıÐµÑĤ":4385,"ĠBarb":4386,"ĠKhan":4387,"iers":4388,"atus":4389,"Ġdeal":4390,"ĠUSA":4391,"venue":4392,"59":4393,"ĠSP":4394,"ircle":4395,"ĠÑĢÐ¾ÑģÑģ":4396,"idential":4397,"ĠManagement":4398,"ĠÑģÐ¾Ð¾Ð±Ñī":4399,"rastructure":4400,"ĠTags":4401,"Ġfurther":4402,"omb":4403,"ĠOh":4404,"ĠTheir":4405,"istry":4406,"Ġinclude":4407,"ulf":4408,"oston":4409,"Ġopp":4410,"ĠBet":4411,"Ġrelease":4412,"emap":4413,"Ġprices":4414,"Ġcomes":4415,"ĠCookie":4416,"Ġinvolved":4417,"UL":4418,"itle":4419,"ĠCON":4420,"ĠBoston":4421,"Ġmean":4422,"ĠLogin":4423,"ĠSitemap":4424,"40":4425,"Ġesp":4426,"ĠTable":4427,"ĠBox":4428,"Ġthird":4429,"ÐµÑĢÐ±":4430,"enez":4431,"ĠLA":4432,"Ð°Ð½Ð¸Ðµ":4433,"ĠÐĴÑģÐµ":4434,"iami":4435,"idelines":4436,"tra":4437,"ĠFre":4438,"Ġpract":4439,"ĠÃĹ":4440,"ground":4441,"ville":4442,"ĥģ":4443,"Ġpage":4444,"ĠÐ¾Ð½":4445,"oung":4446,"aves":4447,"This":4448,"cri":4449,"Ġcustom":4450,"ĠMaterials":4451,"ĠMiami":4452,"Ġplease":4453,"ditional":4454,"umble":4455,"Ġflight":4456,"ituaries":4457,"uf":4458,"ÑĢÐ¾Ñģ":4459,"ĠCurrent":4460,"Ġdue":4461,"Ġdaily":4462,"Ġlooking":4463,"ĠTransportation":4464,"Ġdesign":4465,"ĠCrypto":4466,"PT":4467,"bur":4468,"ÑĢÐ¾Ð²":4469,"ĠLet":4470,"ĠObituaries":4471,"Ġlegal":4472,"ye":4473,"Ġcelebr":4474,"ĠMur":4475,"ĠDig":4476,"oster":4477,"Ġstress":4478,"Ġcompl":4479,"Ġtravel":4480,"BE":4481,"Ġdev":4482,"aze":4483,"Ġsafety":4484,"99":4485,"ĠMil":4486,"ĠNav":4487,"Ġmark":4488,"jects":4489,"lin":4490,"ales":4491,"Ġ2019":4492,"ĠDead":4493,"anning":4494,"Ġfinal":4495,"Ġbrows":4496,"Ġname":4497,"à´¸":4498,"Ġstudents":4499,"Ġfamil":4500,"Ð»Ñİ":4501,"ĠSurvey":4502,"ĠHear":4503,"ĠInvestigations":4504,"ĠÐ½Ð°Ð´":4505,"Ġagency":4506,"lam":4507,"ÑĥÐ½":4508,"Ġbehind":4509,"Ġpros":4510,"ĠÐĵÐ¾Ð´":4511,"ĠÐ¼Ð¾Ð¶":4512,"ampaign":4513,"'m":4514,"ĠTe":4515,"ĠAvailable":4516,"Ġcourt":4517,"ounts":4518,"Ġaccused":4519,"ĠÐŁÐ¾Ð¿ÑĥÐ»ÑıÑĢÐ½ÑĭÐµ":4520,"ĠSome":4521,"ĠPages":4522,"ĠDuring":4523,"ĠÐŀÑĤ":4524,"ylind":4525,"Ġcareer":4526,"ĠPrime":4527,"Ġrole":4528,"ĠÑĦÐµÐ²ÑĢÐ°Ð»Ñı":4529,"ving":4530,"zer":4531,"Ġnet":4532,"Ġpres":4533,"atural":4534,"ĠArticle":4535,"ĠStandings":4536,"Ð°Ñĩ":4537,"ÑĤÑĭ":4538,"reg":4539,"ĠDie":4540,"acc":4541,"porter":4542,"ĠÐĴÐ¡":4543,"raz":4544,"derabad":4545,"Ġshows":4546,"Ġdetails":4547,"ĠÐ£ÐºÑĢÐ°Ð¸Ð½":4548,"ouncil":4549,"vent":4550,"ilar":4551,"ÑĥÑī":4552,"Ġgirl":4553,"action":4554,"ĠÂ»":4555,"Ġsen":4556,"Ð³Ð¾":4557,"ÐµÐ¼Ñĥ":4558,"pection":4559,"PM":4560,"ica":4561,"Ġpublished":4562,"Ð»Ð°Ð²":4563,"Ġrecover":4564,"ÑĥÐ±Ð»":4565,"ĠFinancial":4566,"ĠTHE":4567,"ĠHyderabad":4568,"WF":4569,"itute":4570,"ĠCEO":4571,"ĠMa":4572,"ĠInj":4573,"ĠÐļÑĥÑĢ":4574,"ĠHollywood":4575,"Ġquestion":4576,"Ġwindow":4577,"ĠMary":4578,"Ð»Ð¾":4579,"Ġrisk":4580,"ĠComments":4581,"ĠMark":4582,"Ġimmed":4583,"ĠClassifieds":4584,"idays":4585,"oses":4586,"ripp":4587,"Ð¾Ð±Ñĭ":4588,"Ġupdates":4589,"Ġpossible":4590,"21":4591,"ĠGl":4592,"ruction":4593,"ĠÐ½Ð¾Ð²Ð¾ÑģÑĤÐ¸":4594,"ĠÐ¾Ð´":4595,"ĠChild":4596,"Ġearly":4597,"ti":4598,"ĠBang":4599,"Ġgender":4600,"arsh":4601,"enezuel":4602,"itions":4603,"Ġfootball":4604,"ĠNight":4605,"acing":4606,"ĠGTA":4607,"roid":4608,"ulation":4609,"ĠÂ·":4610,"ĠFort":4611,"inema":4612,"edy":4613,"ĠWater":4614,"ĠChannel":4615,"ĠBuy":4616,"Ġwhether":4617,"54":4618,"elt":4619,"Ġreb":4620,"ountain":4621,"ĠOffic":4622,"NA":4623,"Ġterm":4624,"ared":4625,"ĠÐ¿Ð¾ÑĢ":4626,"ĠExams":4627,"Ð¸Ð¿":4628,"ĠGifts":4629,"Ġtest":4630,"ĠTour":4631,"ĠPan":4632,"ĠBol":4633,"ĠSpok":4634,"Ġrecent":4635,"ĠJuly":4636,"bed":4637,"ĠDate":4638,"Ġorders":4639,"ĠBrown":4640,"Ġinvestigation":4641,"VER":4642,"olk":4643,"ume":4644,"aps":4645,"Ġcrew":4646,"ĠNewswires":4647,"80":4648,"ĠSH":4649,"ĠHub":4650,"ĠSeptember":4651,"ĠÐľÐ¾ÑģÐºÐ²":4652,"CE":4653,"Ñĸ":4654,"ĠWrit":4655,"ĠÐ¿Ð¾Ðº":4656,"ems":4657,"ĠAnalysis":4658,"Ġminutes":4659,"Ġë°":4660,"ĠAugust":4661,"ĠMA":4662,"rovers":4663,"etters":4664,"angu":4665,"clusion":4666,"ada":4667,"ĠKap":4668,"Ð°ÑģÑĮ":4669,"ecially":4670,"Ġcontinues":4671,"Ġknown":4672,"iter":4673,"ĠNotice":4674,"Ġquarter":4675,"ĠFeatured":4676,"isis":4677,"Ġtoget":4678,"amed":4679,"aming":4680,"ĠOl":4681,"Ġlittle":4682,"ĠAlert":4683,"ificial":4684,"Ġdirector":4685,"ĠFeeds":4686,"ĠÐ¿Ð¾Ð»ÑĥÑĩ":4687,"olution":4688,"uction":4689,"ĠWord":4690,"ainer":4691,"Ġprivate":4692,"Ġproblem":4693,"ĠApple":4694,"ÑĢÑĥÐ³":4695,"Ġbuy":4696,"Ġarticles":4697,"ding":4698,"Ġheld":4699,"anced":4700,"Ġtogether":4701,"ients":4702,"ÑĥÑĪ":4703,"Ġyet":4704,"Ġincrease":4705,"à´ª":4706,"ĠCart":4707,"ĠEnd":4708,"orney":4709,"Ġremains":4710,"Ġfre":4711,"ĠDays":4712,"ĠÑģÐº":4713,"Ð¼ÐµÑĢ":4714,"ĠÐļÐ°Ðº":4715,"ĠAfrica":4716,"ĠAdvisory":4717,"ĠIT":4718,"ĠIll":4719,"weet":4720,"Ġbecome":4721,"45":4722,"lier":4723,"qt":4724,"vo":4725,"omm":4726,"ĠFull":4727,"urance":4728,"iring":4729,"ÑģÐºÐ¾Ð¼":4730,"ĠÐĲÐ²":4731,"Ġmeeting":4732,"ĠStep":4733,"ĠVenezuel":4734,"ÑģÐºÐ¸Ñħ":4735,"oved":4736,"ÃŃ":4737,"Ð¯":4738,"Ġsex":4739,"ĠEN":4740,"ĠSpring":4741,"Ġenh":4742,"Ġamid":4743,"ĠETF":4744,"Ġchalleng":4745,"come":4746,"ĠHour":4747,"roit":4748,"Ġtrack":4749,"Ġcompet":4750,"ê³":4751,"asing":4752,"Ġhard":4753,"ĠJune":4754,"udi":4755,"Ġann":4756,"ÐµÑĢÐ¸Ð°Ð»":4757,"Ġur":4758,"Ġtalk":4759,"ĠAri":4760,"ĠWy":4761,"Ġdeath":4762,"ading":4763,"ÐµÐ´Ð½":4764,"Ġ02":4765,"Ġproject":4766,"Ġtreat":4767,"veals":4768,"Ð¸ÐºÐ¾Ð²":4769,"ĠClimate":4770,"Ġcalls":4771,"Ġlikely":4772,"Ð¸Ð´ÐµÐ¾":4773,"ona":4774,"ati":4775,"Ġdam":4776,"Ġgl":4777,"ĠPrices":4778,"ĠResp":4779,"riculture":4780,"ĠIPL":4781,"ĠPenn":4782,"ĠBets":4783,"Ġexplos":4784,"ĠMovies":4785,"error":4786,"CRI":4787,"ĠÐĸ":4788,"Ġtimes":4789,"ĠMom":4790,"Ġhouse":4791,"ĠNewspaper":4792,"Ð°Ð½Ð´":4793,"Ġresources":4794,"Ð°ÑģÑģ":4795,"Ġquick":4796,"Ġpasseng":4797,"ÐµÐ¼Ð¿Ð¸Ð¾Ð½Ð°ÑĤ":4798,"Ġë°ı":4799,"OC":4800,"¸ì":4801,"ĠBen":4802,"ÑĥÑħ":4803,"ĠLong":4804,"ivil":4805,"ĠAssociated":4806,"ĠÑĢÑĭÐ½":4807,"ĠMarkets":4808,"reads":4809,"ĠDesk":4810,"SE":4811,"Watch":4812,"iet":4813,"ĠStation":4814,"Ġ55":4815,"Ġ90":4816,"Ġprevious":4817,"Ġtechnology":4818,"ĠAnnouncements":4819,"not":4820,"aging":4821,"ĠShort":4822,"ibr":4823,"ÑģÑĤÐ°Ð½Ð¾Ð²":4824,"33":4825,"App":4826,"most":4827,"Ð¸Ð½Ñĭ":4828,"Ġled":4829,"ÑĢÑĥÐ¿":4830,"Ġfeatures":4831,"ĠLouis":4832,"Ġcreat":4833,"Ġmater":4834,"ĠLook":4835,"opes":4836,"à´²":4837,"rying":4838,"Ġdiscuss":4839,"ĠSUBS":4840,"ĠSilver":4841,"Ã³n":4842,"News":4843,"adu":4844,"ĠGar":4845,"Ġneeds":4846,"ĠMovie":4847,"Ġocc":4848,"Ġbillion":4849,"ĠGram":4850,"angers":4851,"Ġassist":4852,"ĠPopular":4853,"ĠSUBSCRI":4854,"oub":4855,"aints":4856,"ĠÐ¿ÑĢÐ¸":4857,"ĠShah":4858,"ĠÑĥÐµÐ·Ð´":4859,"Ġwebsites":4860,"ique":4861,"BO":4862,"PG":4863,"Ð§":4864,"Ġrep":4865,"Ġrad":4866,"Ð°Ð½Ð¸Ñı":4867,"ĠÐ»ÐµÑĤ":4868,"ĠBarbara":4869,"atal":4870,"ĠÐ²ÑĢÐµÐ¼":4871,"ĠViral":4872,"ĠDetroit":4873,"ĠLeadership":4874,"ĠCanc":4875,"ĠLu":4876,"Ġrout":4877,"Ġable":4878,"ĠCountry":4879,"Ġshared":4880,"ĠFestival":4881,"ĠWind":4882,"ĠHD":4883,"ĠHot":4884,"Ð¾Ð»ÑĮÐºÐ¾":4885,"62":4886,"ĠCustom":4887,"ĠÑĥÐ´":4888,"claim":4889,"ĠTools":4890,"ĠEditorials":4891,"ĠâĤ¬":4892,"ĠSafety":4893,"ÑĤÐ°Ðº":4894,"ĠVict":4895,"ĠScores":4896,"ĠGuidelines":4897,"ferences":4898,"Ġshares":4899,"ufact":4900,"ĠÑı":4901,"Ġtaken":4902,"ÑĢÐµÑĤ":4903,"Ġsold":4904,"ĠNY":4905,"ĠFar":4906,"ĠWestern":4907,"Ð¼Ð¾ÑĤ":4908,"Ġsusp":4909,"ĠSam":4910,"ĠSecretary":4911,"ĠÑģÐ°Ð¼Ð¾Ð»":4912,"ĠSUBSCRIBE":4913,"60":4914,"Ġouts":4915,"ari":4916,"arks":4917,"ÑĢÐ°Ð´":4918,"Ġperm":4919,"Ġoften":4920,"ĠOF":4921,"Ġlight":4922,"ĠStore":4923,"ager":4924,"ĠTrade":4925,"Ð°Ð»Ð¾":4926,"ĠÐĴÑĭ":4927,"Ġplatform":4928,"ĠFollowing":4929,"Ġchildren":4930,"iab":4931,"ÑĥÐ»ÑĮÑĤÑĥÑĢ":4932,"CO":4933,"adesh":4934,"Ġclaim":4935,"Ġarrest":4936,"ĠÐ¾Ð±ÑĬ":4937,"olutions":4938,"ĠConcert":4939,"Ġespecially":4940,"Ġsing":4941,"ĠAk":4942,"Ġwent":4943,"Ġwild":4944,"ĠKey":4945,"Ġplans":4946,"Ð°Ð¹Ð´":4947,"Ġstarted":4948,"aughter":4949,"ĠSon":4950,"ĠSale":4951,"ĠLetters":4952,"Ġded":4953,"ĠÐļÐ¾Ð½":4954,"Ġissued":4955,"Ġcapital":4956,"ĠPerform":4957,"IES":4958,"yan":4959,"ĠSend":4960,"Ġfavor":4961,"Ġprior":4962,"Ġmass":4963,"ivals":4964,"Ġreason":4965,"íķĻ":4966,"KS":4967,"ĠTR":4968,"Ġhaving":4969,"Ġimplement":4970,"Ġtechn":4971,"Ġproducts":4972,"ĠÐĲÐ»ÐµÐºÑģ":4973,"Ġte":4974,"ĠGaza":4975,"Ġste":4976,"Ġpercent":4977,"Ġdecision":4978,"Ġstreng":4979,"Ġcapt":4980,"Ġruns":4981,"novation":4982,"ĠInquiry":4983,"pis":4984,"Ġtell":4985,"ĠSum":4986,"rem":4987,"Ġinbox":4988,"ĠHosts":4989,"ÑĥÑĤÐ±Ð¾Ð»":4990,"ĠSociety":4991,"ĠDistrict":4992,"nership":4993,"ĠCas":4994,"Ġwar":4995,"ĠBand":4996,"Ġ2018":4997,"ĠUt":4998,"ĠRequ":4999,"ections":5000,"ĠRelations":5001,"£¼":5002,"ĺìĿ":5003,"ĠPit":5004,"unch":5005,"Ġarr":5006,"Ġì£¼":5007,"STP":5008,"ĠStatement":5009,"Ġdoesn":5010,"che":5011,"ŀĲ":5012,"ining":5013,"Ġrespect":5014,"Ð°ÑıÐ²":5015,"ĠInspection":5016,"ĠModi":5017,"uals":5018,"itic":5019,"ÐºÑĤ":5020,"Ġforward":5021,"ably":5022,"Ġblock":5023,"ĠInvesting":5024,"Ġmaterial":5025,"bl":5026,"ļ©":5027,"ĠSac":5028,"Ġpartner":5029,"ĠTopics":5030,"ĺíķĻ":5031,"lean":5032,"aste":5033,"ĠContribut":5034,"ĠÐļÑĥÐ±":5035,"Ġparty":5036,"fully":5037,"ĠSponsorships":5038,"Ã±":5039,"ĠGetty":5040,"ÑģÐºÐ°Ð·":5041,"airs":5042,"Ġsector":5043,"ĠJosh":5044,"joy":5045,"à«":5046,"Ġtea":5047,"ĠMMA":5048,"ĠÐ·Ð°ÑıÐ²":5049,"ĠKR":5050,"ĠPune":5051,"Ġmemo":5052,"56":5053,"lor":5054,"ĠWay":5055,"Ð¾Ð»Ð¶":5056,"gets":5057,"Ġsomeone":5058,"Ġcollision":5059,"ĠFeedback":5060,"vision":5061,"Ð¸Ð¶":5062,"anks":5063,"ication":5064,"à´ļ":5065,"ĠÑģÐ²Ð¾":5066,"ORE":5067,"ĠÐ¼Ð°ÑĤÑĩ":5068,"ordin":5069,"Ð½Ð¸ÐºÐ¾Ð²":5070,"32":5071,"ÑĤÑĮ":5072,"ategy":5073,"achi":5074,"´ìĦ":5075,"Ġparticular":5076,"ĠWhatsApp":5077,"ĠCup":5078,"rec":5079,"ĠBob":5080,"ament":5081,"Ġcrore":5082,"ledge":5083,"47":5084,"ĠMart":5085,"ĠBeach":5086,"ĠMarketing":5087,"ĠDrive":5088,"Ġrepresent":5089,"EST":5090,"Ġtakes":5091,"ĠSite":5092,"Ġwarn":5093,"ĠVoices":5094,"iana":5095,"ĠNHPR":5096,"ĠLegal":5097,"Ð¾Ð½Ð¾Ð¼Ð¸ÐºÐ°":5098,"ĠSport":5099,"Ð¼Ð¾Ð¶":5100,"Ġcritical":5101,"Ġspending":5102,"ĠHolidays":5103,"Ġcontrol":5104,"ĠWNBA":5105,"Ġsuggest":5106,"ĠRoyal":5107,"ĠVolunteer":5108,"Ph":5109,"ĠÐ²Ð¾Ð»":5110,"Ġstay":5111,"umors":5112,"Ð°ÑĢÑĮ":5113,"ĠAdministration":5114,"Ġshop":5115,"ĠForum":5116,"Ġcontroll":5117,"Ġemployees":5118,"ripps":5119,"NF":5120,"mark":5121,"roll":5122,"Ġenc":5123,"ĠSell":5124,"oust":5125,"ĠFore":5126,"ĠHuman":5127,"ĠBaseball":5128,"Ġelectric":5129,"ĠWyoming":5130,"hold":5131,"Ġsum":5132,"Ġseek":5133,"ilot":5134,"ĠWi":5135,"ĠUFC":5136,"Ġrecom":5137,"ĠWhere":5138,"Ġteams":5139,"ĠInvestigates":5140,"Ġwritten":5141,"Ġviol":5142,"Ġpoll":5143,"ĠDube":5144,"Ġlow":5145,"Ġ07":5146,"Ġconditions":5147,"ĠÑĤÑĥÑĢ":5148,"ĠArchives":5149,"pm":5150,"ĠHarsh":5151,"ĠInfo":5152,"ĠLearn":5153,"mitted":5154,"ault":5155,"gu":5156,"oop":5157,"ĠSar":5158,"ĠHomes":5159,"Ġgive":5160,"Ġrate":5161,"ĠVisit":5162,"ĠCompl":5163,"ĠÑģÑĤÑĢÐ°Ð½":5164,"ĠPlayers":5165,"Ġtopics":5166,"ĠText":5167,"ĠMiddle":5168,"acter":5169,"ÐµÑĢÑģ":5170,"ourse":5171,"Ġcollabor":5172,"based":5173,"ĠTel":5174,"ĠAy":5175,"Ġcenter":5176,"ĠOper":5177,"ĠSportsbook":5178,"ĠAndroid":5179,"Ġplayers":5180,"Ġeducation":5181,"ĠKapoor":5182,"Ð½Ðµ":5183,"ĠNov":5184,"enting":5185,"ĠJames":5186,"chieve":5187,"à´µ":5188,"ĠScripps":5189,"roups":5190,"urrency":5191,"Ġidea":5192,"Ġfriends":5193,"ria":5194,"Ġport":5195,"à¤°":5196,"ribution":5197,"ĠÐ²Ð¾ÐµÐ½":5198,"Ġsenior":5199,"ĠCow":5200,"rease":5201,"Ġpush":5202,"Ġbrief":5203,"ĠOld":5204,"Ġever":5205,"val":5206,"Ð¸ÐµÐ²":5207,"ĠCinema":5208,"ĠWel":5209,"istor":5210,"lights":5211,"miss":5212,"aly":5213,"ĠDividend":5214,"ĠLond":5215,"ĠOptions":5216,"ÐµÐ½Ð¸Ð¸":5217,"ĠÐ¾ÑĢ":5218,"ĠOhio":5219,"Ġterms":5220,"igan":5221,"unn":5222,"ĠÐ³Ð¾ÑĢ":5223,"uge":5224,"ouch":5225,"ĠLike":5226,"Ġimmigration":5227,"ĠÑĢÐ¾ÑģÑģÐ¸Ð¹":5228,"Ġrecomm":5229,"ĠHarshit":5230,"Ġsure":5231,"ĠMem":5232,"ÐµÑĢÐ°":5233,"ĠPlanned":5234,"embly":5235,"Ġspeech":5236,"ĠWXPR":5237,"46":5238,"ky":5239,"ĠWH":5240,"ivity":5241,"ÑĨÐ¸Ñı":5242,"Ġjudge":5243,"Ġinvestors":5244,"ĠCharl":5245,"Ġreleased":5246,"Ġgetting":5247,"ĠÐ¿Ð¾ÑĤ":5248,"Ġoffers":5249,"anger":5250,"Ð¸ÑģÑĤÑĢ":5251,"ĠInside":5252,"Ð°ÐµÑĤÑģÑı":5253,"à¥į":5254,"Ġapproach":5255,"ĠUnderwriting":5256,"ĠDiego":5257,"then":5258,"ĠTwo":5259,"ĠMass":5260,"ĠID":5261,"57":5262,"Ġreach":5263,"ĠMonday":5264,"Ġregister":5265,"Ġaircraft":5266,"Ġmanagement":5267,"ĠReturn":5268,"ĠLondon":5269,"Ġess":5270,"ĠSeat":5271,"Ġface":5272,"Ġbill":5273,"ĠKore":5274,"Ġexpress":5275,"ĠResearch":5276,"ĠMinutes":5277,"ĠJeff":5278,"nb":5279,"sel":5280,"ĠWR":5281,"ĠLiving":5282,"use":5283,"agn":5284,"ĠTrends":5285,"ĠChoices":5286,"ĠÐ¿ÑĢÐ¸Ð½":5287,"Ġprem":5288,"Ġdecl":5289,"ĠÐĲÐ½Ð´ÑĢ":5290,"Ġcertain":5291,"49":5292,"news":5293,"ĠMont":5294,"oles":5295,"ĠTheat":5296,"ĠÐŁÐ¾":5297,"ĠÐļÑĢ":5298,"Ġresult":5299,"Ġprovides":5300,"BT":5301,"¦Ŀ":5302,"ĠBal":5303,"ĠEqu":5304,"ĠCross":5305,"ette":5306,"Ġhigher":5307,"Ġprovided":5308,"ĠWiLD":5309,"622":5310,"ĠSays":5311,"ailed":5312,"Ġalerts":5313,"ĠÐļÐ°ÑĢ":5314,"perty":5315,"awai":5316,"prise":5317,"Ġworkers":5318,"Ġsubscrib":5319,"ĠSenior":5320,"QI":5321,"ĠNe":5322,"Ġoil":5323,"ĠÐ¿ÑĢÐ¾Ð´":5324,"ĠÐ·Ð°Ðº":5325,"ĠÐ³Ð¾Ð´":5326,"ĠÐ¿Ð¾ÑģÐ»Ðµ":5327,"look":5328,"ole":5329,"Ġfig":5330,"uries":5331,"abilities":5332,"ĠAsk":5333,"ĠCOVID":5334,"GN":5335,"ging":5336,"Ġclick":5337,"ĠWas":5338,"ĠHas":5339,"Ġnation":5340,"ĠThreat":5341,"ĠÐ´Ð²":5342,"````````":5343,"Ġasked":5344,"ĠOptim":5345,"aug":5346,"à¥Ģ":5347,"laze":5348,"Ð¥":5349,"ë¬":5350,"Ġedit":5351,"ĠÐ®":5352,"ĠCouncil":5353,"ansas":5354,"ureau":5355,"àµ¼":5356,"LA":5357,"iber":5358,"Ġfall":5359,"Ġfoot":5360,"odes":5361,"ĠNotes":5362,"ĠSmith":5363,"ĠKVNF":5364,"ĠJournalism":5365,"48":5366,"CT":5367,"Ġpe":5368,"ĠExpect":5369,"izing":5370,"Ġdoing":5371,"ĠChampionship":5372,"anguage":5373,"bar":5374,"hib":5375,"pts":5376,"There":5377,"Ġperformance":5378,"Ġdelivered":5379,"08":5380,"Re":5381,"ĠRangers":5382,"Ġmorning":5383,"ĠHours":5384,"iants":5385,"ĠBlog":5386,"Ġleading":5387,"Ġrelations":5388,"rupt":5389,"verage":5390,"ĠKing":5391,"active":5392,"izes":5393,"Ġincome":5394,"ĠDetails":5395,"waqt":5396,"eas":5397,"mes":5398,"ĠPick":5399,"Ġfeed":5400,"ecess":5401,"Ġneighborhood":5402,"imum":5403,"lymp":5404,"anders":5405,"Ð¾Ð»ÐµÐ²":5406,"Ġjob":5407,"ÑģÑĤÐ²Ð¾":5408,"ĠÐ¡Ð¿Ð¾ÑĢÑĤ":5409,"ĠUtah":5410,"awaiwaqt":5411,"fires":5412,"ja":5413,"Ģì":5414,"eless":5415,"imed":5416,"ĠÐ½Ð°Ñģ":5417,"ĠClos":5418,"ĠProps":5419,"ART":5420,"ĠDEI":5421,"ĠBollywood":5422,"uk":5423,"Ġsett":5424,"Ġwoman":5425,"Ġdoll":5426,"oct":5427,"anded":5428,"eeks":5429,"Ġbiggest":5430,"ĠHawk":5431,"ĠDaniel":5432,"ĠPacific":5433,"enge":5434,"ĠSol":5435,"ached":5436,"Ð´Ðµ":5437,"Ġvir":5438,"Ġwrote":5439,"ĠAriz":5440,"CS":5441,"ca":5442,"ĠTay":5443,"Ġinform":5444,"Ġthing":5445,"Ġcomb":5446,"ĠIndependent":5447,"ĠCongo":5448,"Ġcreate":5449,"Ġprograms":5450,"ĠCNN":5451,"ĠÐŃÐºÐ¾Ð½Ð¾Ð¼Ð¸ÐºÐ°":5452,"aims":5453,"crib":5454,"Ġfans":5455,"Ġpain":5456,"ĠChat":5457,"ĠÐľÐ¸Ð½":5458,"ĠBlue":5459,"www":5460,"ĠTown":5461,"iden":5462,"ĠOdds":5463,"ĠJoe":5464,"ĠÐ¾ÑĤÐº":5465,"ĠÐ¿ÑĢÐµÐ´Ð»":5466,"Ġblack":5467,"LY":5468,"Ġsy":5469,"ĠCall":5470,"Ġcou":5471,"ĠLa":5472,"ÑİÐ±":5473,"ĠÐ´ÐµÐ½ÑĮ":5474,"Ġ05":5475,"izer":5476,"ĠLeave":5477,"Ġemot":5478,"Ġposition":5479,"ios":5480,"Â°":5481,"ìł":5482,"ĠFiles":5483,"ĠKids":5484,"ĠÐ¿ÑĢÐ¾Ð²":5485,"ĠSmart":5486,"Ġissue":5487,"icing":5488,"Ġbox":5489,"iled":5490,"uro":5491,"ĠOsc":5492,"ctions":5493,"Ġvis":5494,"ĠSpace":5495,"ĠAlso":5496,"Ġworked":5497,"ĠTw":5498,"ĠWr":5499,"ĠGovern":5500,"ÑĩÐ°Ñģ":5501,"Ġleaders":5502,"Ġcountries":5503,"Ġmodel":5504,"ĠFoundation":5505,"75":5506,"ĠAward":5507,"ÑĭÐ¼":5508,"Ġrev":5509,"Ġ(@":5510,"illed":5511,"ĠYah":5512,"Ġmeans":5513,"hicles":5514,"ÐºÑĢÐ°Ð¸Ð½":5515,"ĠConsumer":5516,"hing":5517,"ĠPaper":5518,"asons":5519,"amm":5520,"Ð°ÑĢÐ°":5521,"ellow":5522,"ension":5523,"Ġagents":5524,"ĠManage":5525,"Ġleadership":5526,"ĠDevelopment":5527,"!!":5528,"Ġsitu":5529,"Ġtot":5530,"ĠFans":5531,"ĠÐ¸Ð³ÑĢ":5532,"Ð°Ð¹ÑĤÐµ":5533,"ĠWeekend":5534,"Ġinterview":5535,"Ġcamer":5536,"ĠÐ³Ð¾Ð´Ð°":5537,"Ġunl":5538,"ĠCircle":5539,"ĠNE":5540,"ĠMO":5541,"ĠBC":5542,"Ġdeep":5543,"ĠDonor":5544,"Ġweekend":5545,"ĠSponsor":5546,"Ġelection":5547,"Ġinternational":5548,"rad":5549,"inter":5550,"ĠCost":5551,"ĠPict":5552,"Ġcosts":5553,"ĠMORE":5554,"ĠDM":5555,"ĠLess":5556,"ried":5557,"actions":5558,"ĠScott":5559,"Ð°Ð¶Ð´":5560,"Ġcreated":5561,"Ġchevron":5562,"ĠKarachi":5563,"forcement":5564,"70":5565,"Ġil":5566,"ĠCF":5567,"ĠTO":5568,"Ġculture":5569,"ÑĥÐº":5570,"adem":5571,"ĠReagan":5572,"ror":5573,"wire":5574,"ìĥģ":5575,"arily":5576,"Ġcivil":5577,"ĠMel":5578,"Ġmur":5579,"ĠHousing":5580,"change":5581,"istic":5582,"Ġbegin":5583,"Ġheart":5584,"Â»,":5585,"print":5586,"ĠIslam":5587,"Ġrelated":5588,"ĠÐ²Ð·":5589,"emony":5590,"ĠTrack":5591,"ĠEthics":5592,"Ġà":5593,"Ð°Ñİ":5594,"enew":5595,"ĠDid":5596,"Ġtrying":5597,"ĠUnlock":5598,"ĠAmericans":5599,"Ġrequired":5600,"ĠPaul":5601,"cel":5602,"yond":5603,"berg":5604,"aÃ±":5605,"ĠNiger":5606,"ĠEM":5607,"ĠEU":5608,"Ġbeyond":5609,"ĠRelease":5610,"ĠYoutube":5611,"Ġconvers":5612,"ÐµÐ³Ð¾Ð´":5613,"ĠSever":5614,"Ġbelieve":5615,"ĠArchive":5616,"Ġentertainment":5617,"suit":5618,"onald":5619,"ĠPe":5620,"Ġfarm":5621,"Ġborder":5622,"Ġnomin":5623,"ĠKP":5624,"Ġusers":5625,"Ġdefense":5626,"ĠRespond":5627,"Ġser":5628,"Ð»ÑĮ":5629,"ĠLG":5630,"ÑģÑĤÑĢ":5631,"ĠScore":5632,"Ġsaying":5633,"ĠPortal":5634,"Ġcurrently":5635,"erg":5636,"ÑĢÐ°Ð·":5637,"ĠAQI":5638,"ivest":5639,"umar":5640,"Ġshot":5641,"Ġ49":5642,"ĠTelegram":5643,"ĠÑģÐ¾ÑģÑĤÐ°Ð²Ð»ÑıÐµÑĤ":5644,"ĠMiller":5645,"ĠGoma":5646,"Ġstri":5647,"Ġstates":5648,"Ð¼ÐµÐ½ÐµÐ½Ð¸Ðµ":5649,"ĠSpotlight":5650,"ÐµÐ³Ð¾Ð´Ð½Ñı":5651,"bing":5652,"Ġz":5653,"ĠSav":5654,"ĠCA":5655,"Ġcampaign":5656,"Ġgroups":5657,"ĠÑĢÐ°ÑģÑģÐºÐ°Ð·":5658,"ĠÐĴÐ¡Ð£":5659,"ĠTaylor":5660,"ĠSud":5661,"Ġcut":5662,"ĠNor":5663,"ĠJap":5664,"uters":5665,"ava":5666,"Ġorigin":5667,"Ġresults":5668,"Ġaboard":5669,"ĠArizona":5670,"atters":5671,"Ġlim":5672,"ĠJa":5673,"Ð¾Ð½Ðµ":5674,"Ð¸Ð»ÑģÑı":5675,"ĠÐ¤Ð¾ÑĤÐ¾":5676,"ĠCoast":5677,"Ġconfirmed":5678,"Ġimprove":5679,"ĠNAS":5680,"ĠGreat":5681,"Ġgovern":5682,"ĠÐ¿Ð°ÑĢ":5683,"ÑģÑĤÐ²Ð°":5684,"ĠDisclaim":5685,"Ġbusinesses":5686,"Ġprofit":5687,"ĠYahoo":5688,"ĠAT":5689,"Ġlost":5690,"ĠKit":5691,"Ġ06":5692,"ĠAgriculture":5693,"ĠDirector":5694,"Ġmaintain":5695,"ĠTariffs":5696,"03":5697,"edly":5698,"Ġfires":5699,"ĠHave":5700,"ĠHappy":5701,"ĠGrow":5702,"Ð¼Ðµ":5703,"ĠAnother":5704,"Ġspace":5705,"ĠÐŁÑĢÐ°Ð²":5706,"Ġnavigation":5707,"Ġfamilies":5708,"bum":5709,"Ä±":5710,"ĠSites":5711,"alks":5712,"ĠBR":5713,"Ġdrug":5714,"ĠÐ½Ð°Ð·":5715,"Ð¾ÑĤÐ¾Ð²":5716,"Ġoffering":5717,"ĠÑĨÐµÐ½Ñĭ":5718,"ĠPowered":5719,"Ġbreaking":5720,"ĠDepth":5721,"'ll":5722,"Wire":5723,"liam":5724,"ĠCylind":5725,"ĠWU":5726,"ĠJr":5727,"ological":5728,"Ġ101":5729,"Ġexperi":5730,"ĠEagles":5731,"iod":5732,"itiz":5733,"ĠAudio":5734,"Ġbeg":5735,"ĠÐ½Ð°Ñĩ":5736,"ĠÐĺÐ½":5737,"ĠMinistry":5738,"ĠÐ°ÑĢ":5739,"Ġincident":5740,"ĠPRT":5741,"ĠAustralian":5742,"iately":5743,"Ġindividuals":5744,"ĠTheatre":5745,"PC":5746,"ini":5747,"Ġbody":5748,"ĠDark":5749,"essions":5750,"ifty":5751,"apt":5752,"Ġexclusive":5753,"ĠContin":5754,"Ġcontrovers":5755,"ifications":5756,"Ġchanges":5757,"Ġexplosion":5758,"ĠTamil":5759,"astern":5760,"ĠRumble":5761,"ĠListener":5762,"mittee":5763,"ĠLineups":5764,"Ġlet":5765,"ĠSet":5766,"Ġhope":5767,"ĠHim":5768,"Ð¾ÑĢÐ³":5769,"aby":5770,"ĠConst":5771,"Ġenvironment":5772,"ĠAssembly":5773,"Ġlevels":5774,"ĠCorporate":5775,"Ġquickly":5776,"ero":5777,"ÑĢÐ¾Ð½":5778,"ĠOlymp":5779,"ĠKSTP":5780,"abs":5781,"Ġheard":5782,"Ġ48":5783,"ĠÐ¢ÑĢ":5784,"Ġ70":5785,"ĠCarol":5786,"Ġenhance":5787,"hat":5788,"td":5789,"tle":5790,"ished":5791,"ĠLast":5792,"ĠHope":5793,"ÐµÐ½ÐºÐ¾":5794,"ĠShiv":5795,"ÑīÐµ":5796,"ĠÐ³ÑĢ":5797,"ĠPlaylist":5798,"Ġguide":5799,"Ġensure":5800,"ĠCreate":5801,"ibrary":5802,"liament":5803,"uing":5804,"Ð¾Ð½Ñĭ":5805,"ĠÐ´Ð¾Ð¼":5806,"Ġstrateg":5807,"ĠCareer":5808,"ĠMichigan":5809,"chester":5810,"pisode":5811,"Ġodds":5812,"ĠRw":5813,"osition":5814,"Ġgets":5815,"Ġuser":5816,"Ġmeas":5817,"Ġbreak":5818,"portunity":5819,"ĠDefense":5820,"ĠGalleries":5821,"Ġ00":5822,"Ġweeks":5823,"ĠRah":5824,"ĠRaj":5825,"ĠRoto":5826,"Ġloc":5827,"ĠStreet":5828,"IND":5829,"ĠSponsorship":5830,"flix":5831,"ĠÐ£ÐºÑĢÐ°Ð¸Ð½Ðµ":5832,"PS":5833,"Ġgas":5834,"Ġrates":5835,"Ġitem":5836,"iley":5837,"Ð¾Ð¶Ð´":5838,"Ġquestions":5839,"ications":5840,"ither":5841,"Ġareas":5842,"ĠÐĴÐ¸Ð´ÐµÐ¾":5843,"ĠÑĥÐºÑĢÐ°Ð¸Ð½":5844,"Ð¾Ð±ÐµÐ´":5845,"Ġ75":5846,"Ġprepar":5847,"ĠCelebrity":5848,"ĠIssues":5849,"den":5850,"fort":5851,"ĠSat":5852,"ĠPage":5853,"Ġworks":5854,"Ġhalf":5855,"asters":5856,"ipes":5857,"umbh":5858,"Ġcookies":5859,"band":5860,"Ġoptions":5861,"ÑĥÐµÑĤ":5862,"Ġdocument":5863,"ady":5864,"ÐµÐ½Ð¸":5865,"enced":5866,"Ġ94":5867,"Ġprosecut":5868,"idge":5869,"ecraft":5870,"ample":5871,"ORTS":5872,"restling":5873,"UNC":5874,"ĠFormer":5875,"burgh":5876,"58":5877,"ease":5878,"ĠRiver":5879,"ÑĥÐ·":5880,"ĠDesign":5881,"ĠGasc":5882,"Ġtemper":5883,"se":5884,"orrow":5885,"reme":5886,"Ġcause":5887,"Ġburn":5888,"Ġtrust":5889,"àµ½":5890,"ĠÐ±ÐµÐ·":5891,"ooting":5892,"ĠBefore":5893,"ĠDisc":5894,"ĠVirgin":5895,"Ġprotected":5896,"ylv":5897,"Ġannounce":5898,"nbsp":5899,"ĠJapan":5900,"ÐµÐ»ÐµÐ½":5901,"Ġproduct":5902,"ĠIdeas":5903,"Ġconcern":5904,"Ġvictims":5905,"ĠDenver":5906,"ÑĤÐ¾Ð±Ñĭ":5907,"ĠMax":5908,"ĠFace":5909,"Ġvol":5910,"ĠMinecraft":5911,"ĠChevron":5912,"Ð¸Ð³Ð°":5913,"Ġphot":5914,"do":5915,"ÑĤÑĢ":5916,"Ġsnow":5917,"ĠTickets":5918,"Ġneg":5919,"lying":5920,"ĠÐĴÐ°Ñģ":5921,"Ġintelligence":5922,"ATCH":5923,"ÐŁÐĽ":5924,"Ġcomplete":5925,"ĠDMCA":5926,"Ġside":5927,"Ġbad":5928,"ilt":5929,"ĠThank":5930,"Ġsaw":5931,"ĠCompanies":5932,"END":5933,"Ġstreaming":5934,"Ġworth":5935,"lev":5936,"Ġlower":5937,"Ġonce":5938,"ĠKash":5939,"empt":5940,"Ġcrisis":5941,"Ġdeals":5942,"ĠProduc":5943,"Ð¸ÑĢÐ¾Ð²Ð°Ð½":5944,"ĠOpens":5945,"Ġeverything":5946,"Ġnearly":5947,"ĠIPO":5948,"ki":5949,"itude":5950,"ĠAthlet":5951,"ĠFool":5952,"ÑĭÑĤ":5953,"ĠGulf":5954,"ĠÐ½Ð°Ð¿":5955,"ĠRev":5956,"ĠYears":5957,"ĠPlan":5958,"ĠClar":5959,"ĠAsh":5960,"ÐĴÐŀ":5961,"ĠEuropean":5962,"Ġunderstand":5963,"iec":5964,"Ð°ÑģÐº":5965,"isions":5966,"ĠRates":5967,"Ġrefer":5968,"ĠInv":5969,"ĠYes":5970,"Ġalmost":5971,"ÐµÑģÐ¿":5972,"ĠÐĹÐ°Ð¿":5973,"iversary":5974,"Ġconflic":5975,"Ġsurv":5976,"ĠNetflix":5977,"Ġ2017":5978,"ĠStandards":5979,"Ġconcerns":5980,"ĠQuickreads":5981,"ĠMessages":5982,"Ġchallenges":5983,"rants":5984,"ĠDeb":5985,"term":5986,"ĠÐ¿Ð»":5987,"ander":5988,"ansion":5989,"ĠAgency":5990,"ĠJustin":5991,"Ġprofess":5992,"Ġhappened":5993,"ĠÐķÐ²ÑĢÐ¾Ð¿":5994,"ĠÐ¼Ð¾Ð¶ÐµÑĤ":5995,"ĠBAN":5996,"ĠBiden":5997,"Ð°ÐºÑģ":5998,"Ġnoted":5999,"Ġdisapp":6000,"Ġà´¸":6001,"ÐµÐ·Ð¸Ð´":6002,"ĠRecomm":6003,"ĠAgain":6004,"DE":6005,"ka":6006,"Ġsat":6007,"ĠMS":6008,"adium":6009,"Ġansw":6010,"ipl":6011,"Ġ42":6012,"pson":6013,"Ġroom":6014,"ĠConnected":6015,"Ġcontract":6016,"ĠStarting":6017,"ĠPosted":6018,"Ġmessage":6019,"ĠPitts":6020,"88":6021,"ÑĤÐ¾Ð²":6022,"ĠGerm":6023,"Ġreveal":6024,"Ġgiven":6025,"Ð°Ð½Ð´ÑĢ":6026,"Ġtry":6027,"ousands":6028,"Ġregular":6029,"ĠParenting":6030,"ĠMcD":6031,"ÑĢÐ¾ÑĦ":6032,"Ġideology":6033,"olkata":6034,"ĠETFs":6035,"Ġilleg":6036,"07":6037,"ford":6038,"Ġí":6039,"oral":6040,"ĠTip":6041,"ĠAR":6042,"ĠGiants":6043,"ourts":6044,"unk":6045,"Ð¸Ð½Ð°Ð½":6046,"anna":6047,"opyright":6048,"ĠPatel":6049,"Ð»ÑİÑĩ":6050,"Ġessential":6051,"ĠOptimizer":6052,"aith":6053,"aut":6054,"Ġwitness":6055,"ĠNar":6056,"Ġbenefits":6057,"Ġbegan":6058,"Ð¾ÑģÑĤÐ¾":6059,"ĠÐĿÐ¸Ðº":6060,"Ġgoals":6061,"Ġflights":6062,"ĠÑįÑĤÐ¾Ð¼":6063,"Ġearlier":6064,"ua":6065,"ĠCD":6066,"Ġbar":6067,"Ġbroad":6068,"Ġmind":6069,"ifying":6070,"Ġtraining":6071,"ĠFrench":6072,"Ġplaying":6073,"ĠTHIS":6074,"43":6075,"jet":6076,"ĠAEW":6077,"ĠMD":6078,"ĠMult":6079,"ĠHost":6080,"ĠGirl":6081,"ĠJPR":6082,"ÐµÐ»Ð¸":6083,"Ġresidents":6084,"ĠÐłÐ¾ÑģÑģÐ¸Ñı":6085,"ĠOpportunities":6086,"Ġreporting":6087,"Ġbrowser":6088,"Ġmurder":6089,"sy":6090,"ĠAh":6091,"ĠMission":6092,"Ġmis":6093,"Ġwithd":6094,"Ġvacc":6095,"ĠExecutive":6096,"ĠInterviews":6097,"Ġentire":6098,"Ġimmediately":6099,"Ġsituation":6100,"FP":6101,"side":6102,"yer":6103,"Ġsetting":6104,"Ġsession":6105,"ĠWinn":6106,"ĠWUNC":6107,"ĠGand":6108,"Ð¾Ð³Ð´Ð°":6109,"Ġcredit":6110,"ĠAircraft":6111,"Ġremain":6112,"Ġproviding":6113,"Ġleader":6114,"ĠConsider":6115,"Ġeconomy":6116,"Ġprediction":6117,"ĠCowb":6118,"ĠGascÃ³n":6119,"ĠPA":6120,"ĠWarn":6121,"Ġdone":6122,"roy":6123,"ĠJets":6124,"ĠKolkata":6125,"ÐµÑĢÐ³":6126,"ĠEnt":6127,"Ġintro":6128,"Ġinfrastructure":6129,"rugg":6130,"ĠED":6131,"enda":6132,"ustan":6133,"avy":6134,"ĠAny":6135,"Ġregion":6136,"ĠVenezuela":6137,"ĠMoment":6138,"aÃ±ol":6139,"west":6140,"ĠLimited":6141,"Ġdespite":6142,"ĠChand":6143,"Ġsigned":6144,"Ġassoci":6145,"ĠInterest":6146,"Ġcollect":6147,"ĠFestivals":6148,"ĠÐłÐµÐºÐ»Ð°Ð¼Ð°":6149,"evin":6150,"ĠÐ¿ÑĢÐµÐ´Ð»Ð¾Ð¶":6151,"Ġcamera":6152,"ÑĢÐµ":6153,"Ġwel":6154,"ĠPres":6155,"Ġ67":6156,"ÑĤÐ¸Ð²":6157,"ĠPrevious":6158,"Ġstudy":6159,"Ġparticip":6160,"ĠIntelligence":6161,"àµĨâĢĭ":6162,"ĠImpact":6163,"ĠPittsburgh":6164,"AJ":6165,"ĠPH":6166,"Ġcode":6167,"Ġcommercial":6168,"Ġ80":6169,"Ġplayed":6170,"Ġtransgender":6171,"leges":6172,"ĠIndiana":6173,"ĠSCV":6174,"ĠÐ¿Ð¾ÑģÐ»ÐµÐ´Ð½":6175,"Tech":6176,"You":6177,"door":6178,"Ġíķ":6179,"Ġbroadcast":6180,"ĠÐ¿Ð¾Ñģ":6181,"ĠStorm":6182,"Ġround":6183,"ĠKansas":6184,"ĠClin":6185,"ĠClosed":6186,"ĠCongress":6187,"Ð°Ð´Ð¸":6188,"Ġplayer":6189,"Ġcoordin":6190,"Tr":6191,"osing":6192,"Ġlate":6193,"ĠÐ¿Ð¾Ð³":6194,"ĠÐ¸Ñħ":6195,"apers":6196,"ĠÐµÐ³Ð¾":6197,"Ġrequire":6198,"iminal":6199,"IR":6200,"de":6201,"patch":6202,"ĠGift":6203,"ÐµÑĤÑĭ":6204,"Ġproduction":6205,"ĠSched":6206,"ĠTechn":6207,"Ġinvestment":6208,"ĠHoliday":6209,"Ġpassword":6210,"ĠHawai":6211,"Ġtotal":6212,"cue":6213,"ĠBad":6214,"ĠJon":6215,"aka":6216,"emale":6217,"ĠÑĢÐµ":6218,"Ġseven":6219,"à¤¿":6220,"Ġà´ª":6221,"inois":6222,"ĠLearjet":6223,"Ġpopular":6224,"Ġboost":6225,"hics":6226,"iot":6227,"oons":6228,"ican":6229,"Ġadvert":6230,"Ð¸Ð¼Ð¸":6231,"ĠBlogs":6232,"ĠPhilly":6233,"Ġopportunity":6234,"Ġhearing":6235,"ĠÐĲÐ»ÐµÐºÑģÐ°Ð½Ð´ÑĢ":6236,"ination":6237,"ares":6238,"Ġsust":6239,"ĠOP":6240,"Ġgreen":6241,"ocket":6242,"ĠÐ¼Ð¸Ð½":6243,"Ġclosed":6244,"ÐļÐĲ":6245,"ĠRecent":6246,"ĠFlight":6247,"Ġstrengthen":6248,"ivestream":6249,"alent":6250,"ĠCase":6251,"ĠNifty":6252,"ĠEsp":6253,"ĠGovt":6254,"ĠArrow":6255,"ÐºÐ°Ñĩ":6256,"ĠEverything":6257,"ĠIllinois":6258,"Im":6259,"ÑĤÐµÑĢ":6260,"ĠCH":6261,"ĠTS":6262,"ouver":6263,"ĠPS":6264,"ÑĮÑİ":6265,"Ð·Ð°":6266,"orse":6267,"ancouver":6268,"Ġprevent":6269,"Ġincludes":6270,"ATED":6271,"Ġvalue":6272,"Ð°Ð¹Ð´Ð¶":6273,"Ġeditor":6274,"100":6275,"esman":6276,"ĠRyan":6277,"ÑĥÑģÑĤ":6278,"ĠStatus":6279,"Ġrange":6280,"Ġreceived":6281,"ĠShivam":6282,"ĠCop":6283,"ĠPosts":6284,"ĠNeed":6285,"ĠMike":6286,"level":6287,"Ġmatter":6288,"Ġhot":6289,"Ġemergency":6290,"ĠÐĵÑĢ":6291,"Ġanything":6292,"Ġregard":6293,"ĠDrink":6294,"Ġupdated":6295,"ĠRanji":6296,"ĠSeattle":6297,"ĠSind":6298,"ĠPu":6299,"ĠMajor":6300,"ĠKoh":6301,"Ġcross":6302,"Ġclimate":6303,"iverse":6304,"ĠListings":6305,"Ġamb":6306,"ULT":6307,"iplom":6308,"For":6309,"Imp":6310,"ĠSource":6311,"ĠNJ":6312,"ĠFarm":6313,"ĠFuture":6314,"ĠUP":6315,"ĠKevin":6316,"Ġperiod":6317,"ĠSwing":6318,"Ġsimilar":6319,"Ġoutside":6320,"men":6321,"Ġsong":6322,"ĠCT":6323,"ĠAFC":6324,"ĠAstr":6325,"ĠNawaiwaqt":6326,"ĠBirth":6327,"ĠFight":6328,"ĠLPG":6329,"Ġ32":6330,"ĠProt":6331,"ouses":6332,"Ġability":6333,"egr":6334,"ĠSchools":6335,"ĠRobert":6336,"Ġequity":6337,"ÐµÑĢÐ¸Ð°Ð»Ñĭ":6338,"¼ë":6339,"ĠSer":6340,"Ġcourse":6341,"ĠBur":6342,"ĠFC":6343,"ĠEIN":6344,"Ġlic":6345,"imal":6346,"ĠVancouver":6347,"ĠPros":6348,"Ġwasn":6349,"ĠÐŀÐ´":6350,"ĠRadar":6351,"umbers":6352,"ĠÐºÐ¾ÑĤÐ¾ÑĢÑĭÐµ":6353,"ĠParty":6354,"ĠMissour":6355,"YC":6356,"nel":6357,"ĠPot":6358,"igar":6359,"ĠÐ¡Ð»":6360,"ĠGuard":6361,"Ġdirectly":6362,"ĠPromos":6363,"ĠÐļÑĥÑĢÑģÐºÐ¾Ð¹":6364,"void":6365,"Air":6366,"ĠMaking":6367,"ĠWM":6368,"Ġlives":6369,"ĠVik":6370,"Ġspread":6371,"Ġsuff":6372,"itting":6373,"ĠCapit":6374,"ĠIsraeli":6375,"ĠMust":6376,"ĠFan":6377,"ĠWood":6378,"Ġgovt":6379,"Ġisn":6380,"Ġ35":6381,"ĠÐ¿ÑĢÐ¾Ð³":6382,"ĠÐ½Ð°ÑĪ":6383,"Ġjud":6384,"Ġoffensive":6385,"Ġfreeze":6386,"Ġfront":6387,"ĠChris":6388,"ĠConfidential":6389,"ĠRotoWire":6390,"800":6391,"92":6392,"ECH":6393,"gent":6394,"sylv":6395,"Ġtour":6396,"isl":6397,"ĠRoll":6398,"Ġlo":6399,"ĠÐ¿Ð¾Ð²":6400,"ĠÐ³Ð»Ð°Ð²":6401,"Ġà´®":6402,"attle":6403,"ĠObs":6404,"icias":6405,"Ġgeneral":6406,"):":6407,"As":6408,"tm":6409,"uce":6410,"Ġtext":6411,"ĠTem":6412,"ĠEarn":6413,"ĠHard":6414,"Ġconference":6415,"isease":6416,"Ġì¦Ŀ":6417,"Ġregul":6418,"Ġmanufact":6419,"Ġeveryone":6420,"Ġcarrying":6421,"Ġopportunities":6422,"Ġprotect":6423,"ĠMetro":6424,"Ġpurp":6425,"Ġlaunch":6426,"erry":6427,"Ġden":6428,"ĠHur":6429,"otions":6430,"Ð¼Ð°":6431,"Ġyoutube":6432,"ÑĨÐµÐ²":6433,"ĠChall":6434,"ĠÐĲÐ·":6435,"ĠÐ¸Ð·Ð²ÐµÑģÑĤ":6436,"uesday":6437,"Ġdemand":6438,"ĠQuestions":6439,"ĠEarth":6440,"Ġregistered":6441,"sylvania":6442,"fol":6443,"iant":6444,"ĠÑĥÐ²":6445,"Ð¸Ð·Ð²":6446,"Ġlawsuit":6447,"Ġ2016":6448,"ĠCommission":6449,"Ġauthorities":6450,"ocuments":6451,"ĠCustomer":6452,"ĠCowboys":6453,"ĠMissouri":6454,"del":6455,"Ġachieve":6456,"ĠSay":6457,"reens":6458,"ĠLivestream":6459,"ĠGab":6460,"rog":6461,"ĠAdani":6462,"ĠMinute":6463,"ATION":6464,"Ġtransform":6465,"ĠTrial":6466,"ĠAfrican":6467,"cript":6468,"500":6469,"inions":6470,"Ġsn":6471,"ĠCFL":6472,"Ġball":6473,"ĠePaper":6474,"ublish":6475,"ologies":6476,"ought":6477,"Ġhelps":6478,"ICE":6479,"Ġthought":6480,"ĠVirginia":6481,"TER":6482,"iser":6483,"Ġcy":6484,"Ġcur":6485,"ĠMaster":6486,"ĠFact":6487,"ĠWL":6488,"ĠLions":6489,"ĠLoad":6490,"ĠGaming":6491,"ĠJack":6492,"Ġclaims":6493,"ĠChiefs":6494,"ĠPennsylvania":6495,"augur":6496,"bre":6497,"Ġer":6498,"anch":6499,"ĠBon":6500,"ĠRaid":6501,"usband":6502,"Ġliving":6503,"Ġcommit":6504,"ishing":6505,"Ġdisaster":6506,"Ġexperts":6507,"ronic":6508,"Ġmarkets":6509,"Ġfeet":6510,"iscal":6511,"ÐµÑĢÐ±Ð°Ð¹Ð´Ð¶":6512,"Ġparticularly":6513,"Com":6514,"wal":6515,"ĠTor":6516,"ĠWoman":6517,"ĠLok":6518,"ĠGh":6519,"ĠOil":6520,"utch":6521,"andid":6522,"ÑĦÐ¸ÑĨ":6523,"ĠPolicies":6524,"ĠOffer":6525,"Ġaccept":6526,"Ġallowed":6527,"prof":6528,"ĠÑĤÐ°ÐºÐ¶Ðµ":6529,"Ġvarious":6530,"ĠìĨĮì":6531,"ĠChildren":6532,"Ġemotional":6533,"ìłľ":6534,"Ġwithdraw":6535,"³´":6536,"ĠTurn":6537,"isks":6538,"ĠMountain":6539,"Ġhom":6540,"aga":6541,"Ġconcussion":6542,"Ð¸Ð¼Ð½":6543,"Ġenjoy":6544,"aij":6545,"Ġactually":6546,"ĠAmb":6547,"ĠDispatch":6548,"ĠStudent":6549,"Ġannounces":6550,"Ġwriting":6551,"Ġì£¼ìłľ":6552,"ĠCarolina":6553,"ĠSindh":6554,"Impact":6555,"Ġì¦Ŀìĥģ":6556,"IG":6557,"Ġcard":6558,"Ġdiv":6559,"ĠOwn":6560,"ocurrency":6561,"rome":6562,"Ð¾ÑĤÐ¸Ð²":6563,"ĠColumb":6564,"ĠÐ¿ÑĢÐµÐ´ÑģÑĤÐ°Ð²":6565,"ĠStateImpact":6566,"Ġshowed":6567,"ĠExpand":6568,"Pl":6569,"UST":6570,"eness":6571,"reland":6572,"ĠHPR":6573,"Ġlines":6574,"à´¦":6575,"ĠÐłÑĥÑģ":6576,"ĠProv":6577,"Ġsche":6578,"Ġrecently":6579,"Ġattorney":6580,"ĠSouthern":6581,"Ġneeded":6582,"ĠParis":6583,"ĠìĿ¼ë":6584,"ambling":6585,"Ġbuilding":6586,"ĠDigest":6587,"ĠÐ²Ð¾Ð»Ð¾ÑģÑĤÑĮ":6588,"ĠìĿ¼ë°":6589,"met":6590,"Ġê°ľ":6591,"Ġson":6592,"rees":6593,"Ġbit":6594,"ĠDies":6595,"ĠÐľÐ°ÑĤ":6596,"ĠÐ¤ÑĥÑĤÐ±Ð¾Ð»":6597,"Ġenough":6598,"Ġexpert":6599,"Ġdescrib":6600,"Ġrestrict":6601,"ĠìĿĺíķĻ":6602,"ĠìĨĮê°ľ":6603,"ĠBroadcasting":6604,"ĠThompson":6605,"¸ìļ©":6606,"ĺìĿ¸ìļ©":6607,"ĠìĿ¼ë°ĺìĿ¸ìļ©":6608,"An":6609,"TR":6610,"Ġsou":6611,"ĠPent":6612,"Ġways":6613,"ĠName":6614,"ĠWI":6615,"ÑĥÐºÐ°":6616,"ĠÐ²Ð¾Ð¿":6617,"ĠVis":6618,"ĠThree":6619,"avitt":6620,"Ġleave":6621,"Ġsoon":6622,"ĠZeal":6623,"ourney":6624,"ĠOpenAI":6625,"Ġstarts":6626,"ĠCommentary":6627,"IST":6628,"ga":6629,"ij":6630,"ĠCut":6631,"Ġpilot":6632,"ĠBenefits":6633,"Ġhour":6634,"Ġstation":6635,"ĠRef":6636,"ĠÐ¢ÑĥÑĢ":6637,"ĠBrit":6638,"Ġdecades":6639,"ĠCompet":6640,"enefit":6641,"ĠColumn":6642,"Ġfactors":6643,"Ġcaused":6644,"SP":6645,"log":6646,"resp":6647,"Ĩį":6648,"ĠSections":6649,"Ġsense":6650,"ĠMac":6651,"Ġpers":6652,"ento":6653,"ĠWATCH":6654,"Ð°ÑĤÑĭ":6655,"ĠÐ½Ð°Ð³":6656,"ĠÐ´Ð½ÐµÐ¹":6657,"ĠBuild":6658,"ĠAPM":6659,"à¥ĩ":6660,"ĠìĨĮìĨį":6661,"DF":6662,"HC":6663,"itable":6664,"ĠLat":6665,"Ġdog":6666,"Ġhopes":6667,"Ġyoung":6668,"Ġscreen":6669,"ÑģÑĤÐ²ÐµÐ½":6670,"ributed":6671,"going":6672,"ĠCharts":6673,"ĠMcC":6674,"Ð³ÑĢÐ°Ð´":6675,"ĠDeva":6676,"ÐºÐ°ÑĩÐ°ÑĤÑĮ":6677,"fect":6678,"ias":6679,"ĠAviation":6680,"Ð»ÐµÑĤ":6681,"ÑıÐ²":6682,"ĠÐ¿Ð¾Ð¿":6683,"Ġroll":6684,"ĠReveal":6685,"ĠÑĢÐµÑĪ":6686,"ĠÐ¾ÑĤÐ¼":6687,"ĠImprint":6688,"ification":6689,"ĠÐŁÑĢÐ¾":6690,"ĠÐĺÐ²Ð°Ð½Ð¾Ð²Ð¸Ñĩ":6691,"Ġindividual":6692,"ĠStephen":6693,"NI":6694,"Tulsa":6695,"bs":6696,"eign":6697,"Ġtro":6698,"ĠTuesday":6699,"ĠField":6700,"ĠPredict":6701,"undred":6702,"Ġà´ķ":6703,"ĠNoida":6704,"Ġcontinued":6705,"ĠWNYC":6706,"Ġoperations":6707,"ĠStudioTulsa":6708,"ĠìłĢì":6709,"ĠSchedules":6710,"ĠìłĢìŀĲ":6711,"baij":6712,"à¦":6713,"ĠCamp":6714,"ĠIreland":6715,"Ġthousands":6716,"Ġcomm":6717,"Ġcommon":6718,"ikes":6719,"raight":6720,"izations":6721,"Ð°Ð»ÑĮÐ½ÑĭÐµ":6722,"Ġairport":6723,"Ġresponders":6724,"ĠWellness":6725,"bard":6726,"makers":6727,"Ġaward":6728,"oph":6729,"ĠÐŁÐµÑĤ":6730,"àµĭ":6731,"ĠAndrew":6732,"Ġgoal":6733,"ERS":6734,"ĠNoticias":6735,"Ġreading":6736,"ĠGeorg":6737,"zerbaij":6738,"´ìĦ¤":6739,"Ġíķ´ìĦ¤":6740,"ĠZealand":6741,"ÑĢÐµÐ´":6742,"ĠMid":6743,"Ð»Ðµ":6744,"ĠRog":6745,"Ġmiddle":6746,"ĠLah":6747,"Ġloan":6748,"ĠUr":6749,"ĠÐ½Ð¾":6750,"ĠÐłÐ¤":6751,"ramento":6752,"Ġnothing":6753,"ĠÐĵÐ¾Ð²":6754,"Ġenforcement":6755,"ĠHealthcare":6756,"Ġactions":6757,"rought":6758,"Ġconsum":6759,"ĠKPBS":6760,"ĠKohli":6761,"76":6762,"atives":6763,"arian":6764,"ĠPur":6765,"leashing":6766,"ĠBah":6767,"ĠBalt":6768,"ĠEST":6769,"aven":6770,"ĠÐ¡Ð¾":6771,"overs":6772,"Ð¸ÑĢÐ¾Ð²Ð°ÑĤÑĮ":6773,"ĠMusk":6774,"EDIA":6775,"Ġabs":6776,"ĠAmid":6777,"Ġbecame":6778,"ĠÐ§ÐµÐ¼Ð¿Ð¸Ð¾Ð½Ð°ÑĤ":6779,"Ġtransport":6780,"Ġvehicles":6781,"ĠSacramento":6782,"ĠPictures":6783,"alition":6784,"Ġfirm":6785,"ĠBull":6786,"Ð¼Ñĥ":6787,"Ġstrugg":6788,"irement":6789,"ĠExpert":6790,"ĠEngine":6791,"ĠInterns":6792,"Ġpromote":6793,"Ġmodern":6794,"ĠProfess":6795,"ĠClosings":6796,"well":6797,"orge":6798,"ĠSom":6799,"ĠPerson":6800,"Ġnecess":6801,"ÐµÐ½Ð½":6802,"Ġeight":6803,"ĠÐ¿Ð¾Ð¼":6804,"illa":6805,"rian":6806,"ables":6807,"Ð¾Ð½Ð°":6808,"Ġ08":6809,"ika":6810,"ova":6811,"hens":6812,"ĠAli":6813,"ĠLeavitt":6814,"Ġevening":6815,"Ġowner":6816,"EMENT":6817,"Ġgirls":6818,"ĠPerformance":6819,"sych":6820,"ĠLahore":6821,"Ġbench":6822,"ola":6823,"âĢĻ:":6824,"Ð°Ð½ÑĤ":6825,"Ð³Ð¾ÑĢ":6826,"ĠSignal":6827,"ĠQuiz":6828,"ĠVirat":6829,"ĠSIGN":6830,"Ġexciting":6831,"ĠUnlocked":6832,"easefire":6833,"ķí":6834,"ĠSA":6835,"ĠAzerbaij":6836,"irit":6837,"ĠKPR":6838,"Ġanalysis":6839,"Ġspot":6840,"ĠDeals":6841,"ĠAspen":6842,"Ġseem":6843,"ÑĢÑĥÐ´":6844,"Ġincluded":6845,"ĠRecipes":6846,"ÐľÐĺ":6847,"ĠParliament":6848,"ĠÐ¼Ð¸ÑĢÐ°":6849,"Ġsafe":6850,"ĠHindustan":6851,"ĠCylinder":6852,"ĠRaiders":6853,"Un":6854,"dom":6855,"ered":6856,"Ġage":6857,"ĠRES":6858,"Ġmill":6859,"ĠHon":6860,"ĠHal":6861,"Ġla":6862,"ĠVeg":6863,"Ġprim":6864,"ĠCommercial":6865,"ghan":6866,"ĠÐ±Ð¾Ð»ÑĮÑĪ":6867,"Ġscient":6868,"Ð°Ð¶Ðµ":6869,"ĠGrand":6870,"ĠÐ¿ÐµÑĢÐ²":6871,"Ġincreased":6872,"ĠSustainer":6873,"ĠNigeria":6874,"ĠDisclaimer":6875,"42":6876,"ken":6877,"ĠBiz":6878,"ĠRound":6879,"ĠWebs":6880,"ĠÐ´ÑĢÑĥÐ³":6881,"ĠPlace":6882,"Ġadditional":6883,"ĠÑģÑĤÐ¾":6884,"ÐµÐ³Ð¸ÑģÑĤÑĢ":6885,"Ġcollege":6886,"Ġsystems":6887,"point":6888,"ĠCatch":6889,"ĠBureau":6890,"Ġanti":6891,"Ð¸Ð»Ð¾":6892,"Ð¾ÑģÑĮ":6893,"Ġspok":6894,"ultural":6895,"ĠRecords":6896,"uced":6897,"ESS":6898,"Ġtariff":6899,"Ġrequest":6900,"Ġlinked":6901,"ĠKVPR":6902,"razil":6903,"Ġdedicated":6904,"51":6905,"Ġsav":6906,"Ġov":6907,"ĠRic":6908,"Ġvot":6909,"Ð½ÑĭÐ¼Ð¸":6910,"acked":6911,"Ġkids":6912,"Ġspeed":6913,"ĠProgramming":6914,"ĠPete":6915,"Ġinflu":6916,"ĠBrowns":6917,"ÃŃa":6918,"ĠÐ¾ÑĤÐºÑĢÑĭ":6919,"ĠBaltim":6920,"CAR":6921,"He":6922,"Ġill":6923,"ĠSett":6924,"ĠPoll":6925,"ĠMade":6926,"ĠInto":6927,"ĠInnovation":6928,"endra":6929,"anka":6930,"ĠQuotes":6931,"ĠGolden":6932,"ĠAssociation":6933,"ĠÐ¿Ð¾Ð´Ð¿Ð¸ÑģÑĩÐ¸ÐºÐ¾Ð²":6934,"Ġfavorite":6935,"ĠÐ½Ð°Ð³ÑĢÐ°Ð´":6936,"ĠBaltimore":6937,"house":6938,"te":6939,"Ġcoun":6940,"Ġmother":6941,"oti":6942,"Ġforces":6943,"Ð³ÑĢÑĭ":6944,"icals":6945,"owna":6946,"ĠForce":6947,"ĠÑĩÐ°ÑģÑĤ":6948,"ĠÑĩÑĤÐ¾Ð±Ñĭ":6949,"ĠCollection":6950,"ĠRecord":6951,"ucky":6952,"Ġlonger":6953,"ĠCentre":6954,"Ġpurch":6955,"ĠMaduro":6956,"ĠKelowna":6957,"ĠCartoons":6958,"89":6959,"ĠMany":6960,"ĠMets":6961,"ĠIts":6962,"ĠKim":6963,"ÑĨÐµÐ½":6964,"ĠTrail":6965,"ĠÐĶÐ¾Ð½":6966,"Ð¾ÑĩÐµÐ¼Ñĥ":6967,"Ġpolicies":6968,"Ġblocks":6969,"ĠHeroes":6970,"Ġsky":6971,"offs":6972,"PH":6973,"bell":6974,"xiety":6975,"±ķí":6976,"Ġes":6977,"Ħ°":6978,"Ġtown":6979,"ĠÑģÐ¾Ð²":6980,"ceed":6981,"ĠÐłÐŁÐĽ":6982,"àµĩ":6983,"Ġcancer":6984,"Ġì±ķí":6985,"Ð°Ð¿Ð¸ÑĤ":6986,"ĠGallery":6987,"Ġì±ķíĦ°":6988,"IF":6989,"auty":6990,"Ġê":6991,"ĠFed":6992,"ĠGener":6993,"ĠOs":6994,"ĠÐŁÑĥÑĤ":6995,"awa":6996,"ĠImage":6997,"Ġgoes":6998,"Ð¡Ð¢":6999,"Ġsubscribe":7000,"Ġactress":7001,"idden":7002,"IL":7003,"ĠCast":7004,"enture":7005,"chi":7006,"unning":7007,"illage":7008,"rie":7009,"Ð¾ÑģÐ¿":7010,"Ġadmin":7011,"forms":7012,"Ġ800":7013,"Ġstarting":7014,"ĠPeter":7015,"ĠÐ²Ð¾Ð·Ð¼Ð¾Ð¶":7016,"ĠÐļÑĥÐ±Ð¾Ðº":7017,"uz":7018,"ĠSince":7019,"Ġclean":7020,"ĠBorder":7021,"Ġthr":7022,"Ġnatural":7023,"Ġlakh":7024,"agues":7025,"illing":7026,"ĠÐ·Ð°Ð´":7027,"Ġcomplex":7028,"Ġdoor":7029,"ĠSponsored":7030,"ĠReddit":7031,"ĠKarla":7032,"ĠTweet":7033,"ĠRh":7034,"Ġmax":7035,"Ġdraft":7036,"ĠEV":7037,"ĠHi":7038,"iders":7039,"uses":7040,"ÑģÑĤÐ¾ÑĢ":7041,"endations":7042,"ĠTrav":7043,"ĠÐłÐ¾ÑģÑģÐ¸Ñİ":7044,"Ġlawyer":7045,"105":7046,"ĠArtificial":7047,"Ġceremony":7048,"Ġseeking":7049,"ĠDNA":7050,"ĠStill":7051,"Ġinters":7052,"Ġsubscription":7053,"ĠPresswire":7054,"Ġmoving":7055,"ackson":7056,"Ġcoverage":7057,"ĠExperts":7058,"ĠExperience":7059,"Ġfighting":7060,"ĠRestaur":7061,"Ġdollars":7062,"ĠÐĲÐ·ÐµÑĢÐ±Ð°Ð¹Ð´Ð¶":7063,"logo":7064,"mail":7065,"px":7066,"ract":7067,"rick":7068,"Ġtouch":7069,"ĠCP":7070,"ĠNFC":7071,"Ð´ÐµÑĢÐ¶":7072,"ĠÑģÐµÑĢ":7073,"pped":7074,"ĠÐĶÐ¶":7075,"ournament":7076,"ĠValent":7077,"Ġroute":7078,"Ġshopping":7079,"ĠLGBT":7080,"ĠBANK":7081,"66":7082,"74":7083,"ban":7084,"cos":7085,"ĠSave":7086,"ÐµÐ½ÑĤÑĢ":7087,"yster":7088,"Ġwriter":7089,"ĠLIF":7090,"ĠDemocratic":7091,"Ġarrested":7092,"ĠTREND":7093,"ĠWrite":7094,"Ġserious":7095,"ĠTRENDING":7096,"Ã¡":7097,"Ġcir":7098,"ĠBrazil":7099,"Ġrisks":7100,"oper":7101,"Ð°ÑĤÐ°ÑģÑĤ":7102,"ĠKent":7103,"ĠÐ¡ÐµÑĢÐ³":7104,"ĠÐ¼ÐµÑģÑĤ":7105,"ĠÐĹÐ°":7106,"Ġrelief":7107,"ĠÐ£ÐºÑĢÐ°Ð¸Ð½Ñĭ":7108,"ÐµÑĢÑĤÐ¾Ð»":7109,"Ġmassive":7110,"Ð°ÐºÑģÐ¸Ð¼":7111,"PA":7112,"ris":7113,"Ġaviation":7114,"icult":7115,"Ġple":7116,"Ġpodc":7117,"ĠBan":7118,"ĠRa":7119,"ĠWarm":7120,"Ġdro":7121,"Ġforeign":7122,"ĠKe":7123,"ĠArab":7124,"2024":7125,"Ġbrands":7126,"Ġmovie":7127,"Ġmarking":7128,"ĠSpringfield":7129,"Ð°ÑĤÐ°ÑģÑĤÑĢÐ¾ÑĦ":7130,"GPT":7131,"cont":7132,"ĠSessions":7133,"ĠCateg":7134,"ĠBald":7135,"ĠDiv":7136,"eland":7137,"ĠÐŁÐ¾Ð»":7138,"ÐµÐ²Ð°":7139,"ÐµÐ¹ÑĤ":7140,"ĠCanucks":7141,"Ġflu":7142,"Ġminister":7143,"Ġeffort":7144,"ĠPremier":7145,"Ġincreasing":7146,"Ġmoments":7147,"ĠSnap":7148,"respond":7149,"nite":7150,"Ġends":7151,"Ð½Ð°ÑĢ":7152,"ĠUl":7153,"ĠJenn":7154,"ĠKenn":7155,"ÐµÑĢÐ¾Ð²":7156,"Ð¸Ð»Ð¾Ð¶":7157,"ĠInstitute":7158,"Ġattempt":7159,"ICS":7160,"Ġinsp":7161,"Ġtrading":7162,"ĠShares":7163,"ĠRequest":7164,"han":7165,"iams":7166,"ĠPast":7167,"Ġwor":7168,"ĠHarr":7169,"Ġrise":7170,"earing":7171,"ĠÐ¾Ñĩ":7172,"ples":7173,"Ġshock":7174,"under":7175,"Ġintended":7176,"ORIES":7177,"ĠDemand":7178,"Ġmissile":7179,"ÑģÑĭÐ»":7180,"Ġpassengers":7181,"Ġfootage":7182,"ĠNASCAR":7183,"Ġtroops":7184,"ĠSystem":7185,"ĠSession":7186,"rehens":7187,"Ġhapp":7188,"Ġne":7189,"ÐµÐ½Ð½Ð¾ÑģÑĤÐ¸":7190,"Ġstated":7191,"ĠContrast":7192,"ĠÑĤÐ¾ÑĢÐ³":7193,"Ġpartners":7194,"ĠOrigin":7195,"ĠCaption":7196,"Ġinsurance":7197,"ĠSof":7198,"ĠDistribution":7199,"ĠGarden":7200,"Ġsingle":7201,"Ġunlimited":7202,"Ġconflict":7203,"ĠGandhi":7204,"ÑģÐ¸Ð¸":7205,"ĠFame":7206,"ĠLab":7207,"Ġdoct":7208,"ÑĭÑĪ":7209,"ĠJun":7210,"agon":7211,"ĠKeep":7212,"ĠÑĤÑĭ":7213,"Ġquality":7214,"imself":7215,"ĠPartnership":7216,"Ġparents":7217,"ĠCryptocurrency":7218,"Ġschools":7219,"ĠSens":7220,"Ġsource":7221,"ĠJo":7222,"porary":7223,"udd":7224,"ĠDiscuss":7225,"Ġgrant":7226,"ĠAtl":7227,"Ġseconds":7228,"ĠMotley":7229,"Ġannual":7230,"selves":7231,"ĠEspaÃ±ol":7232,"BL":7233,"UM":7234,"net":7235,"iny":7236,"ĠWall":7237,"ĠJet":7238,"ĠJackson":7239,"imately":7240,"allas":7241,"ĠÐĴÐ°ÑĪ":7242,"letters":7243,"ĠExt":7244,"Ġunique":7245,"Ġoverall":7246,"Ġevidence":7247,"Ġsubst":7248,"Ġthroughout":7249,"ĠInternet":7250,"ĠBanking":7251,"ĠTelevision":7252,"ĠÐĵÐ¾Ð³Ð¾Ð»ÐµÐ²":7253,"ĠWUWF":7254,"ule":7255,"Ġpull":7256,"Ġmix":7257,"Ġdaughter":7258,"ĠKings":7259,"ÑĨÐ°":7260,"alled":7261,"Ð¸Ð½Ð¾Ð²":7262,"ĠÐĴÐ»Ð°Ð´":7263,"ĠCape":7264,"esha":7265,"ĠWilliams":7266,"ÑĥÐ±Ð»Ð¸Ðº":7267,"Ġdamage":7268,"itizens":7269,"ĠSri":7270,"anish":7271,"alo":7272,"ouble":7273,"Ġbal":7274,"ÐºÐ¾Ð¹":7275,"ĠÐ´ÐµÑĤ":7276,"ĠFrance":7277,"Ġattacks":7278,"Ġpatient":7279,"Ġclosings":7280,"Ġcommunities":7281,"Ġnetwork":7282,"ĠInjury":7283,"Ġintersection":7284,"pet":7285,"ront":7286,"Ħì":7287,"itional":7288,"Ġsoci":7289,"Ġsales":7290,"Ġinaugur":7291,"ĠRav":7292,"Ġstre":7293,"Ġstorm":7294,"ÑĪÐ¸Ñħ":7295,"ĠSaudi":7296,"ĠÐ°Ð²ÑĤ":7297,"Ġillegal":7298,"ĠSher":7299,"ĠBul":7300,"ĠBall":7301,"ils":7302,"ĠDomin":7303,"ĠEff":7304,"ĠÐ²Ð°ÑĪ":7305,"ĠKam":7306,"Ð¸Ð½Ð¾":7307,"Ġtrue":7308,"ĠÐĵÐ¾Ð²Ð¾ÑĢ":7309,"Ð°Ð»ÑĮÐ½ÑĭÐ¹":7310,"duced":7311,"ugu":7312,"Ġreturns":7313,"ĠÐ£ÐºÑĢÐ°Ð¸Ð½Ð°":7314,"kg":7315,"ng":7316,"page":7317,"vid":7318,"omac":7319,"ĠGuru":7320,"Ġnamed":7321,"ste":7322,"emic":7323,"ĠÐ»ÑİÐ±":7324,"ftware":7325,"Ġablaze":7326,"Ġcharacter":7327,"ĠPartners":7328,"ĠChatGPT":7329,"wide":7330,"Ġwalk":7331,"Ġpark":7332,"ĠWa":7333,"idance":7334,"Ġ150":7335,"eared":7336,"à´£":7337,"ĠReveals":7338,"Ð³Ð°Ð½":7339,"Ġyouth":7340,"ĠÐ¼Ð¾Ð³":7341,"Ġaddition":7342,"ĠÐºÐ¾ÑĤÐ¾ÑĢÑĭÐ¹":7343,"ARE":7344,"Ġphone":7345,"Ġpositive":7346,"REE":7347,"while":7348,"ĠSPORTS":7349,"ĠConsidered":7350,"Ch":7351,"vention":7352,"itch":7353,"ĠTitle":7354,"ĠLtd":7355,"ĠEr":7356,"ĠGot":7357,"Ġlanguage":7358,"ĠÐĴÐ¾":7359,"Ġsepar":7360,"ishes":7361,"ĠUpcoming":7362,"Ġindic":7363,"Ġbelie":7364,"ĠHindi":7365,"ĠLouisiana":7366,"ĠForeign":7367,"ĠOPIN":7368,"undreds":7369,"Up":7370,"__":7371,"iy":7372,"ss":7373,"Ð¸Ñī":7374,"ĠIHC":7375,"Ġmot":7376,"Ġhuge":7377,"owell":7378,"ĠGov":7379,"ÑģÑĤÑĮ":7380,"Ġvoice":7381,"Ġexact":7382,"umps":7383,"Ġuns":7384,"ĠEven":7385,"ĠEvening":7386,"ucker":7387,"Ġdirected":7388,"TSB":7389,"ĠPalestin":7390,"ĠSingh":7391,"folio":7392,"ĠOPINION":7393,"Ġap":7394,"ĠNOW":7395,"ĠDallas":7396,"ĠHold":7397,"ersey":7398,"ĠJones":7399,"ĠStadium":7400,"ĠTrading":7401,"Ð°Ð»ÑİÑĤ":7402,"ĠCommittee":7403,"irection":7404,"Ġcancel":7405,"inning":7406,"ĠInteractive":7407,"Ġfacing":7408,"ĠUkrainian":7409,"Ġturned":7410,"Ġappeared":7411,"ĠHamas":7412,"ĠSabha":7413,"ĠGrowth":7414,"delays":7415,"GA":7416,"JP":7417,"Ġtele":7418,"Ġsources":7419,"Ġcas":7420,"Ġcell":7421,"ĠNeg":7422,"Ġdark":7423,"ĠStyle":7424,"ĠOnly":7425,"Ġ45":7426,"Ġnewsletters":7427,"ifting":7428,"ĠAgainst":7429,"erc":7430,"Ġcateg":7431,"ĠBund":7432,"ĠKS":7433,"ĠÐĵÐµÑĢ":7434,"ĠInsider":7435,"Ġretail":7436,"ĠCrashes":7437,"USD":7438,"Ġfriend":7439,"Review":7440,"ĠCaptioning":7441,"85":7442,"No":7443,"TIS":7444,"Year":7445,"ros":7446,"Ġult":7447,"Ġathlet":7448,"Ġcards":7449,"ĠMo":7450,"oms":7451,"ĠHo":7452,"ador":7453,"ĠNewsroom":7454,"imals":7455,"ĠÑģÐ¾Ð±":7456,"ĠThan":7457,"Ġà´µ":7458,"google":7459,"ĠStrategy":7460,"Ġestab":7461,"ĠFOX":7462,"Ġcouple":7463,"ĠWebsite":7464,"OD":7465,"WG":7466,"XI":7467,"Ð½Ð¸ÑĢ":7468,"Ġfast":7469,"Ġpic":7470,"ĠWant":7471,"ĠDespite":7472,"ĠGD":7473,"ĠÐ²ÐµÑĢÑĤÐ¾Ð»":7474,"Ġwhite":7475,"iki":7476,"Ġcritic":7477,"Ġgradu":7478,"ĠCODE":7479,"Ġdifficult":7480,"Ġvideos":7481,"ĠSynd":7482,"ĠCyber":7483,"Ġencour":7484,"ĠOlympics":7485,"ĠCould":7486,"ĠAL":7487,"ĠBored":7488,"ĠFun":7489,"ĠREL":7490,"ĠWhe":7491,"ĠDeath":7492,"Ġdiversity":7493,"ĠEye":7494,"ĠGri":7495,"Ġlinks":7496,"ĠJava":7497,"Ð°Ð»ÑģÑı":7498,"ĠBlues":7499,"Ġappoint":7500,"uthors":7501,"ĠRegul":7502,"ĠHighlights":7503,"ĠBuff":7504,"Ġgrowing":7505,"ĠÐ¼Ð¸ÑĢÐµ":7506,"ĠÐ°Ð²Ð¸":7507,"itution":7508,"ĠSpokesman":7509,"Ġinformed":7510,"ĠEMI":7511,"rehensive":7512,"cell":7513,"ĠSide":7514,"Ġself":7515,"Ġwife":7516,"Ġfelt":7517,"Ġpath":7518,"ĠRail":7519,"illy":7520,"Ġdest":7521,"ĠHill":7522,"Ġrank":7523,"Ġrace":7524,"uns":7525,"Ð°ÑĤÐ°":7526,"ĠSubst":7527,"Ġchance":7528,"ĠÐ±Ð¾Ð»":7529,"iction":7530,"ĠFranc":7531,"ĠRescue":7532,"Ġdeterm":7533,"ÑĢÑĭÐ²":7534,"ĠSwed":7535,"ĠViews":7536,"ĠMartin":7537,"ĠKorean":7538,"Ġfigure":7539,"Ġconversation":7540,"ĠClarita":7541,"ĠAzerbaijan":7542,"bon":7543,"rel":7544,"ĠII":7545,"ulner":7546,"Ġprob":7547,"Ġspent":7548,"ruit":7549,"ĠInsight":7550,"ĠShopping":7551,"Ġrunning":7552,"eterans":7553,"Ð¸ÑĤÐµÐ»ÐµÐ¹":7554,"On":7555,"UK":7556,"oose":7557,"Ġàª":7558,"ÑĢÑı":7559,"Ġcities":7560,"ĠBeat":7561,"Ġhistor":7562,"utual":7563,"ĠSpec":7564,"Ġshooting":7565,"Ġ43":7566,"Ð¾ÐºÑģ":7567,"ibly":7568,"Ġclub":7569,"certain":7570,"ÐµÐ·ÑĥÐ»ÑĮÑĤ":7571,"Ġblood":7572,"ĠOrder":7573,"ĠSuccess":7574,"ĠBangl":7575,"ĠSettings":7576,"GE":7577,"iative":7578,"mys":7579,"oil":7580,"oft":7581,"ouds":7582,"ĠNeighborhood":7583,"Ġband":7584,"Ġmig":7585,"ĠOT":7586,"ĠKA":7587,"ĠVia":7588,"à´Ļ":7589,"hard":7590,"Ð¾Ð»Ð»":7591,"ially":7592,"ĠAnsw":7593,"tty":7594,"apped":7595,"Ġphys":7596,"Ġdeadly":7597,"Ð¸Ð½Ð³ÑĤ":7598,"ĠHeart":7599,"Ġpremium":7600,"ĠOscar":7601,"ĠÑĢÐ°ÑģÑģÐºÐ°Ð·Ð°Ð»":7602,"BR":7603,"NBC":7604,"ba":7605,"Ġx":7606,"ano":7607,"ĠAN":7608,"ĠMoh":7609,"iling":7610,"Ġhum":7611,"Ð²Ð¾ÑĢ":7612,"ÑĪÐ¸Ð±":7613,"Ġcannot":7614,"ÑĢÑĥÑĪ":7615,"anner":7616,"ÑĥÐ´ÑĮ":7617,"Ġlooks":7618,"ĠADVER":7619,"ĠÑįÐºÑģÐ¿":7620,"ĠFortnite":7621,"ĠENG":7622,"ĠÑĢÑĭÐ½Ð¾Ñĩ":7623,"Ġmeasures":7624,"ÐµÐ·Ð¸Ð´ÐµÐ½ÑĤ":7625,"ĠADVERTIS":7626,".)":7627,"fri":7628,"Äģ":7629,"ĠLyn":7630,"ĠGround":7631,"ĠOthers":7632,"Ð¾Ð²ÑĭÐµ":7633,"ello":7634,"ancing":7635,"Ġinstruct":7636,"ĠAcadem":7637,"ĠSqu":7638,"ĠPut":7639,"Ġbi":7640,"Ġbro":7641,"ĠWalk":7642,"ĠLind":7643,"Ð°ÑĤÐ¾ÑĢ":7644,"onto":7645,"harm":7646,"àµ»":7647,"ĠSubscrib":7648,"Ġchief":7649,"cknow":7650,"Ġinside":7651,"ĠProjections":7652,"estination":7653,"ĠContinue":7654,"RN":7655,"gs":7656,"Ð½Ð¸":7657,"Ġsell":7658,"Ġpict":7659,"ĠBoth":7660,"Ġbur":7661,"ĠGon":7662,"Ġeasy":7663,"Ð²ÐµÐ´":7664,"ĠÐ²ÐµÐ´":7665,"Ġstore":7666,"Ġprojects":7667,"à¤Ĥ":7668,"ĠImmigration":7669,"Ġhowever":7670,"Ġacqu":7671,"ITY":7672,"Ġsuper":7673,"iatives":7674,"Ġhappening":7675,"Ġsectors":7676,"ĠGrammys":7677,"ĠToronto":7678,"dr":7679,"ept":7680,"ux":7681,"Ġtw":7682,"ĠMEX":7683,"Ġtoward":7684,"iliate":7685,"Ð¾Ð²ÑĭÑħ":7686,"ÐµÐ½Ñİ":7687,"ĠÐľÐ°ÑĢ":7688,"raud":7689,"aho":7690,"ynam":7691,"Ġobs":7692,"ĠÐľÐ¾ÑģÐºÐ²Ðµ":7693,"Ġtreatment":7694,"ĠRelationships":7695,"ë¬¸":7696,"ĠÐĿÐ¸ÐºÐ¾Ð»":7697,"DS":7698,"equ":7699,"mir":7700,"Ġtitle":7701,"ened":7702,"itc":7703,"edits":7704,"Ġcourts":7705,"oline":7706,"Ġgather":7707,"Ġrul":7708,"cean":7709,"istics":7710,"email":7711,"Ð¾Ð»Ð¾ÑĤ":7712,"Ġargu":7713,"lands":7714,"OME":7715,"ĠCoach":7716,"Ġpattern":7717,"ĠÑģÐ°Ð¼Ð¾Ð»ÐµÑĤÐ°":7718,"ĠCFB":7719,"Ex":7720,"casts":7721,"Ġ>":7722,"ÑĢÐ°Ð²":7723,"Ġsets":7724,"Ġsale":7725,"ĠTest":7726,"ĠAction":7727,"ĠALL":7728,"Ġwants":7729,"ĠBi":7730,"ĠFitness":7731,"ĠOK":7732,"Ġrevenue":7733,"Ð¾ÑĢÐ¾ÑĤ":7734,"ÑĪÐ¸Ð¹":7735,"Ġexample":7736,"Ġleaving":7737,"overed":7738,"phas":7739,"Ġmining":7740,"Ġhelping":7741,"ĠÑĢÐµÐºÐ»Ð°Ð¼":7742,"written":7743,"ĠCamera":7744,"Ġmidair":7745,"ĠÐĲÐ²ÑĤÐ¾ÑĢ":7746,"ĠÐĲÐ½Ð´ÑĢÐµÐ¹":7747,"95":7748,"mat":7749,"ÐŃ":7750,"Ġavoid":7751,"icut":7752,"icient":7753,"Ġfail":7754,"Ġfiscal":7755,"ĠBa":7756,"ĠBroad":7757,"owers":7758,"Ġgave":7759,"ĠVICE":7760,"Ġanxiety":7761,"Ð¾ÑģÐ¼Ð¾ÑĤ":7762,"ÐĿÐĲ":7763,"ĠIncrease":7764,"ĠButt":7765,"Ġstatements":7766,"ĠÐ¶Ð¸Ð²":7767,"ÐµÑģÑĤÐ²Ð¸Ñı":7768,"Ġstudent":7769,"ĠRwanda":7770,"ĠCapitol":7771,"Ġmillions":7772,"ĠTea":7773,"isa":7774,"Ġfired":7775,"ĠRac":7776,"ilty":7777,"ĠHul":7778,"Ġrain":7779,"ĠKumar":7780,"ĠÐ¾Ðº":7781,"ĠYad":7782,"ĠÐľÐ¸Ñħ":7783,"ÐµÐºÑĥÑī":7784,"Ġcriminal":7785,"Ġdeg":7786,"ĠSpanish":7787,"Ð½Ð¸ÐºÐ¸":7788,"Ġattention":7789,"Ġcalling":7790,"athan":7791,"ĠCapital":7792,"ĠAustria":7793,"Ġsupply":7794,"Ġparts":7795,"ĠIdaho":7796,"Ġlargest":7797,"Ġreflect":7798,"ĠAddress":7799,"iciency":7800,"interest":7801,"Ġprosecutors":7802,"Ġsustain":7803,"ĠPotomac":7804,"CR":7805,"ora":7806,"itage":7807,"Ġrepl":7808,"ĠÐŁÐ¾ÑģÐ»":7809,"ÐµÑĤÑģÑı":7810,"scape":7811,"ÐĺÐĶ":7812,"INE":7813,"ĠCarl":7814,"ĠAfghan":7815,"Ġaffected":7816,"aught":7817,"Ġpotentially":7818,"ĠAttack":7819,"Ġproposed":7820,"ĠThomas":7821,"ĠMahar":7822,"da":7823,"pay":7824,"Ġeth":7825,"ĠAv":7826,"Ġmiles":7827,"ÐµÑĤÐµ":7828,"ĠÐ¡ÐľÐĺ":7829,"ÐµÐ¹ÑģÑĤÐ²":7830,"ĠÐ±Ð¾":7831,"Ġwhole":7832,"ĠìĹ":7833,"ĠSelect":7834,"Ġamount":7835,"Ġhighlight":7836,"ĠÐ·Ð°Ñī":7837,"ĠConnecticut":7838,"ÐĵÐ¾Ð³":7839,"ĠBhop":7840,"Ġwinners":7841,"Ġrevealed":7842,"ĠEDIT":7843,"ĠWLRN":7844,"ĠKennedy":7845,"twitter":7846,"ĠPack":7847,"ĠMail":7848,"ĠMental":7849,"Ġbott":7850,"Ġtools":7851,"Ġhy":7852,"ecurity":7853,"Ġlimited":7854,"Ġforced":7855,"Ġeither":7856,"Ġrules":7857,"ĠVer":7858,"istance":7859,"ĠÐ¡ÐºÐ°ÑĩÐ°ÑĤÑĮ":7860,"àµĢ":7861,"ĠDeal":7862,"ĠUnleashing":7863,"ÑĢÐ°Ð½Ñģ":7864,"ĠParam":7865,"ĠConnections":7866,"Ġactivities":7867,"ĠFAQs":7868,"Ġsteps":7869,"ĠColumbia":7870,"respondent":7871,"Bl":7872,"gery":7873,"rics":7874,"ario":7875,"Ð»ÑĥÐ±":7876,"Ġbrought":7877,"ĠWal":7878,"Ġdied":7879,"Ġhimself":7880,"ĠHospital":7881,"eline":7882,"Ġgambling":7883,"ĠÐ´Ð¾Ð»Ð¶":7884,"Ġclouds":7885,"Ġitself":7886,"Ġappears":7887,"ĠCarib":7888,"ylan":7889,"ÐķÐĿ":7890,"ECT":7891,"Ġshortly":7892,"yes":7893,"Ġcold":7894,"ĠRumors":7895,"Ġmult":7896,"owd":7897,"Ġreporter":7898,"ĠÑģÐµÐ³Ð¾Ð´Ð½Ñı":7899,"Ð°Ð½Ðµ":7900,"Ġ37":7901,"ÑĪÐµÐ³Ð¾":7902,"duce":7903,"Ġemp":7904,"ATE":7905,"Ġready":7906,"ĠOrgan":7907,"ÐµÐ¶Ð´Ñĥ":7908,"Ð½Ð°Ñĩ":7909,"ruption":7910,"Ġreleases":7911,"Ġinflation":7912,"ĠContribute":7913,"Ġprofessional":7914,"ĠGeorgia":7915,"vidia":7916,"PL":7917,"gment":7918,"papers":7919,"ties":7920,"Ġsolutions":7921,"Ġcamp":7922,"ĠIR":7923,"ĠEll":7924,"ĠEmergency":7925,"uma":7926,"Ð¾ÑĢÑĤÐ°":7927,"Ġ34":7928,"antic":7929,"Ġprogress":7930,"Ġdeploy":7931,"enses":7932,"Ð¸Ð¼Ð¸ÑĢ":7933,"ĠMean":7934,"They":7935,"ĠÐ¿ÐµÑĢÐµÐ´":7936,"Ġredist":7937,"ĠÑĪÐº":7938,"ÐµÑĢÑģÐ¸Ñı":7939,"ĠParamount":7940,"mary":7941,"rant":7942,"with":7943,"ĠPC":7944,"ĠBus":7945,"ĠBoy":7946,"ĠEat":7947,"ĠÐ¸Ð¼":7948,"Ġprison":7949,"Ġleague":7950,"ĠConvers":7951,"ĠÐ±Ð»":7952,"ĠÐ»Ð¸":7953,"Ġdisplay":7954,"ĠYouth":7955,"Ġsmart":7956,"ĠRoom":7957,"ĠÑĨÐµÐ½Ð°":7958,"ĠBreak":7959,"Ġchallenge":7960,"Ġinjury":7961,"Ġrecovered":7962,"Ġclicking":7963,"ĠNTSB":7964,"ĠRub":7965,"ĠGM":7966,"Ġreplace":7967,"Ð°ÑĢÐ¾Ð²":7968,"Ð¸Ð½Ñĥ":7969,"ĠShould":7970,"ĠAdditional":7971,"Ġjobs":7972,"ĠÐ¼ÐµÐ½Ñı":7973,"ĠExpress":7974,"Ġarrow":7975,"ĠìĪ":7976,"ICK":7977,"Ġreduce":7978,"ĠIran":7979,"200":7980,"HER":7981,"beat":7982,"Ð½Ð¸ÑĨ":7983,"Ġpan":7984,"Ġpiec":7985,"ĠFREE":7986,"ayan":7987,"Ġgold":7988,"ĠThrough":7989,"ounge":7990,"Ġ09":7991,"ĠÐ·Ð°Ð±":7992,"Ġpolitics":7993,"epth":7994,"otte":7995,"ĠÐĺÐ·Ð¼ÐµÐ½ÐµÐ½Ð¸Ðµ":7996,"bean":7997,"Ġfeature":7998,"AC":7999}